77
26
02
5D
0E
05
79
0A
6C
05
74
08
7A
29
1B
24
22
3A
70
6A
6E
71
0F
2F
79
10
74
01
6E
0F
17
50
53
72
7C
1B
78
67
1A
76
10
50
7E
1B
5B
20
0F
00
7D
01
24
1A
7A
6A
0C
7D
03
65
13
1D
5D
7E
6B
10
09
19
7F
7B
01
7E
11
75
06
0A
06
79
03
7E
6C
03
13
02
14
04
0C
04
07
03
75
02
7B
11
71
73
7F
77
03
02
04
75
08
7B
0B
04
64
73
74
03
01
0D
79
7F
79
78
6D
05
72
07
02
14
79
70
30
69
7D
7A
7A
6E
