71
70
66
71
6A
7C
72
7E
71
7F
07
6A
28
72
49
78
01
71
73
7F
7E
03
04
7D
70
0D
7E
04
03
76
09
0E
08
03
07
7B
79
19
02
7D
06
0C
78
79
72
7A
71
7C
63
73
15
07
70
7B
74
6A
1E
6A
29
02
01
06
08
05
0E
04
6B
7B
79
02
09
07
7B
0E
6C
6C
00
79
76
77
06
78
02
09
7C
75
01
72
7F
06
7F
61
7C
78
7C
7C
0F
7E
7C
78
6D
02
0F
0B
02
6C
07
7A
1C
12
7C
03
77
01
0D
77
05
08
14
12
7A
68
79
01
08
7F
6B
7F
