01
7D
09
0A
0D
00
73
7E
75
76
79
65
79
7D
06
75
0A
7D
08
6E
10
06
03
09
0D
06
77
0C
17
04
7A
03
76
09
03
7D
04
07
01
01
79
6B
0C
20
0E
7F
7D
7C
17
14
01
5D
08
72
07
7D
59
4C
0F
7C
7E
02
7F
0F
7E
68
01
73
0D
04
11
02
69
08
02
69
6F
14
6C
70
1D
75
76
6F
00
7F
78
0F
7C
6A
05
64
01
1F
10
0C
7E
7B
08
18
04
0C
0D
03
78
65
73
75
71
14
05
74
06
7A
20
7E
76
77
7C
00
71
01
16
06
01
7E
0A
71
