03
7A
49
0D
13
1C
0B
69
00
72
6D
5D
5E
70
18
77
18
77
60
09
75
77
72
57
00
68
7B
07
05
04
71
6F
12
0E
14
09
7F
12
17
0F
72
15
0F
06
74
07
6D
72
17
25
10
76
00
09
06
22
77
01
0C
78
08
7F
02
04
08
05
7A
75
0E
73
7C
71
7C
06
72
10
6D
7F
14
07
07
17
71
6B
79
07
7B
00
0E
77
70
0B
03
74
0D
06
03
0B
7B
68
7E
05
12
0E
03
74
06
03
0E
07
76
09
7B
27
0F
72
0F
75
02
25
74
70
2E
74
7D
16
66
07
