0C
7C
15
77
7D
60
11
14
76
08
00
7D
10
79
07
01
72
0F
0B
5E
73
0E
75
02
05
07
7F
72
0D
14
7E
76
09
10
03
04
1D
08
03
79
7A
08
02
74
6E
0D
7D
7E
7C
1C
7C
01
77
67
09
10
05
65
09
6F
7D
66
1B
21
62
03
0C
15
0F
06
03
7A
6C
74
7B
6D
06
10
03
65
7F
08
0A
7B
14
01
72
06
7F
05
11
6D
0C
2D
7B
7D
64
76
7F
7D
09
6B
7F
77
1A
74
6E
6A
08
7C
03
74
7B
02
0A
05
6A
0D
63
7A
05
77
0F
7E
78
18
71
0D
