10
19
7B
09
0A
7C
0F
05
7B
69
73
65
73
0A
22
02
14
76
04
7D
11
76
77
7A
7C
01
65
0F
16
6E
0B
77
7F
1D
02
06
7E
06
0D
7D
7E
7C
7D
13
0B
03
6F
7C
2A
01
73
5F
01
7C
18
1E
6A
5C
00
67
0C
73
05
02
7A
02
0A
09
7B
00
7E
76
03
7D
7F
73
79
08
0B
03
00
0F
79
74
0A
7B
01
08
0F
7B
7F
08
6F
73
79
75
7F
74
00
75
09
7E
75
04
75
00
03
15
1A
7A
7E
7F
11
12
06
6D
75
77
0F
6B
6D
6D
0E
78
03
0E
14
06
