6E
78
7E
79
76
03
01
78
7F
02
7D
76
75
05
04
77
04
00
79
6B
09
7D
6F
0D
7D
75
7B
07
01
7B
72
0A
06
09
03
71
0A
03
0B
01
06
11
0D
13
75
01
03
04
7C
1B
7C
78
06
7F
6F
11
6F
61
27
79
71
05
1A
04
70
03
01
78
07
75
07
77
79
73
77
7A
11
71
77
7F
0B
7F
7D
75
7C
7B
04
7E
05
7B
77
0C
0F
02
00
6C
0A
7E
01
04
0B
7D
0D
7F
0B
01
10
00
0C
07
05
7E
00
7A
7C
59
01
73
03
25
71
67
0B
03
7F
02
78
05
