FD
E3
24
DE
0D
F0
FD
18
D3
0F
FB
D4
E7
14
35
0F
16
EB
05
00
02
F9
06
24
F3
4C
19
0F
E3
17
1E
05
F0
F7
F3
FB
07
DD
05
02
EE
21
FB
05
20
1F
FC
FF
32
10
00
F4
E9
10
22
10
CE
E3
24
0E
09
ED
F0
04
E8
F0
F7
07
FD
11
FC
1B
FB
07
F2
F4
0E
01
01
08
F9
05
E8
FA
08
F9
F8
04
F0
F8
F2
FF
02
EE
FD
00
05
15
09
FB
FD
FC
FC
0A
EF
0A
0D
17
06
FB
FA
EB
FD
03
08
0C
1A
0E
13
FA
0A
E8
09
E7
FC
00
DE
03
