1B
7B
7B
02
07
02
05
01
61
05
02
75
7B
23
70
77
7E
7F
74
62
75
02
7E
7E
05
68
03
71
1A
74
62
7E
71
14
01
03
77
78
0C
00
71
12
02
1C
7A
07
6A
0E
02
7C
07
7E
75
05
79
7B
01
63
02
6B
0B
7D
72
02
04
75
04
6F
6B
05
07
78
64
6B
64
54
09
79
21
0D
02
7C
04
76
7F
1A
75
68
0D
7F
75
6A
1E
0E
77
0A
70
2A
75
0D
02
04
76
65
6A
57
7D
17
60
06
78
06
19
77
02
68
63
0B
01
27
00
40
1E
17
73
79
7A
7B
