EF
03
09
12
F6
FF
02
F4
FE
F8
FF
F9
05
09
01
FE
FE
FB
FC
FA
17
FA
FE
02
0D
FA
0C
09
07
03
EE
F8
FC
0A
00
FE
0E
07
01
FF
0A
04
FC
FC
2A
F5
01
FD
0E
00
04
F8
02
12
F7
02
EA
EB
E9
F8
FA
01
FE
02
0B
03
17
F9
09
ED
F6
F4
FA
E7
EF
0C
FE
03
22
03
0C
13
10
FB
F2
08
EB
00
14
EC
FB
E0
EF
F1
06
F7
FD
13
01
FC
06
FB
FA
FC
01
04
0F
01
FE
05
EF
11
F6
FC
08
DF
0B
02
1A
E3
FD
01
41
0C
0A
03
02
10
