78
76
00
73
79
7E
7F
00
7D
7C
75
71
05
07
24
0B
00
79
04
70
02
7D
68
03
10
06
7F
16
06
70
6F
0D
00
0C
79
76
08
04
7B
08
1D
00
06
05
75
7B
7F
03
05
1D
74
62
04
77
06
00
6B
64
7A
0B
71
7F
6C
03
75
09
70
06
7C
75
77
78
77
7D
7A
78
0C
04
08
75
7B
7D
7C
6E
7C
06
05
11
03
04
06
08
0B
73
07
7B
03
07
03
75
0C
0D
7E
6F
1F
0D
7E
05
79
04
79
04
70
00
0A
15
74
12
7D
02
6D
73
79
79
7C
7E
7D
7A
