10
FD
EC
02
FE
F6
0C
F7
F1
0D
04
E7
EF
37
EB
08
E6
0F
D7
F6
F8
ED
16
EB
13
F0
02
02
24
F6
FC
EC
F9
03
12
F8
ED
F5
FE
11
FB
06
E1
08
F3
EF
D8
F8
08
26
01
F6
D0
F3
FD
F8
06
B8
F7
FA
F5
03
FF
EE
16
F0
EB
04
0A
FF
FD
0C
F2
F8
0A
00
0A
04
01
14
0C
0B
EF
FA
FF
F9
02
FF
FD
0E
0E
E1
09
07
00
03
08
12
FD
EF
07
FA
01
F1
E6
FA
0E
F6
F1
F5
F5
F6
F1
02
0D
FF
FD
EC
FD
EB
01
16
F9
FD
FE
08
10
09
