04
79
03
74
0B
01
04
79
12
7E
75
66
0D
7E
25
05
7B
6E
77
01
7B
08
03
0C
06
70
73
09
02
6A
71
79
05
0A
73
6F
0D
7B
02
0D
06
0F
6D
7F
22
05
7C
0F
77
03
04
70
7C
67
08
0D
6D
5F
10
07
76
03
19
09
1B
05
04
3B
2C
1A
6B
76
76
0B
71
73
05
13
0E
5C
71
78
7F
78
6D
66
76
6D
70
73
0A
0E
7B
72
01
6E
76
62
71
00
03
01
0D
02
02
26
24
76
50
0E
1E
05
7C
17
71
0C
7F
6F
71
73
03
21
0A
0C
7E
6B
74
6A
