21
00
F6
FF
F4
FF
03
FC
C7
00
01
F2
EF
12
EF
0B
1B
FF
07
EB
0B
F9
EB
F0
E8
EC
E3
F8
28
FB
16
12
0F
09
07
F4
0A
F5
01
E9
BA
10
FC
28
DF
F4
EB
FB
FF
08
05
07
E4
1A
0E
F2
06
D6
15
00
09
EC
F5
0B
F5
0A
0A
19
05
E5
14
F7
FE
28
F7
D6
F1
09
CA
07
F2
00
FF
E9
EC
09
F3
ED
07
EA
1C
FA
ED
1F
F1
0F
03
11
14
F0
FE
02
1A
05
09
03
10
0E
F4
F9
FB
05
08
04
F9
0A
EA
00
35
F4
E6
F4
0F
F5
02
30
1A
0D
