D8
27
E0
F7
0D
E7
0A
0E
D7
10
F2
05
DC
1A
19
12
1A
F1
F1
05
DF
FE
DF
1A
05
D9
FE
FD
0C
0B
1D
F1
15
F0
1E
FB
00
09
0A
05
EE
1F
06
ED
FB
10
22
F0
16
1A
E4
FE
D8
FB
04
DE
F9
EF
02
14
F1
FB
D9
20
24
0B
F9
E9
FB
15
0D
27
0A
01
01
E5
08
FA
F9
15
19
F4
07
FE
E1
08
F7
13
F0
07
F8
FD
0A
F8
16
05
F2
07
21
F6
16
0B
01
03
01
F4
0E
03
01
0B
FA
FE
28
1B
EF
EC
E5
05
11
F0
EF
EE
42
14
04
0B
15
09
