05
01
79
0A
06
05
7C
05
00
7D
76
79
00
7A
0E
12
7B
06
09
7C
78
07
05
04
0A
06
78
7E
7E
76
6E
7B
01
07
7C
77
0A
01
7B
7E
01
06
7A
7B
19
7C
03
03
7C
0C
76
6D
72
77
14
61
73
7D
16
02
76
00
0D
02
7A
0E
78
07
0B
7A
0D
74
76
7B
73
7F
7A
03
08
72
03
11
7F
72
72
01
00
74
77
08
70
7B
15
75
0F
6A
7E
1C
00
77
0A
10
00
7A
5C
7D
78
7D
03
01
70
00
15
69
0B
6A
7F
05
6B
0D
76
78
17
03
71
14
6A
14
