77
70
06
04
15
0E
78
01
5E
06
73
7C
68
02
11
08
7B
73
77
08
0F
0E
10
7D
15
1F
79
67
7D
75
04
09
06
77
01
74
7E
00
7C
75
12
07
0D
09
08
70
01
03
11
00
11
12
75
0A
75
1C
00
78
05
7C
03
79
6A
0B
12
7F
6F
01
5A
70
21
04
06
72
76
03
7F
0E
23
08
18
31
62
76
03
0E
0E
10
05
1E
5C
0F
0F
12
7F
6E
53
08
67
7A
0A
1B
11
03
6D
05
25
0B
75
2C
08
14
1F
7A
05
73
64
74
05
2D
63
42
0C
16
5B
76
5A
73
