00
00
05
17
04
FD
FC
01
F6
08
FF
F1
05
00
01
08
F7
FF
02
FA
12
FE
FE
03
09
FD
04
FB
EE
F8
F8
F7
F9
00
F9
F8
05
FF
00
02
FF
0A
FB
10
13
FF
02
08
03
0C
FE
E3
FE
FC
FF
FB
F6
00
17
F5
FB
FA
0B
FF
FA
07
0C
EA
01
FF
F9
08
0F
F2
FA
E7
22
F0
04
F5
F7
EC
F9
09
F2
06
FC
08
F7
04
01
10
15
F4
0A
F4
08
F1
00
F6
F6
0B
03
F1
01
F4
FE
F6
F1
10
F6
FE
D6
16
1C
42
E9
F9
F6
F7
FA
F7
15
0A
F8
04
F9
04
