7C
0C
7C
04
75
71
13
76
01
11
72
60
7A
7F
02
0D
7A
72
7E
0C
0A
75
06
76
09
7B
03
7E
6A
6D
79
73
12
1C
7A
02
14
7A
06
0B
06
75
09
03
14
00
7B
02
0F
03
12
62
10
00
0D
12
75
66
1D
77
74
03
79
00
03
0C
07
12
78
7E
22
2C
23
6F
01
64
16
6F
00
7D
6F
4C
5A
7C
1C
03
07
03
61
05
2B
57
27
18
63
02
05
7D
07
7A
61
75
07
50
20
12
29
63
7D
08
7A
09
4D
1C
0D
19
11
0A
0B
7F
03
12
02
64
13
6F
08
16
