14
75
7E
09
7E
1E
78
72
07
16
73
68
6E
7F
0D
6F
7E
7E
04
0C
0F
16
10
01
03
00
7A
72
02
6A
08
0D
15
1C
5C
6F
28
07
6D
18
00
01
02
05
09
04
7C
15
04
1D
12
52
71
78
75
1C
7B
09
0E
70
73
76
74
0A
7C
26
16
03
02
79
1A
1D
13
6B
73
6D
2B
0B
08
79
77
62
57
06
02
0E
05
0D
03
77
01
72
05
0A
6F
7E
7F
15
74
77
66
7C
79
67
04
78
10
00
6B
0B
09
05
58
12
0D
02
73
79
04
64
7B
68
19
01
10
7E
05
06
