0A
79
08
7B
74
13
70
7E
06
7B
78
5C
7D
78
07
0E
00
78
0A
68
02
0A
6B
05
03
01
7A
71
74
6A
01
7A
02
7A
7A
5B
02
04
0B
06
7D
0B
7C
09
35
03
09
02
24
7D
74
6F
75
6A
7C
0A
67
5A
7A
7E
6C
07
09
07
7F
01
02
7E
01
01
7F
7F
02
00
7E
7A
7E
04
05
00
7D
01
7F
7D
02
7E
7E
00
01
05
00
7F
7F
02
7C
06
00
01
01
7F
01
00
00
7E
7F
7E
01
01
06
7E
02
7E
7F
00
00
01
01
00
06
03
7C
7C
03
7E
00
00
00
03
