7D
1E
7C
62
10
7C
24
56
61
75
06
76
72
02
1A
69
03
5E
68
67
61
16
6A
75
7B
70
4A
01
16
4A
6D
6F
11
07
76
21
1A
25
69
7E
12
7F
29
16
06
02
76
6C
2E
1D
79
6B
72
7E
7E
26
6D
7F
23
0A
73
65
55
01
21
69
6F
7A
72
79
18
1A
7D
00
72
03
23
1B
77
66
7D
6E
06
05
05
7E
12
7F
05
74
05
7F
29
00
7E
06
67
05
6F
0A
6A
1B
7F
18
77
10
00
11
69
05
0B
11
66
06
04
01
73
68
7A
7C
0E
0F
15
21
6E
77
7A
15
