04
04
6F
7A
05
75
73
1A
61
0A
76
00
7F
66
76
5A
78
1E
69
02
70
01
0C
79
7D
03
77
69
7A
74
0A
0B
7A
19
03
7D
0F
73
25
7D
0C
07
1D
0B
7C
11
64
13
7A
05
10
08
03
73
02
02
7D
08
0D
7C
7A
16
05
16
00
7B
05
77
7B
01
7B
70
7D
02
7D
74
68
76
05
04
7C
6D
68
01
7F
16
7F
7E
7B
16
0E
7A
03
7A
0F
6F
02
08
01
77
00
0C
7D
05
05
7C
14
7B
13
78
0C
7D
14
69
7F
75
04
77
72
12
6F
6D
79
06
00
04
0C
04
