0C
15
0B
0C
07
7E
69
02
6B
79
62
77
0E
6F
08
11
00
31
06
12
7E
77
0D
07
21
0B
20
7B
71
79
06
5A
21
72
6D
0C
6B
76
18
18
22
23
25
0E
5E
21
0B
11
0C
7B
6F
02
55
68
7F
05
78
7B
7C
7C
73
03
6B
05
60
0D
09
65
78
05
03
02
5E
0A
0E
7A
72
02
05
00
07
07
10
7C
71
7B
71
6A
03
0A
0B
25
7F
0B
17
7A
10
1F
01
15
00
65
01
09
01
04
12
0D
6A
0A
1C
79
0E
0F
0A
73
75
72
10
7C
74
0F
09
09
09
78
02
72
