11
00
0E
6A
07
79
08
7E
7A
05
7D
62
03
78
7A
0E
7A
01
08
02
15
09
77
76
73
7D
0C
09
7D
71
0E
04
79
09
08
7C
0A
73
7F
02
7B
08
78
05
64
04
00
00
27
10
7E
76
04
78
01
04
64
00
00
08
76
7E
70
00
7B
6E
09
76
77
03
7A
02
7B
0A
7A
65
71
79
7D
15
79
7B
76
6E
79
0A
6C
05
0A
75
0A
03
7D
77
0C
7A
7B
16
7D
0A
16
7C
79
03
06
71
0C
02
7C
04
7D
02
16
76
0A
66
14
00
12
04
6C
65
7D
79
70
08
70
09
