78
0A
04
7A
08
7A
09
01
03
69
0D
06
7C
7C
08
7A
77
01
09
02
09
09
7C
6E
6F
01
73
08
74
76
02
79
72
08
03
0C
04
0F
02
7A
18
74
73
7E
0E
79
74
08
00
03
7A
73
79
04
0E
05
0D
79
11
04
74
7C
72
04
0E
18
0E
73
7A
7C
7E
16
78
05
05
79
75
05
77
67
71
72
02
0F
03
79
7E
0F
68
61
13
05
0E
03
1D
7B
77
6A
7D
63
72
02
75
06
77
1F
7B
6E
02
79
67
14
08
16
03
0F
7D
7E
10
7E
0C
13
25
08
70
64
07
0C
