01
37
39
17
14
0C
3E
07
01
33
3E
2B
2E
3F
36
04
3E
05
12
01
06
31
32
39
34
3E
37
01
1C
08
32
3C
08
0C
11
04
0C
3F
15
00
3E
37
0D
01
0A
31
36
3C
17
09
38
21
0B
06
38
1C
01
01
1D
02
34
3F
09
3B
04
3F
03
3A
37
3F
01
05
3F
05
01
3E
00
35
04
3F
03
0D
3B
39
04
07
04
03
01
0A
03
04
0C
39
01
00
3E
38
04
3F
03
0A
34
08
00
00
2F
3B
31
03
00
3D
3A
3C
3F
19
12
01
3A
13
27
35
33
3C
06
01
03
3F
