7E
74
09
03
77
02
0C
70
63
10
64
02
62
6A
5D
6B
04
7C
02
04
6B
0F
08
04
06
78
0A
09
01
75
25
02
65
29
01
6A
77
6D
27
71
7D
12
74
16
69
78
64
7D
18
7C
25
14
75
01
1F
10
03
02
17
7F
77
04
0A
0A
6E
6F
07
71
7A
09
7E
7E
7F
0B
74
74
79
76
0E
77
05
0C
74
65
7C
78
79
07
7A
07
08
79
7F
01
64
03
00
7F
0D
7C
01
04
11
78
0D
0D
0B
09
14
02
04
78
08
07
7D
73
75
66
07
6C
7B
74
74
08
7D
77
03
00
