0C
14
7D
70
52
78
19
06
13
73
0A
6F
71
5F
18
7E
75
09
02
13
10
08
0B
16
77
06
0A
0D
0D
38
1F
72
0F
21
70
05
05
02
7D
0F
79
2D
59
07
75
6F
77
15
79
67
09
54
03
7F
7C
18
69
72
11
69
71
7F
0B
02
0D
72
11
75
6E
76
72
05
71
72
04
75
01
7A
6C
06
7F
02
0B
07
11
03
70
08
07
76
18
07
74
14
08
0C
08
02
02
75
09
79
70
77
72
7C
7A
03
08
7C
73
79
14
1B
7A
02
72
08
1F
7A
15
79
19
29
7E
08
0F
0D
