1A
7B
00
73
08
0A
17
13
64
02
04
77
0F
77
0A
7F
09
71
74
78
0A
08
01
73
7C
04
71
0C
75
77
72
7C
0B
07
09
69
0E
78
01
7C
6E
78
7D
0A
17
03
6E
75
02
6E
7C
61
7E
78
20
0D
03
6F
09
7E
05
0F
7F
7F
03
7C
01
7A
7F
7D
04
77
03
7A
01
6C
7D
7A
6D
02
00
77
02
79
78
01
06
7C
7D
03
75
7E
7E
76
78
79
7E
04
00
76
08
01
05
05
13
01
08
79
1F
01
06
03
0F
09
04
6F
01
78
04
7D
78
73
03
7D
7B
06
72
01
