75
18
04
7C
06
04
13
74
11
78
09
6D
7D
78
77
6A
77
75
76
66
08
09
7F
77
04
78
0A
0E
07
6B
71
06
07
7E
06
7E
78
78
7B
74
21
07
20
7F
0B
0A
69
00
75
17
09
0F
6F
08
76
1C
75
66
34
6F
09
7F
04
7C
7F
07
15
7E
6B
60
0A
79
08
6A
10
69
00
7C
16
55
09
66
5E
7D
07
7B
05
0B
78
14
7F
05
0D
00
5F
0C
7E
7F
68
77
7C
67
61
62
0F
15
0A
7C
7B
03
77
55
6D
61
04
0C
0B
78
08
71
0C
27
29
09
07
74
77
0D
