04
01
FF
F5
06
08
04
FF
FA
02
FB
EF
F9
FB
09
03
01
07
F6
05
FD
04
FA
05
02
ED
F8
06
03
01
05
ED
07
0E
00
FA
0E
01
00
07
F7
00
04
0A
FF
03
FD
04
06
06
03
E6
07
F0
09
FC
E9
F9
1D
01
FF
F8
FB
01
08
03
18
F7
F3
CC
F0
08
C6
D9
04
DD
F9
3A
BC
EC
20
FC
E5
EA
FF
FA
38
FD
02
E6
E7
CC
FA
E8
FF
EA
00
0C
17
20
0C
EC
F8
14
23
FD
EE
41
10
01
E1
03
05
FD
0F
43
F9
1C
06
EA
E9
BC
20
F1
E2
EA
E3
E6
