08
7B
17
73
05
01
62
0B
7A
60
57
74
66
72
0A
72
68
15
13
7A
7B
05
13
79
05
73
33
69
6E
06
18
74
78
0C
7D
09
75
09
7D
20
2E
0F
0F
1F
5F
7A
62
7E
78
0B
0B
0C
74
6D
7F
6F
6E
79
04
11
7B
72
09
0B
7F
0F
07
09
07
07
00
55
7C
08
73
64
03
03
1D
1A
0D
7C
0B
75
13
71
7C
04
18
7A
0B
71
1F
77
6A
75
05
5B
1E
7B
6B
03
0F
79
7F
00
15
05
0F
0E
6A
0D
1B
76
78
16
01
0D
11
74
6A
6E
03
74
03
7F
06
16
