12
F6
10
FD
F9
FF
0B
0B
00
FD
F6
D3
BB
01
0D
09
EE
15
07
1E
F5
02
03
EE
15
0C
18
E1
05
10
ED
E7
FD
02
EF
0E
0F
FB
FF
F9
0E
0F
0F
06
F7
FE
EB
0D
06
2D
29
0A
19
09
FB
07
F2
11
07
F7
F4
FF
EB
FB
FF
FE
FF
FD
FE
00
02
01
02
02
02
FF
FF
03
FA
FF
01
01
FE
FF
F7
FE
03
00
01
FF
FF
FF
01
01
01
00
03
02
01
00
00
01
FF
FF
02
FE
FE
02
FC
00
00
FE
02
FD
00
01
FE
02
00
FD
FF
00
06
00
03
FE
FD
FF
