75
7C
06
7B
79
78
7B
76
6D
79
78
73
72
03
14
78
07
1F
00
77
00
00
79
08
07
78
7C
7F
0A
07
7B
76
0F
0D
7F
71
03
7A
0A
00
0C
78
7F
7E
07
09
07
7E
0A
05
0A
08
77
6F
01
08
77
79
17
0B
07
7D
6E
14
16
7B
70
66
0A
74
77
5D
67
0E
6C
5F
1C
73
09
74
18
00
5D
76
6D
0B
03
71
58
71
02
08
1D
0C
75
7D
16
08
1C
62
0B
66
01
7E
7C
71
6B
78
67
2C
56
13
29
20
7B
69
72
6C
0C
04
65
6C
21
61
62
12
45
00
