7F
0E
72
74
07
7F
10
04
0A
7F
79
77
7C
73
7C
72
7A
13
70
05
01
0A
10
6A
7C
05
7C
11
11
01
0D
05
71
08
06
7B
15
0A
7E
77
12
7A
1D
78
01
07
78
07
7D
70
08
11
02
6F
78
03
63
63
0D
02
04
7A
09
1D
0A
00
5B
09
7F
07
7C
08
68
01
79
75
6A
7E
0E
75
01
10
00
70
17
7B
78
01
73
04
7B
0D
74
0A
05
70
0C
74
0A
06
20
70
7C
7A
7F
0C
6F
04
29
10
00
77
34
74
17
7A
78
07
09
03
58
71
15
0C
67
7F
70
7E
