76
0C
02
03
76
0D
76
01
7E
7A
7D
77
10
7D
78
0B
7A
77
08
78
7B
01
07
09
01
6C
09
06
76
76
7E
0E
04
02
7E
7F
78
00
7C
07
08
09
09
7F
16
75
02
01
0D
7B
01
7D
70
09
7F
06
0C
76
7D
77
71
7B
00
71
04
0C
7E
00
72
68
74
7A
6B
06
00
6D
04
7D
79
01
7E
11
72
66
0C
0D
77
00
06
01
07
77
1A
71
04
76
68
79
01
17
0F
07
05
7B
77
1A
7B
10
11
08
08
72
17
11
78
7B
03
74
14
79
60
5A
20
07
7A
0A
70
19
