76
01
79
03
05
76
03
07
0E
01
66
71
09
6E
0F
0A
71
14
78
73
03
09
77
02
7B
03
79
7E
09
6D
04
09
7E
1F
76
7C
04
7E
04
12
03
78
22
03
04
01
04
00
12
75
7A
72
79
05
18
12
69
5B
78
7F
78
0D
7B
78
7E
0B
23
7B
02
76
11
7D
7E
78
72
57
76
76
28
6A
06
60
06
7F
72
03
06
22
76
0F
08
73
7F
6A
2C
7C
78
1A
7B
79
19
12
02
08
5D
04
2A
04
6A
00
6B
7C
10
2F
7D
75
70
7D
03
10
72
12
0A
79
7F
0B
6B
16
