67
0F
76
14
0B
06
01
1F
7A
69
7D
78
09
0F
0C
18
0E
75
54
73
18
72
7C
0F
0E
04
7E
01
05
02
04
6D
05
09
71
60
2E
00
78
70
76
12
15
05
11
7D
70
7E
1D
70
78
14
71
78
18
26
10
7E
09
02
5B
04
70
73
04
0B
0B
7B
50
69
15
70
24
1D
6F
47
46
74
10
07
73
78
11
02
19
6F
69
11
02
17
05
1C
7D
1C
16
6E
04
78
0D
76
09
03
7C
77
6C
14
14
0A
18
7B
75
13
28
19
0B
6C
0A
70
0B
14
6E
79
0D
7B
7D
71
7B
7E
