3E
38
04
09
3E
3A
08
3E
3F
37
03
3E
00
0B
37
09
2F
01
01
33
39
32
3D
0B
08
06
3A
10
31
04
39
07
05
07
07
2C
0A
3F
00
04
0B
3F
37
06
39
04
02
3D
29
3C
0D
30
03
39
35
32
39
32
00
0F
32
0E
01
37
02
0A
3D
04
00
00
3D
3A
3B
01
3B
2E
36
03
04
3E
00
36
31
3A
07
05
3C
09
07
06
3F
3F
3B
34
3E
05
01
0E
07
2F
3F
07
02
3F
04
3E
07
02
0C
01
02
02
13
00
06
39
3B
38
08
3B
2C
31
0D
39
37
3E
00
05
