7F
77
01
00
76
5B
02
05
04
02
7B
6D
7C
0D
7F
78
78
09
7C
74
08
07
7A
7C
77
79
0F
0D
12
7D
04
6D
0B
1E
7C
06
7E
7F
0E
03
7B
7D
77
6E
7F
11
7A
7E
10
7F
15
77
7D
02
05
0D
58
5F
14
07
6F
08
74
0F
7D
0B
78
76
76
0A
05
07
7E
01
7C
73
7D
7D
78
7F
76
78
7D
7C
18
76
03
71
03
7D
7B
04
6E
7C
7C
77
0E
11
7F
01
07
00
03
05
6E
0C
0B
0B
77
7E
77
7F
06
16
07
67
08
0F
0B
01
75
73
0E
09
78
09
7C
02
