0C
1B
28
02
E9
01
E0
DE
22
01
F5
12
0D
EF
08
11
FA
24
04
F3
EE
FD
F5
09
16
F9
0C
FA
21
FF
E1
09
E6
13
0C
02
14
FA
08
FF
14
16
17
FC
DA
E6
DE
16
DD
2A
03
0C
01
F9
FD
F0
F2
0B
4D
F1
0E
F3
E6
0D
F7
1B
EE
1B
F1
FA
EB
08
20
03
F7
F3
08
F5
F5
F4
01
0D
EF
05
05
1D
0E
F1
F0
FD
0E
F1
F4
FA
08
E3
21
0C
F2
F8
12
F0
FE
09
2C
F6
FB
FF
EA
05
F2
0E
E0
FD
11
E2
FD
02
1A
E5
08
19
58
FE
F5
D5
CC
CD
