FA
02
CA
FF
F1
E9
2E
DF
E2
FA
0F
E8
EA
FF
E2
00
F3
E3
FC
18
F5
F2
F4
EA
04
F6
F4
12
31
FA
08
E9
BA
F7
0B
F1
CF
0B
FE
07
FE
0F
DD
FB
D7
00
12
F2
03
01
ED
F2
C4
FC
14
35
03
16
4C
27
ED
F2
DA
42
F0
F8
F8
08
09
FD
1E
EF
ED
F6
FC
04
F4
EA
04
EA
00
EF
FD
EE
F0
FE
FA
E4
0B
11
F8
FB
0E
F4
F0
F0
00
FE
FE
F7
16
04
F6
18
1B
F2
21
01
16
08
0A
0D
01
08
0C
0A
F7
0F
0E
10
18
FD
EB
0F
09
FC
E3
FE
