6F
0B
01
22
7D
06
7D
70
74
6C
75
7E
77
25
18
11
7E
01
6C
61
66
77
78
74
7C
79
11
0A
2B
0C
73
79
7F
19
6F
63
7E
03
10
7E
16
72
72
1B
1D
14
05
7A
0B
5F
67
5F
01
16
00
18
7D
65
79
15
6C
11
11
1A
03
7F
78
7E
09
09
03
6F
75
7E
7A
7D
00
7C
76
10
06
0E
7A
72
06
7C
03
7B
0A
78
7D
09
08
7D
7E
09
04
00
7C
7B
00
77
00
7D
7D
7B
07
0D
0F
78
02
01
01
75
02
0A
08
00
76
1E
71
72
05
78
02
7C
75
04
