F3
03
FD
0F
FA
05
EF
FE
D7
07
04
F6
02
FE
F9
FD
0D
FF
02
0C
06
FF
F8
03
FC
05
01
10
ED
FF
FA
DF
02
E1
02
04
E0
0E
08
FB
1B
02
04
13
FD
FC
FC
03
00
D2
FD
E7
F2
EC
0C
0D
EC
01
02
23
F7
F8
DD
08
DC
E6
15
08
13
0E
FD
04
1C
FF
E1
EF
0B
F7
F5
22
1E
ED
03
CD
F4
E6
F5
F0
ED
F6
D7
11
F0
10
2E
BC
DD
EB
FE
E2
FE
2C
FA
EE
03
00
FC
F7
EA
F8
F5
F5
13
13
1B
F6
E6
E5
F8
10
DE
F4
0C
21
F7
2A
F5
1D
