3E
3F
37
3E
3A
12
37
02
37
06
00
32
0F
30
3A
07
38
03
29
31
36
04
0B
3A
3A
36
01
35
33
32
3A
02
3F
34
01
36
0C
3B
07
39
0A
0B
03
38
3C
01
3A
3E
15
0A
39
30
02
16
00
18
0E
34
0D
38
3B
36
05
03
03
06
3D
3D
08
38
3F
3F
04
3B
0A
3D
0C
3C
37
3F
01
30
36
3B
2B
3F
07
00
04
04
00
00
07
3F
06
39
3C
38
3D
38
3D
03
3D
3F
39
37
08
3F
36
3D
02
0A
2B
3C
05
04
3E
2E
3E
3B
3F
3F
02
07
00
3E
06
02
