05
FE
13
FC
FC
F9
08
FD
FE
00
FC
FD
00
FB
04
0E
FF
FD
02
FC
01
03
FD
FE
F7
FC
FF
01
01
01
03
05
FB
04
F9
08
04
FE
06
FF
FB
FD
02
00
07
05
00
FC
08
F8
02
07
06
FF
FF
04
04
FB
02
05
03
FD
06
FE
04
00
06
F9
04
01
01
03
04
FF
03
01
0C
FE
FD
0E
06
02
0C
07
02
0B
0C
09
F8
FD
06
07
02
00
04
02
FB
02
03
02
00
06
F9
03
FB
0A
01
03
0A
04
FF
FF
FF
FB
05
07
00
FA
02
FF
FC
0C
00
FD
F6
F3
FA
09
01
01
FE
F8
02
FB
FD
02
FC
09
FB
FC
04
00
02
03
03
08
02
09
FE
03
06
FE
08
00
FF
06
FD
F9
08
01
F8
F7
02
FE
05
FC
11
FE
01
00
F8
0B
05
02
08
FC
00
F8
00
03
FC
05
02
FB
03
01
00
06
08
08
02
FB
1D
11
FC
FB
FE
FA
03
FF
FC
01
00
00
FE
FD
0B
07
FF
08
0A
FC
0B
FF
05
03
0C
FF
03
03
01
02
00
04
00
FD
07
FB
06
00
05
FF
01
03
05
02
05
06
02
FE
00
FE
00
FD
FD
0B
FE
FC
03
FF
FF
00
0A
01
01
02
09
02
01
01
FF
FF
02
FD
04
03
07
00
F9
02
02
05
EE
0B
00
FD
05
08
FE
06
E9
09
F8
16
01
FC
02
04
02
02
05
05
06
04
0C
11
03
F8
03
03
0A
06
F5
00
0A
0F
07
02
04
0C
08
03
04
F9
02
01
01
F8
04
06
F6
FC
04
FF
02
02
FF
02
F8
03
03
03
FB
FF
FF
02
02
0F
FD
04
05
0F
08
03
FA
FE
00
04
16
00
FB
F8
00
07
0A
0D
FA
05
01
06
FB
F9
05
0A
02
FF
07
05
03
02
04
FF
FE
0C
08
00
F4
05
FE
06
04
01
0D
04
03
ED
04
F9
04
0A
03
00
03
08
03
EF
07
01
00
06
0B
06
0D
F5
04
08
FF
FF
03
FC
07
09
0C
FE
06
14
00
FD
06
02
F5
04
08
0B
FD
03
00
02
06
ED
0D
FF
05
04
05
13
19
07
0B
0D
02
07
26
03
FB
03
08
0F
FB
0A
0F
03
FF
04
0E
FE
04
02
0F
00
FC
FF
10
00
FC
09
08
02
13
03
01
08
F4
08
06
FE
00
FF
03
02
03
FF
05
FE
FD
03
03
02
02
EE
00
05
07
EE
06
F8
08
08
00
FD
00
07
02
FF
06
19
06
01
02
02
00
F8
FC
01
FF
FF
FC
01
FE
FD
F9
FB
D6
F1
F6
FE
00
06
04
06
F1
EE
00
F5
03
17
FB
03
09
09
FC
FD
F4
F9
01
00
FD
02
03
F9
00
F7
FB
FA
FF
F5
04
F2
08
08
F7
F7
FE
FF
F8
F5
FF
02
F2
04
F8
FB
00
04
FF
06
FE
FF
FE
00
04
0A
F8
07
00
FE
F7
01
04
03
FE
02
FA
F0
07
FD
00
01
FC
EF
0B
F5
00
05
0D
03
09
05
F8
01
FE
F7
FF
FF
EE
FE
FD
FA
F9
FF
04
FF
05
F7
04
0A
FB
06
EC
02
02
07
FD
F3
06
01
00
F8
03
0C
0C
0E
03
F3
F3
F3
01
FE
02
0C
FC
FE
FB
01
F6
FE
01
05
FA
FA
EB
FB
FB
FB
03
04
01
FB
0A
F9
FA
EF
02
FD
00
FD
FA
07
03
14
F5
E8
F4
01
FA
F7
EB
FD
FF
07
ED
FD
F7
FE
FF
05
F9
FE
FE
FE
07
FB
0D
04
03
F2
FE
0C
05
07
06
FA
06
FC
06
06
00
03
04
FB
03
1A
EB
F2
02
F6
00
F9
00
F3
FC
11
02
F9
F8
00
00
FD
FA
ED
FE
0B
04
FC
F9
F9
F9
FC
F5
FE
FF
07
04
0E
FD
FA
FF
F0
FC
FC
F0
11
E4
0B
06
F2
FF
00
FB
FF
F7
F6
FD
00
0C
F7
01
FD
EE
FF
FA
00
01
FB
FF
FC
FB
EC
F7
05
FE
06
FD
F0
05
F0
05
0D
F1
F1
08
F9
0E
FB
01
F8
F7
FF
FB
FE
F1
FD
00
06
0B
06
FF
0C
05
00
FE
F7
FC
FD
F8
03
06
01
FC
EF
FC
FD
FF
02
FA
09
E9
F6
F9
F7
FF
06
05
FA
FF
EC
F2
EE
FD
F8
00
FB
FA
08
FD
07
FE
E8
FB
FD
FC
FE
FE
FE
F6
FD
E6
F3
FC
FB
09
FC
FB
FA
F5
01
FC
FD
F8
00
03
FE
F6
FE
FD
FD
FE
0A
F7
FA
FC
04
FD
FD
F4
FD
05
0F
FE
FF
FA
F1
FF
FD
F8
01
FD
F8
F9
FB
02
FD
FD
02
FF
FC
FF
F4
08
01
F8
00
02
FB
F4
07
FB
FC
FD
F0
EE
F9
F5
FB
FF
F9
F8
FC
00
FB
FB
01
F9
FB
09
03
FA
F8
06
01
00
01
FD
FD
03
05
05
FF
FC
FB
00
02
FC
0A
01
0E
FA
01
F8
04
F9
FE
08
F6
FC
01
FC
FE
F8
EF
FF
F8
FD
FB
03
FF
FB
02
FD
F0
FF
FA
F4
04
06
F4
0B
FA
FE
FB
FC
F2
FD
F3
FF
F0
FC
F7
00
0B
02
F5
FE
F9
F8
FA
FB
FE
FF
FA
FA
FD
00
01
09
FA
05
01
F5
E7
04
F1
F2
FA
19
FF
10
04
FF
F4
FA
ED
F5
07
21
FD
04
07
0B
0E
FE
02
03
F8
06
FB
F8
FA
FF
0A
FB
F0
02
F5
F9
F9
FD
04
FB
09
FD
01
00
0B
00
F3
FD
10
08
03
00
04
FE
07
01
F8
05
02
05
FF
FF
06
08
10
FA
05
FA
00
06
FD
F6
05
02
06
F6
0B
01
FF
FF
F5
FD
FD
FF
F5
F4
07
03
FB
08
00
F8
08
FE
01
F7
F6
07
0D
05
0B
05
01
FE
F9
03
05
07
02
0A
F7
FB
FB
09
18
09
04
0E
FF
08
0E
FE
F9
FE
FC
03
F6
0F
00
07
0B
00
17
05
11
00
FD
FA
05
08
03
0D
FE
F9
0C
FD
01
EE
13
03
00
F9
12
04
FB
07
FF
02
FD
FF
0A
03
FE
FC
F5
FC
1F
F8
06
06
03
FE
09
FB
EF
13
01
FF
FC
FC
F7
F8
FD
FE
05
FF
F7
07
FD
00
FA
00
0B
FC
03
FD
04
FF
FE
FF
0A
07
F6
03
03
0F
0F
F8
18
FE
FB
04
FE
FD
FB
F6
03
08
FC
02
FF
01
05
03
F9
09
02
02
FC
0F
0A
06
01
FD
FC
0F
02
02
FF
FB
07
05
F7
FF
05
FF
FA
F7
F7
00
FC
F3
F9
FF
FE
00
04
00
00
02
10
11
F9
0F
FA
FE
04
0C
F9
01
09
1A
FE
0C
F5
FC
05
02
0F
F9
FF
F8
F7
F6
00
00
F9
FA
08
F6
02
FC
10
08
0F
0B
0E
FC
F9
F8
02
ED
FE
06
08
0B
FE
02
03
01
FC
F6
05
EC
FF
03
FD
02
10
F8
F3
FF
06
F1
FB
F9
09
FE
03
FD
02
04
02
FB
05
08
08
09
F9
FB
08
FC
03
09
03
FF
FF
05
09
0B
09
0B
F1
FD
FC
06
06
FD
10
08
FE
02
01
05
F9
F2
06
00
07
0A
FE
01
04
03
0B
08
05
1B
01
06
F6
F5
03
05
05
06
F3
08
02
FD
07
04
12
09
FB
FE
04
06
FF
FB
00
FF
03
FE
01
F8
13
0E
FE
04
FE
00
09
F4
06
03
FC
FC
FC
06
FC
00
07
06
09
F7
02
0A
F6
04
05
F8
0A
09
09
17
11
FF
FE
FF
01
FD
0F
F3
FF
08
FE
05
FF
F8
04
03
01
02
F8
F9
FE
18
FF
07
FB
FC
08
05
00
F9
F5
03
F7
F3
F6
08
05
FF
F9
05
02
00
0C
06
FD
F9
03
06
1A
06
0F
FD
19
06
FD
01
00
07
06
04
F7
03
08
F3
0B
04
08
03
02
FF
FB
FA
FE
FF
FD
EC
FD
02
E9
FA
FB
E1
FC
F4
FC
0E
03
00
05
00
05
FC
F6
FE
F7
ED
FE
04
00
EC
EE
FF
F2
05
FD
03
FB
05
03
F3
FB
F7
0D
FC
FE
01
FE
FA
FD
01
FA
0C
02
F6
F6
08
FE
F9
00
03
FD
FB
F0
F9
0D
01
F8
FB
03
EF
FE
05
0B
05
02
02
FA
07
FE
FF
F9
F9
02
07
FA
FF
FE
FA
09
03
F5
FE
FF
0A
00
E7
05
FA
FF
FC
F7
F3
02
FE
04
01
FB
05
03
FD
FB
FA
0E
00
02
FF
FB
ED
F2
FC
0F
F6
10
04
05
F4
F7
14
08
F5
FC
04
EC
F2
0A
FF
FA
F9
F7
F4
05
F7
05
F5
FC
06
08
01
EA
02
FC
00
00
03
05
07
EF
09
FC
FB
F1
03
F3
02
FB
08
FB
03
06
FF
05
F6
F7
F9
03
01
FF
FE
03
FB
03
F8
FB
02
0B
FD
EE
F4
02
F6
F5
F8
EC
F9
FA
FC
FF
FC
09
F4
00
F6
FC
03
00
F4
FC
F4
01
EE
FE
F1
08
08
F6
FE
FE
EE
06
FD
F8
02
F4
00
F9
FC
00
01
FE
04
FF
FB
F7
FF
ED
FF
FB
FF
F3
0B
FF
FC
FF
FE
03
FD
FD
02
FE
01
FC
02
01
06
FF
04
01
06
08
00
0F
F9
06
02
06
09
04
14
03
06
F9
00
F9
FB
02
01
05
F8
08
00
05
F5
F9
FC
FE
FD
08
08
05
08
03
FC
03
0B
F9
06
02
15
06
03
FE
05
FC
F6
FE
FD
00
02
02
FF
F7
FF
05
07
03
01
02
07
08
04
00
FF
04
05
FD
00
F5
F8
01
01
FF
FC
01
FF
06
FE
01
03
01
FF
05
F9
1A
FE
F6
04
03
03
05
0F
06
0E
F9
FD
09
04
F7
05
04
FF
06
0E
11
FD
07
F9
04
0D
01
06
FD
FF
09
FB
01
0D
FF
00
02
FD
00
02
13
02
F2
FA
FA
03
09
04
FF
0C
04
02
01
FE
04
07
FD
FE
FD
03
F6
05
0D
06
00
06
FE
06
F9
04
0F
FD
05
F5
05
F8
0A
05
FC
04
02
05
FC
10
FE
FC
00
FE
08
01
FC
04
FD
FA
08
04
00
F3
0A
00
00
17
05
09
01
0B
00
01
FF
05
05
FC
F9
04
19
08
FB
0C
04
0A
08
06
02
03
FC
FC
10
05
01
01
06
03
08
00
07
F4
04
06
05
02
FB
03
00
0B
F7
03
F7
02
0E
05
F6
10
08
FF
01
07
01
07
04
F8
01
07
09
03
01
F6
11
02
00
06
02
01
03
06
FC
02
04
01
07
F9
FF
FD
FE
05
07
FF
00
FF
FC
F4
04
02
00
F9
07
F7
F5
00
00
09
01
00
FC
02
01
F9
FE
FC
FD
F4
FF
06
FE
02
F8
F4
00
06
02
0C
02
F3
09
FE
F5
FE
18
F9
07
04
F8
00
FF
FA
FD
FA
03
02
F9
FE
00
FC
FD
FE
02
FD
FF
0C
EF
03
FE
FE
F9
02
01
FC
04
14
FB
07
F9
03
F8
FB
02
F9
00
FA
06
00
00
FE
FD
FA
01
FA
0A
04
FC
06
09
19
FF
01
04
0B
F9
0B
0D
04
02
02
02
FC
01
FF
0C
FD
FE
00
FF
FF
08
00
00
FD
02
03
01
12
FD
01
00
05
FD
00
FE
FB
FF
05
FD
FD
02
00
00
F1
01
FE
08
FF
01
FF
05
FF
FF
FC
FF
00
F1
FF
FD
03
01
FF
FD
07
02
00
FD
FF
F9
09
02
13
02
FF
03
FD
FF
03
0B
FD
07
15
01
01
04
01
F8
F0
FF
0A
02
FE
01
FB
02
FF
FE
03
FD
F6
01
F0
05
08
FD
0A
F8
FE
FC
FE
07
F6
0F
04
FF
FB
06
F8
01
02
02
FE
00
08
1E
05
FD
05
FC
04
FB
01
02
07
FD
00
FE
03
F5
05
01
07
FD
FD
07
03
02
FA
05
FB
F4
05
FD
FD
F9
FF
F4
FE
FE
09
FD
0E
11
F6
04
03
09
F4
03
F6
0C
02
03
FF
0E
10
F0
FD
FB
00
01
06
FC
EA
0C
F2
04
FE
FC
11
F7
01
08
FC
F8
01
F9
F7
FF
FF
FE
03
00
05
03
F5
FD
F6
FE
02
02
F9
FD
04
05
0D
04
05
F7
FB
03
FC
08
EE
F8
FE
04
0D
FA
03
04
FE
F6
FC
06
FD
FE
FE
04
F8
F9
FB
04
0D
FD
0B
09
FF
0C
06
FE
05
03
FF
EF
04
11
02
FF
EE
FF
FF
01
12
F0
10
F9
FF
02
01
FD
FB
FF
04
FF
04
FA
03
10
FD
FC
03
02
06
FF
04
06
FA
02
02
FC
FC
FB
F4
09
04
F9
06
02
FD
FB
00
02
FF
FE
05
F7
FA
16
FE
03
0B
FA
FE
06
F4
F3
0A
01
0A
FF
0A
03
FE
F1
08
FB
00
03
05
FC
16
F8
07
F6
07
00
09
F7
10
FB
00
FF
06
06
FD
0D
0D
FE
03
FE
05
0C
0A
10
FA
FA
03
02
FF
FB
FD
FE
FC
03
05
F0
04
00
FB
F1
03
F5
01
FE
FE
01
F3
FD
FF
0D
FD
E5
03
0A
05
FA
F6
FB
FC
FC
FB
F2
06
05
F9
06
02
0E
03
FF
FB
EB
0B
FD
0F
03
FB
02
F9
0D
01
01
F5
02
07
FB
FE
F9
F7
03
F5
03
FF
FD
F5
01
05
FE
1E
02
FB
06
07
01
0D
02
FB
F7
FA
00
01
FF
01
F5
02
02
00
05
03
0C
FF
FC
07
03
20
FC
05
FD
FA
05
01
FE
FC
09
05
08
08
FF
10
04
01
05
F5
FE
FC
04
03
FF
FF
FD
07
FD
FF
00
10
05
1A
02
FD
07
16
04
0D
09
10
FC
0E
06
FF
07
F8
F9
00
02
05
F5
03
2D
05
FB
F7
FF
F9
FD
FF
F0
F9
01
F9
F9
01
03
01
FB
F6
FE
0B
F9
FB
FF
FD
04
FE
F7
F9
EF
FE
FD
FE
FE
FD
FE
00
00
06
FE
FE
0E
FE
01
01
FD
FE
02
FD
00
F3
03
FA
04
F7
05
01
FE
04
FD
FC
FF
06
00
0A
F9
FA
0A
FD
07
FF
00
04
01
05
FD
18
39
0F
04
FF
06
FE
03
00
FF
F7
0C
03
04
FE
0A
FF
F9
F7
00
02
FC
0E
FE
23
FF
FF
F6
00
00
04
00
08
06
0A
FD
00
F7
F4
03
ED
0B
02
03
FE
02
01
FD
F8
FE
01
03
E7
04
0B
01
FF
FF
FC
FF
03
07
FD
FC
FE
04
05
FE
08
09
0E
FF
03
03
00
06
07
00
02
06
F9
00
FE
02
FF
08
FF
02
08
04
04
FF
FE
07
F6
01
03
F9
05
02
01
02
FD
FC
01
09
F7
00
01
07
02
00
FD
05
02
04
FD
08
00
07
02
06
00
FA
FF
04
01
02
04
03
06
02
02
FF
02
07
09
FC
00
03
00
FD
FD
0A
00
09
06
FA
FF
00
00
FC
03
FC
08
03
FE
06
F7
FF
09
09
FD
07
03
05
04
01
01
03
05
08
FE
07
02
0B
00
02
02
FC
05
00
00
FC
02
07
FD
04
0A
08
09
00
01
02
FE
06
FF
FE
03
01
F8
05
FC
00
02
0A
04
04
FF
04
01
05
FB
05
03
04
02
FD
0D
05
03
05
05
00
01
00
FD
01
FF
FF
09
FE
01
07
01
07
05
FD
02
04
FB
05
07
01
0B
03
04
03
03
FA
FE
FF
FE
04
FF
01
05
08
04
06
FE
03
02
FA
FE
04
0D
03
01
02
FF
04
FF
FD
03
00
FF
FD
02
FF
06
FA
FE
00
01
05
FD
04
FF
07
FC
02
02
02
06
FE
FF
02
03
0D
01
06
04
FE
03
01
00
02
01
04
07
FE
06
03
05
04
04
0A
07
03
FC
08
FD
00
07
07
00
09
06
FC
FE
05
03
FD
F3
03
11
09
02
03
05
F7
FF
FF
03
FC
10
02
03
0D
FB
05
FC
01
0E
02
0D
04
02
01
05
03
01
01
07
07
02
05
01
07
05
04
0B
01
06
09
10
0A
FD
01
00
04
04
02
02
03
00
FD
01
0A
01
03
FF
FC
03
FE
08
02
03
13
E8
07
07
0D
04
04
02
F7
01
04
00
02
11
01
FF
04
FF
01
03
01
01
01
00
03
00
FE
F6
03
06
05
09
FE
FD
FD
FF
00
06
FF
01
01
05
01
FB
F5
FF
01
FF
F2
FA
05
07
0A
05
01
01
FC
01
FD
02
08
FF
07
04
F9
0F
01
FA
F7
FF
0A
08
02
FF
00
01
07
05
03
07
FF
FD
05
04
F9
02
0A
FC
FA
08
FF
08
02
03
08
05
00
06
02
02
04
FB
FE
F8
0F
04
FF
03
E9
FE
00
FE
07
03
00
FF
05
0B
03
03
06
06
03
03
05
08
03
FF
08
02
01
06
FF
04
0C
03
06
01
FE
02
02
FF
08
FC
02
06
06
FF
01
03
01
01
09
07
07
01
05
04
03
03
04
05
FC
02
14
04
05
05
00
08
FD
00
FB
03
03
05
07
08
01
05
08
FC
08
05
FD
0A
03
08
06
00
01
0B
FF
E9
FD
03
05
F6
02
07
08
FD
FA
09
07
F9
FD
14
F8
FC
01
F5
07
FC
01
FB
FD
F5
FB
FC
02
00
FB
FD
FB
F6
FE
07
07
FC
03
03
07
FE
FE
F1
07
F1
FE
04
01
02
F5
FF
F6
FC
F8
FB
FE
06
02
F9
00
09
05
FB
F7
02
09
F6
D7
00
FA
FD
0A
FA
FA
F5
FA
FC
02
FD
FB
0A
FA
07
0D
01
07
05
08
02
04
FD
0E
FE
01
09
07
04
01
FE
02
FF
FD
08
00
0D
FC
02
FD
FA
08
0A
0A
F8
05
01
F4
FE
FC
07
07
08
FB
FB
02
FE
06
FC
FD
02
F3
FD
FE
F9
F8
05
0A
FA
01
F7
F6
02
02
04
FC
02
FE
FF
01
01
F4
FE
02
FB
FF
FE
0F
FA
FF
FE
FC
FE
00
FD
01
F7
0A
01
0F
08
FA
FA
01
01
F7
01
F6
FD
05
04
05
03
FD
F7
01
05
FC
F2
04
FE
07
FA
09
02
FC
FD
F2
04
F6
04
FC
FE
F9
03
FC
06
FD
06
FC
F9
FE
06
FB
FC
FA
09
F0
00
0A
FE
03
F5
F8
FE
00
FB
01
FE
00
00
03
01
01
06
FA
00
02
FF
01
04
02
FF
00
05
02
03
01
00
08
FA
FF
01
04
09
02
FA
FD
F4
FC
FD
00
F3
FF
FD
00
05
FA
FF
FE
03
07
02
00
F9
F7
F3
FE
F7
00
02
FD
FE
ED
F8
05
04
FF
FE
02
00
06
04
FC
03
FF
01
02
FE
04
FF
08
FF
0D
FE
02
FE
FD
FD
F9
07
FC
FF
07
07
00
FC
01
02
FB
03
04
F8
0C
FD
FC
02
FC
05
02
08
12
F8
E9
00
FD
FD
07
FE
00
FE
FF
03
FA
ED
01
0C
F9
F9
EE
01
03
F9
F8
FA
05
06
00
05
00
FF
05
06
00
04
F5
04
FD
F6
02
FF
FE
FC
F7
FF
03
01
F9
01
FE
F8
00
02
00
FF
FA
02
00
FF
FD
05
FA
FD
FC
FF
03
01
02
F9
FA
00
01
03
FA
FD
00
F9
03
01
FD
02
F4
F7
FC
00
01
02
FD
F4
04
F9
0D
0A
EE
01
06
FE
FC
FE
0B
FE
07
01
02
FA
FC
FD
04
00
FB
04
01
06
F7
F9
01
08
FC
FF
F9
F8
01
FE
05
FF
F6
00
FE
04
FF
FB
F7
F7
FC
06
04
04
00
08
F5
FF
03
FF
05
02
FF
FF
FB
00
FD
F5
FB
FD
02
FD
02
0B
F9
08
00
EF
07
00
00
FF
01
01
00
FF
FE
00
FA
FF
F9
0C
F4
F6
00
00
00
02
04
01
04
00
06
01
04
08
03
01
FF
02
05
06
07
05
07
05
02
05
02
FF
01
E7
FC
04
02
01
05
01
01
04
00
06
08
02
02
02
03
03
03
03
04
02
04
05
08
02
03
06
00
04
00
09
00
01
03
02
03
03
06
07
04
06
05
07
00
04
00
01
01
03
03
01
00
03
04
02
05
00
00
03
02
05
07
03
03
00
02
04
02
05
04
06
08
05
04
05
02
06
06
06
01
06
01
05
06
08
05
06
03
07
06
07
07
FB
05
00
02
06
01
04
04
02
02
07
05
05
03
FF
06
03
05
06
04
01
05
07
03
04
00
07
06
07
05
00
03
04
01
05
FE
05
06
01
07
03
07
05
03
09
03
02
01
00
07
07
07
05
00
08
02
00
FA
05
02
06
02
05
02
07
01
01
04
06
02
07
04
01
04
01
03
05
09
01
07
00
03
05
00
05
F9
FF
05
09
07
01
06
06
06
03
04
06
01
03
03
02
03
05
02
06
01
05
04
06
07
08
FF
07
03
02
03
00
08
02
02
05
02
01
02
02
03
06
08
07
01
03
05
08
00
05
01
08
02
0E
10
08
0F
F9
08
FE
12
FF
FA
FC
0B
02
F2
18
F7
F5
01
18
13
14
FC
FF
F0
FC
FF
17
FE
0C
FC
00
19
11
17
FA
FE
0D
05
27
FE
F3
14
04
F5
FD
FD
07
0D
05
15
1C
08
06
06
04
E0
13
07
0E
FD
FE
02
FD
F8
FC
03
F3
0B
1A
F4
03
02
0A
FE
03
FE
00
F8
04
01
08
09
09
01
0F
FA
03
FD
0D
04
18
04
01
F9
03
FA
FE
10
FE
11
03
F5
05
07
04
04
02
11
02
FE
10
02
0B
F3
35
0C
09
15
FA
08
FC
FB
FF
42
11
ED
F9
FA
01
09
FE
0D
02
07
05
FF
01
08
10
07
0F
01
FF
06
04
FA
0A
FA
07
03
0B
FB
12
09
FE
01
23
F2
FF
FA
06
0D
02
FF
FA
0A
28
FF
F9
FB
E3
00
01
03
13
04
FD
FE
02
11
05
07
FE
20
FE
17
FC
11
FB
07
F7
F6
07
12
F7
06
08
0C
FB
22
09
FF
FD
09
FA
05
FF
03
07
0C
FD
03
FD
F5
10
00
F9
12
07
0F
05
FF
1A
0A
15
F0
FC
FD
FE
07
0C
FC
FF
FC
F9
02
03
FC
05
04
06
03
0A
F7
02
14
FE
00
05
03
02
0D
0B
0C
F9
FD
FE
FE
07
FB
F7
F7
FF
12
00
FE
FE
01
F7
06
FF
F8
04
04
FD
00
02
FA
FB
FF
F9
14
05
04
04
05
01
05
FB
F5
F6
FC
FD
FF
FA
02
04
FD
FF
F6
FD
00
02
02
FA
FB
FA
03
FE
FB
02
FA
F4
F8
0A
06
F5
F8
FF
EC
01
01
03
03
04
F9
FF
F9
F9
F9
00
01
01
02
FE
01
00
02
02
01
FF
FE
F1
FE
F5
07
F8
05
FF
FD
04
02
0B
00
01
FE
01
FC
0B
09
FD
FF
F8
02
01
FD
FB
FD
04
ED
FF
02
FD
F8
04
FE
06
FB
00
FD
FD
FF
F8
FB
FB
FE
FF
F9
FC
FF
F5
02
F3
F6
06
01
01
FE
FD
01
F8
FE
00
03
FF
FE
FB
03
FD
00
F9
03
F9
05
FF
F8
0E
F9
F3
FD
06
FB
03
FD
ED
05
FA
05
FC
FE
F3
01
01
06
FB
F8
06
FA
0B
06
04
01
00
01
02
F6
F9
FC
06
FD
FA
FF
FE
FB
FD
03
FD
FD
01
06
FE
F9
06
F7
03
F7
09
0B
00
06
F9
0E
03
03
F6
FB
FB
01
FC
00
FA
01
00
FD
00
FE
01
F7
04
06
04
FB
FD
00
F4
F9
06
01
00
00
03
F5
F5
F8
02
FC
FE
F9
FA
F8
03
02
09
FC
FF
05
FB
F8
04
0D
00
FB
02
04
01
05
03
FF
0A
08
08
00
02
0A
FC
01
04
09
08
01
03
04
FE
01
07
FF
F9
03
00
FF
0A
00
01
05
01
01
F8
02
06
0A
F8
06
FF
FF
FD
FB
04
06
FF
FD
FE
FF
03
0C
04
02
07
08
FD
FC
03
10
F8
05
0B
04
F9
02
07
FF
01
02
06
00
FC
FB
04
01
FB
FE
FF
FC
02
02
0B
F9
F1
0C
FC
F9
FC
F7
03
09
03
01
07
FD
0A
05
F9
00
05
F0
00
00
06
05
FA
02
FC
08
01
FB
04
0B
FB
00
06
F9
04
FF
FB
00
FE
FA
04
0C
F2
01
07
F8
01
00
00
05
01
05
03
F3
FC
09
F6
07
FF
04
00
FB
0C
02
FD
F6
FB
01
00
07
00
00
07
FB
02
F6
00
FB
01
00
09
06
FF
FF
FE
05
FE
03
FD
04
FF
00
01
03
08
FE
FF
FB
0B
06
FE
01
0E
02
F7
01
07
04
F4
0B
03
04
0B
06
03
FE
03
FE
F6
FF
FD
07
00
FF
08
02
05
FD
04
06
05
FE
FD
05
FC
02
01
03
04
FA
F8
F2
FC
FF
F8
05
F5
F1
FF
01
01
02
00
00
FA
F9
F9
05
FF
F8
01
02
02
FE
12
FF
FD
FE
04
0A
03
02
09
04
F6
F2
07
13
F7
08
10
06
F2
03
FF
0A
FE
01
06
00
0F
FD
04
06
01
0B
F9
0C
03
0A
FC
FD
00
FC
FE
FC
FE
04
0C
0E
F8
F4
F8
07
14
F9
01
0A
12
FC
06
F4
07
1E
F9
F3
07
FD
06
FD
02
10
F9
04
06
FB
02
FB
FF
F6
FE
01
13
02
FC
04
0D
FE
0C
FD
08
17
05
05
02
07
12
04
FE
00
03
01
FE
FC
01
07
F8
F9
06
F9
0A
11
F2
FE
FA
F6
00
01
FB
FA
07
F6
11
FD
FF
F1
02
FB
03
05
FE
01
09
05
10
0B
09
01
04
FC
0F
F7
11
12
FF
01
FF
01
02
FD
FF
00
02
FC
FE
FC
F8
FD
FA
FC
0B
04
F8
0E
FA
05
05
06
05
03
F8
FD
0F
03
F1
F2
F9
FD
FF
07
FF
05
FC
FF
03
FD
12
FB
03
16
0B
EE
03
FF
36
F8
12
00
14
F5
00
01
FF
00
04
F5
11
15
0D
0F
03
00
02
FA
FD
01
05
07
FC
FE
0E
04
00
01
FF
06
FE
F7
FF
09
FE
0A
03
03
02
03
03
04
03
FF
07
FE
FE
03
08
04
0B
FD
1B
00
05
06
05
FC
0D
02
FD
F9
FA
05
F9
00
06
FD
F6
04
01
00
0B
09
07
00
09
F7
FF
05
FF
F9
02
FF
00
FE
FB
FE
F5
03
FD
03
F1
10
01
F4
05
E5
F7
01
FF
F5
08
FF
0C
0A
FB
FC
00
00
01
F4
02
02
0A
09
FD
00
00
EC
00
03
01
02
FD
11
FB
FF
07
FF
FE
FE
F9
FC
FD
FB
F5
FE
01
FF
FE
10
02
FF
F7
05
EA
04
0C
FE
FC
15
07
05
F7
04
F4
FC
06
FC
02
0B
0B
00
F3
03
00
03
01
FC
02
FF
04
00
F8
F8
FF
02
07
FD
FF
00
E7
01
02
00
FA
0A
04
16
F3
F0
FB
00
F9
F2
F7
02
00
F1
FD
F0
06
FB
03
FB
FF
F7
04
FA
F9
FC
02
FC
F7
FD
FE
04
F7
FD
00
FE
FA
FF
FC
09
03
03
FF
FC
00
ED
03
F4
05
05
FE
04
EA
09
0F
F8
FA
FF
05
05
03
F4
FF
FF
01
03
FB
09
0C
07
06
05
02
05
F8
0C
01
00
FC
F8
03
02
06
FF
04
FD
FD
FF
04
FF
FE
06
05
05
FD
F9
F8
03
05
03
FF
03
F7
FA
07
F4
FC
03
09
F9
FE
0F
FA
FC
03
FE
F7
06
00
FD
04
FF
09
FE
0B
F7
07
01
04
06
F9
F9
01
FB
08
FD
02
01
02
06
EB
12
21
06
0D
0F
FD
03
0A
07
04
04
02
00
06
F6
02
08
09
06
02
ED
07
FE
0D
FF
FD
04
FC
03
06
08
0B
FB
0E
0C
06
0E
FE
FD
FE
00
FA
06
04
FA
0D
F9
F9
F0
F8
F6
02
02
FB
08
FC
FC
0A
FF
03
F6
EC
06
0A
FD
FF
FC
0B
F3
0F
F1
0A
F5
00
08
0C
0C
15
00
1A
01
F9
0A
FB
FF
FD
FF
08
F9
00
06
06
FF
FD
FE
05
0A
FD
FC
0B
03
05
09
FA
FD
04
0B
F4
FF
FC
FB
09
00
06
0A
00
FD
FC
F9
03
00
FA
FC
F3
03
12
FC
01
FF
F5
FB
09
09
07
01
FF
FD
F9
FC
06
FE
FD
FF
FA
03
FE
02
03
00
02
FB
FD
00
FF
03
04
FD
F4
04
08
08
04
FD
F5
02
01
05
FF
FD
03
09
FA
F4
FF
F9
09
10
03
1C
FF
FE
FC
FE
F9
FF
12
0C
03
EC
00
F8
06
00
01
05
FC
01
E5
02
F9
FA
03
0C
00
02
FC
04
FE
01
02
06
02
03
04
00
FF
09
03
02
FD
FF
EC
04
03
02
EB
03
0D
00
F9
06
FA
06
09
04
00
FD
18
0B
0B
01
FF
0A
04
04
01
00
EF
F8
04
FD
F3
F9
05
F9
EF
01
04
FE
0A
FE
F4
06
00
F7
02
01
F8
0F
F7
10
07
07
FD
FF
F8
FE
18
FB
FE
02
FD
0B
07
03
FB
FB
F9
F6
02
F7
FE
FF
04
FE
1A
FF
FE
F7
FB
0B
0F
15
F9
08
02
09
0C
FD
02
FC
00
FC
FC
FE
04
14
FA
F4
11
04
F3
FE
0C
FF
FE
FC
FF
06
FD
F9
07
FB
01
FD
FA
F9
0B
11
FD
04
F7
FA
FE
0B
FE
FE
04
05
05
10
FF
06
F8
0A
FE
00
08
FC
05
01
01
F6
FA
E6
0A
F4
FD
FB
03
EF
F6
04
0E
04
21
01
FE
00
0B
FE
05
13
01
FE
08
0D
FB
FB
0A
FA
FF
FC
04
FE
FA
12
FB
0D
0C
03
F2
FE
0D
07
FE
00
FD
EF
FE
04
0C
0E
FF
FC
FB
04
0F
F9
F0
EC
0B
F4
FB
04
01
EA
FD
FE
08
20
F9
F3
FC
04
04
03
09
02
14
F5
0D
F8
00
F8
11
0A
F0
0E
FB
FF
FD
02
17
14
EE
10
02
F5
06
FC
FF
0A
04
FE
04
03
FD
FB
0B
09
00
FE
0A
F2
05
00
0A
FA
FC
06
01
FF
FB
FF
01
F0
0E
F5
FC
F4
FD
1A
04
F4
FD
FB
FF
FE
00
EE
F9
03
FE
0E
02
07
FE
FE
FF
0C
FE
FA
12
F7
07
F6
F9
FF
FD
FB
03
0D
03
FC
FC
00
08
FB
02
01
F7
14
09
FB
06
04
F3
0E
04
07
06
FC
04
0D
07
F9
FA
08
12
01
04
05
10
0F
09
04
07
FB
FC
FF
0D
FD
05
00
04
02
FC
03
F9
12
05
02
0D
F7
08
02
00
03
FD
FD
06
00
03
0C
0A
02
FB
FB
00
EC
11
05
0B
10
02
06
06
01
FB
E7
00
11
FE
04
01
F6
12
1C
01
00
09
FB
04
F1
00
09
0B
04
FE
F8
00
07
FC
FB
04
07
13
FD
F2
07
FB
03
00
0B
FB
0C
08
09
02
09
05
15
19
04
10
00
09
F9
06
02
F8
07
FB
FC
00
04
12
02
03
04
0B
04
14
09
01
04
12
0C
11
FE
FC
FC
F1
0B
03
FD
07
06
FF
FD
FF
EF
01
00
05
01
FC
06
FA
0B
05
0E
0A
02
03
05
FB
FE
13
06
02
01
12
04
F6
03
F5
11
09
01
F1
FF
FA
04
01
00
F0
04
F9
06
04
09
F6
FC
0D
0C
02
F3
FA
04
FA
05
0A
06
01
FC
F1
14
FC
FB
0C
01
0B
06
09
00
06
F9
05
F7
F8
04
04
0C
02
00
00
FA
FD
FA
F8
01
FD
01
02
E7
FC
F5
05
FA
04
EF
03
F0
07
F9
01
04
19
07
F9
00
06
F7
FE
FE
F8
F5
FE
FB
00
0F
FA
0A
03
FA
02
07
F4
F8
FA
FC
FC
06
00
04
05
FE
06
F4
E7
01
F4
FA
04
00
04
F4
FB
F0
02
0A
FD
FF
E8
FA
00
03
EE
FB
FF
F8
FA
FF
02
FE
06
FD
FB
F7
F9
E1
FF
FC
F8
03
00
0A
FC
FC
FA
FE
F9
01
EE
F8
F8
FC
F7
03
00
07
0C
FC
07
FB
E2
FE
01
FC
08
07
08
05
FF
02
05
04
F7
F0
FC
01
F1
F0
F6
FE
FE
00
0D
F0
FD
F9
F9
FA
FE
FF
04
EE
FC
FE
07
FC
06
02
01
FB
02
01
0C
F9
FD
03
FA
E0
0A
FE
FF
EB
01
04
03
FC
FC
FC
08
FD
FF
06
FD
F3
F5
05
03
02
FD
09
F9
FD
01
01
FD
FC
03
0F
F3
FC
FD
FB
05
09
FE
FB
FD
FF
01
0C
02
FB
F6
00
F6
F9
E7
FD
00
05
00
FA
F7
FE
EF
F4
FF
F9
05
F9
FF
00
FE
FD
F9
FE
FC
01
FC
F3
FF
FB
02
03
0E
FF
04
F9
05
FD
FC
FE
FC
0B
0E
F9
03
FE
03
F8
FA
05
FE
FB
F9
FE
00
FF
FC
0C
03
02
FB
FE
05
F6
FA
FF
FE
05
08
04
FF
D2
08
0C
FC
07
00
04
F1
FD
08
FD
00
03
00
04
FD
FE
FF
FF
FB
03
FF
DB
04
FC
F9
FF
FD
FD
FE
06
FD
06
F7
FD
09
FF
0A
FF
01
02
FB
02
0B
F9
FF
FD
FF
0A
02
06
03
FF
04
F9
0A
02
FB
01
0D
FF
ED
FE
FA
F0
04
02
FE
FE
00
FD
09
05
02
F8
0A
04
03
FC
0C
04
F8
00
FB
FB
FF
FF
08
FC
00
0A
FC
FE
0A
F8
01
FA
01
FD
01
FB
FB
02
09
F6
07
EF
05
02
D8
FA
FF
02
FE
00
FE
F2
03
01
02
FF
05
FF
00
FE
FF
FF
FE
04
01
FF
04
00
02
02
FF
02
FF
FD
01
FA
03
07
FF
02
01
FB
FB
FE
01
F5
14
FD
F9
01
FF
F1
04
FF
02
06
FA
00
FF
FD
03
00
00
FD
FC
FD
EB
FE
03
09
03
FB
E5
07
04
F9
FE
01
FB
FF
F6
FE
FB
00
FF
FD
04
F9
FA
FE
04
FC
FE
05
00
02
03
06
03
F9
01
FD
EE
02
01
FA
FE
FE
09
FA
FF
FD
FA
FA
07
01
FD
FE
F2
00
F2
05
FC
F7
04
FF
FD
02
E5
FF
03
FF
18
FE
01
FF
E3
FA
06
FF
FF
F9
F9
F3
02
FE
04
04
FC
FE
FF
01
FC
04
F4
F8
FD
04
0C
00
FE
EE
12
06
FC
EF
07
00
FC
FC
05
11
FE
02
FF
02
FE
FE
FB
00
F6
04
09
06
01
FA
F8
FF
FC
00
03
FC
02
F4
FD
FD
00
0D
EE
04
F6
07
00
DC
F3
07
F8
FE
04
01
04
ED
00
FA
12
F9
02
FD
03
FE
0D
00
FF
09
06
F2
F9
06
0E
FF
04
00
07
0C
F0
01
FE
03
ED
FF
03
FF
02
07
02
FC
FB
01
FC
03
F7
04
FC
F8
0D
F7
F5
0F
02
FC
FA
00
FE
04
F8
0E
F4
F9
FF
02
01
FB
F7
FC
F3
06
F7
FB
FA
FA
07
02
F8
07
01
07
FA
07
07
FE
FD
F6
FE
F3
FA
03
F8
01
FD
F4
00
F9
02
EE
04
FF
F9
FD
08
F7
E6
10
FE
02
FB
02
FC
FB
02
FE
03
FC
DE
02
08
DC
01
03
FB
00
FD
05
09
FD
0E
FB
FB
FA
0F
04
FC
05
06
04
01
05
F7
F9
01
00
FC
00
F0
03
08
EE
07
FC
01
00
FD
F5
EF
09
FB
06
F8
E9
02
07
FE
00
05
09
FD
01
FA
03
FE
FE
01
F3
0A
04
F5
15
02
02
FB
02
07
FF
03
05
05
FC
FB
01
03
01
04
04
03
01
04
02
11
FB
0B
07
06
FF
FD
03
02
FB
FC
04
05
F6
09
03
05
04
07
05
FE
FD
01
02
06
FE
F7
FC
05
FD
00
04
FD
0C
FD
FE
FC
02
05
04
04
05
03
F7
06
00
FC
FB
01
FE
FD
0A
02
02
00
06
F5
01
06
FF
06
05
00
FA
FF
05
03
01
07
01
F9
00
02
05
07
07
00
02
0E
02
08
05
02
00
05
02
00
04
FF
01
05
01
02
00
00
01
00
00
00
FB
00
02
FF
01
00
04
03
F9
0B
FF
FF
01
00
FE
FD
FF
F9
F9
01
08
0E
02
03
FF
00
FB
03
FE
01
04
05
0A
05
FE
FE
F0
05
04
FC
FF
03
0B
FE
FD
09
02
03
02
01
01
02
06
06
FB
01
FE
01
04
05
02
02
FD
02
01
00
06
0D
04
FC
00
FA
F6
0B
08
03
FD
FB
F9
09
04
FD
FA
07
02
08
FF
05
01
09
04
01
01
FD
07
01
04
01
09
0C
03
04
02
02
08
FB
00
07
04
04
05
FF
03
FD
01
01
FF
07
00
01
03
00
03
02
00
07
FC
04
08
02
07
03
03
0C
02
05
04
04
03
03
0C
0E
FB
FB
FE
01
F8
F4
F7
02
03
FC
03
02
08
FD
02
19
F9
02
0A
06
02
01
FA
08
FE
FF
10
02
04
04
FE
FB
0B
01
02
04
0A
01
FF
F9
03
06
00
FE
F9
05
05
FF
01
F9
03
00
FD
03
FF
FE
03
00
01
FD
02
00
02
FF
00
FF
FD
FF
FE
0A
04
09
04
FF
FE
F6
FF
00
02
02
FD
05
FD
02
04
04
FB
09
12
00
F9
F5
02
17
F9
08
03
FA
01
02
FA
06
03
FE
FA
0A
FB
FB
FE
03
FF
FD
06
00
F2
F7
03
02
FF
FE
F6
02
FF
00
F7
06
05
FD
07
03
00
FF
03
04
F1
03
F4
F6
FE
06
FA
FF
03
00
04
02
FD
00
01
0A
F7
00
01
01
00
05
FE
FE
03
FF
FF
04
0A
03
FE
F1
0C
FE
F8
FB
0A
07
00
08
07
FD
FE
03
00
F2
F5
F9
01
06
06
F9
FD
06
FE
FC
00
FD
EB
ED
F6
FC
03
FD
F8
05
00
09
00
01
00
02
01
08
FA
F5
03
FD
00
0B
FD
03
F7
05
08
FD
06
FD
03
09
F5
F9
FF
02
00
04
FE
F5
05
04
03
0A
04
09
00
08
FA
04
F6
FF
FF
F8
FD
01
FB
01
09
05
F6
FD
0C
08
00
FA
FB
05
01
F5
F8
00
0A
F4
EB
09
FB
F5
02
03
FE
05
F2
E9
03
20
FF
10
F3
08
FE
07
F4
FD
08
03
F9
FA
EA
E5
F5
FB
FF
FA
FB
FC
0B
FC
F7
FC
FB
03
0C
F8
F4
EF
04
03
F6
FC
06
00
04
FB
F7
FB
04
02
03
FE
FE
F8
10
FF
FB
11
00
F4
FB
05
FB
F4
05
0E
F5
F9
01
25
04
E0
FF
F8
0A
10
ED
FC
08
1D
0D
FE
F7
D9
FE
FE
01
04
01
F3
05
FD
FA
FB
F3
FF
12
E5
EB
02
02
05
FE
F6
FA
05
03
F9
FB
FA
05
04
FF
EB
02
F9
14
FA
00
FF
12
F4
01
EE
03
01
F6
00
1D
FE
FB
04
06
FE
FF
EE
FE
FA
08
FB
04
06
E1
0A
FB
02
F3
FB
FA
0B
F8
00
04
FF
04
E7
02
FC
22
FF
02
FC
00
00
08
EB
EB
FE
04
01
E7
02
05
F8
1A
FC
FF
EB
00
07
F9
06
01
12
0A
F0
FF
FD
0D
D5
06
04
05
F5
0F
F0
05
F0
F7
D7
F2
00
FB
06
F8
FC
FF
FC
03
02
02
08
F3
01
0A
FC
04
04
00
FF
05
F4
FC
06
04
FA
FD
0A
FC
FA
F6
FE
02
0F
FC
00
EC
ED
10
FA
F5
F4
00
F4
01
0B
03
04
0A
03
03
FC
FC
FB
F8
F7
06
F7
FD
17
06
FF
14
05
FE
FE
0D
FE
09
FF
FE
FE
0E
F8
0A
07
02
07
FA
08
02
1C
07
05
04
05
FD
0E
07
FC
F6
E9
08
F1
04
00
0C
FB
F7
01
04
0B
02
FC
08
EE
F2
F8
00
03
04
00
0B
FC
FD
03
FB
03
F9
FD
0A
F3
01
FD
00
F3
05
F8
00
F6
F6
10
00
F7
F5
F6
FE
00
FE
01
0F
14
FC
FF
F3
05
FB
01
FE
00
05
06
02
0E
FF
0D
0F
EF
EA
0A
EE
FA
09
0E
F9
0D
F4
00
FF
FC
EC
FD
00
FF
00
FF
09
07
FB
08
01
06
10
03
FC
08
FD
FA
FA
07
05
00
00
02
FC
F9
10
F3
00
FF
04
09
05
02
06
F8
03
00
FF
0C
FB
01
FB
ED
00
FB
01
FA
F8
20
04
07
F1
0E
0A
0B
0D
FF
F7
0B
FF
02
05
FF
03
FE
FD
F6
F3
F9
0E
05
14
07
F5
09
F4
03
F1
05
05
F5
08
0B
FE
0C
02
00
F6
01
F8
F8
FD
02
F9
FD
FC
F2
04
F9
00
EC
FF
FB
07
FF
01
F7
0B
01
06
FB
EE
FD
E5
FD
0A
F9
E9
FD
FF
FC
07
01
F0
03
FE
FE
F7
05
07
01
FF
03
02
05
0B
00
06
00
FC
03
03
02
FB
F7
01
05
0B
ED
FD
04
05
01
06
00
F2
07
FF
04
00
07
FE
FC
02
01
00
02
06
07
07
F9
02
01
03
FC
FA
01
07
F5
06
07
07
FE
04
01
00
FC
FE
FC
FC
06
00
02
0D
00
03
07
05
05
07
07
01
F5
06
03
FE
02
05
F9
03
FF
08
FB
00
08
05
FF
F8
FF
04
00
06
04
06
03
05
00
F8
04
03
04
FD
FE
04
08
02
0A
05
0B
01
05
06
01
09
F7
04
F9
FE
04
04
02
F9
00
08
03
00
05
02
01
03
03
FC
02
03
01
03
01
08
FD
00
05
04
FC
0A
05
02
FF
0C
07
03
08
FD
07
0E
04
00
0B
07
FE
04
FC
03
00
02
03
FA
02
09
07
01
03
01
06
F8
01
FE
05
01
05
03
FD
FD
FC
01
FD
FD
03
03
FB
03
E7
01
07
FF
F6
07
03
04
0D
07
08
02
FE
FD
F9
0A
FF
04
01
09
FA
FE
06
05
F8
FE
01
FD
03
06
01
03
05
02
FF
02
03
FE
02
01
01
01
04
20
02
0B
05
FC
06
00
F9
00
05
03
02
07
01
FF
02
03
02
FC
04
FD
F6
F2
DF
07
FB
07
FE
06
FC
0B
D5
03
03
04
06
FF
02
06
F5
05
03
01
F4
07
F6
E9
01
F9
FE
FC
FF
09
F1
FE
09
E5
0A
02
0D
00
01
12
FD
ED
02
E3
04
0D
FC
05
FF
E7
F3
08
FA
FD
EE
02
09
FA
FC
08
F7
08
02
FF
0A
D0
ED
02
F9
06
FB
FE
F3
11
FB
0A
FE
F4
EE
F4
03
20
F9
02
18
03
0C
00
FD
FF
FA
07
05
00
0B
EF
FE
0C
00
FF
00
03
04
02
C8
09
F5
FC
03
FC
02
FF
01
ED
00
FF
FC
0A
F0
EB
F9
F7
F9
F4
0A
FD
02
06
00
06
EA
02
EA
FE
0C
0A
DC
07
FB
FB
F6
00
09
08
05
FD
FB
F4
09
FD
FC
FD
09
FB
FF
01
FD
E8
E6
0C
02
FF
F3
01
00
04
0B
FD
0B
FC
FE
00
F9
FF
04
03
F7
E1
06
E6
03
06
FD
F4
FF
FE
FC
EE
FA
04
FE
FA
04
0B
01
F7
02
10
00
FC
FE
FE
FA
FB
F1
F7
00
FF
00
F2
F9
E1
ED
FA
08
FF
FF
01
05
00
00
FB
0A
0C
FE
FB
03
02
FA
F7
FF
00
F1
00
F5
00
ED
0C
FE
0B
EA
EE
06
FF
FA
00
ED
F8
ED
EC
16
FD
FD
04
00
07
FA
FC
01
FC
0F
03
FE
00
01
08
02
FD
0A
FE
FD
01
01
06
FE
FC
FF
FD
05
F9
04
FD
FF
07
FE
07
07
FB
FB
F9
01
02
07
FD
04
FD
00
FF
00
04
FE
FF
09
05
00
08
05
FC
02
0E
FD
00
FC
01
04
FF
FE
FB
02
00
04
FC
FE
04
02
01
FC
10
00
02
04
F1
01
00
0E
07
FC
06
FD
01
06
00
FE
02
0C
03
00
00
0F
0C
04
0D
04
05
F9
05
0A
06
02
00
0A
06
04
03
09
FE
01
FB
06
FE
0A
F6
FC
03
03
12
03
FD
07
FE
FB
01
F8
FE
04
F9
FF
00
09
F8
FE
07
FB
01
03
00
06
04
FA
08
00
11
04
FC
04
00
01
FF
FE
00
00
0B
07
00
01
FE
00
FF
FE
FE
06
03
01
FF
0F
0C
F3
02
03
01
02
F5
FE
FE
01
0A
FC
08
FF
0C
02
02
06
FF
01
F6
10
0C
00
FE
02
FF
03
00
06
FF
04
FD
03
00
F9
FC
04
04
07
05
FE
FF
FF
03
FF
02
01
FC
00
01
0A
08
02
00
FF
FC
03
FF
00
FE
FF
01
0B
04
07
FE
07
F8
05
06
01
05
F7
FF
04
02
F9
00
02
03
02
0D
0C
F9
12
0C
FE
0B
03
07
02
12
04
0C
F6
03
01
09
FE
FA
FA
01
04
0C
08
F3
0E
02
F0
08
0E
FF
0D
FA
F1
FB
01
00
F5
FC
F9
07
05
01
FB
07
00
FE
F5
0C
01
F8
0F
FB
1E
FB
F8
FB
06
04
01
FC
F8
F7
02
FE
06
FB
FB
07
00
FE
0E
F7
F4
FF
00
00
FF
FB
05
FB
FF
08
FA
FC
FF
FB
05
00
0C
F4
FE
06
10
FD
05
01
FB
FF
02
F8
FD
14
F7
FD
02
FB
03
00
FC
FE
F3
F9
02
06
FC
F3
06
0B
FF
19
E8
0B
10
F3
03
1F
10
07
F9
01
04
FD
F9
07
06
0A
00
FE
FE
0D
06
F8
06
08
01
02
F6
F5
F6
F5
FB
00
04
09
00
00
F8
FE
06
F8
06
FA
0D
FD
04
02
FC
14
04
03
07
F9
F1
00
00
FA
02
06
FC
FC
FC
19
F4
03
02
11
01
04
F8
08
01
EA
00
09
FD
16
F6
01
02
0E
FB
F1
12
00
FD
FE
09
FB
F3
01
00
09
03
09
FE
FA
09
03
FF
FA
03
08
0A
05
F7
11
F6
11
FB
09
FB
FD
02
FB
FC
02
05
0B
01
01
F5
FC
0B
0D
FD
01
E4
08
04
0D
0F
02
03
F4
F9
F8
FE
08
02
F8
04
0A
00
EA
FF
06
02
FD
08
04
FF
FA
00
03
F9
03
0E
F5
00
01
09
0A
00
0E
FA
FF
0C
01
FC
FF
06
00
01
09
00
FE
07
FC
08
06
FF
FA
F7
01
02
00
F9
04
0C
01
00
F6
03
02
05
0D
09
0B
00
FD
13
03
FF
0A
FD
07
00
FB
FE
FB
04
0C
02
FA
FC
FE
F5
F4
08
FF
FD
FF
FB
F3
0F
07
0D
FD
0B
07
FF
01
0B
FE
06
03
FD
02
01
FA
08
06
02
01
05
04
FF
02
00
F2
04
FB
02
01
FA
F9
FA
07
FB
0E
03
FA
F5
FB
0A
F6
00
FF
08
02
FC
03
03
FF
FD
02
0B
F9
FC
F5
FB
F8
07
04
FE
02
02
02
FE
05
04
FC
03
FD
00
03
FA
01
FC
F6
07
02
04
05
FB
00
0A
FE
F6
FC
02
F8
01
03
FC
00
06
FA
FE
0E
FD
01
FE
00
E9
FB
03
FE
00
09
F9
FC
FB
04
03
00
FD
05
01
04
F5
FE
FF
05
F1
03
05
FD
FB
F9
FC
03
F8
06
FF
FC
13
FD
FF
F4
F6
01
FB
F1
FC
10
FD
02
FB
04
06
F7
01
11
FF
F7
FF
00
FC
03
FD
01
09
FC
FE
02
0E
FE
03
00
FA
0B
05
03
04
04
03
07
04
F7
06
FF
03
FD
07
02
0A
02
FF
01
FC
F7
FC
05
FD
FD
FB
0C
0A
01
02
FF
FF
F5
00
06
04
06
FC
08
04
03
FA
00
F7
00
FE
01
FF
FA
F9
FE
FC
01
FB
FC
F8
04
FD
00
FE
03
06
00
02
03
06
02
03
FE
04
00
FE
01
03
09
FF
FB
05
10
FD
03
FB
FC
04
05
10
FF
FF
FF
FB
FB
01
0A
F9
03
FD
06
02
01
00
01
FD
02
F9
08
01
04
02
05
00
08
FD
F9
FA
07
FE
05
02
F5
FC
06
F9
02
FF
06
0A
05
08
05
FB
FD
F9
06
FB
FC
F6
FF
03
08
FB
03
01
F4
FC
00
FD
12
FC
07
0C
00
06
03
03
09
06
03
07
02
02
06
04
06
05
FC
FB
FF
05
00
FF
06
FF
03
01
0F
00
FE
FD
FC
02
09
02
F7
06
00
02
01
02
FE
05
FF
FC
01
04
00
01
03
FF
FD
FF
F5
04
0C
FE
00
FE
FC
F8
03
04
F0
03
03
FC
FD
07
08
FF
04
05
06
FF
FE
06
FF
04
04
01
FB
01
00
01
F7
F7
01
01
04
01
01
01
01
FD
FE
FD
08
FD
03
04
05
00
03
FB
02
02
FD
FF
FA
01
01
08
0F
F7
FF
06
00
FF
08
06
F6
F4
F6
F8
08
FF
08
FB
F5
12
FE
03
FE
06
FE
F6
02
06
03
0A
07
10
F6
02
05
0A
0D
00
09
F0
04
FB
F9
FF
08
FB
02
04
FF
FC
06
FA
02
04
04
0E
00
03
FF
0E
02
FC
04
FF
FA
02
05
00
01
F5
02
01
05
F9
FB
FE
FF
01
02
06
0C
FB
FF
0B
FF
00
03
00
FD
FF
08
00
FA
FB
02
1A
FF
00
F9
01
FD
03
F9
F9
FF
FA
FA
03
0B
03
FB
FA
FC
08
FF
FB
FF
F5
FB
07
0A
FC
06
03
03
06
FE
03
EB
0A
04
FC
F5
03
04
FE
FD
06
FC
F9
FD
05
FE
FE
FB
FC
02
02
00
0B
F6
00
EC
03
01
01
03
04
01
02
FD
0F
F9
FB
01
01
FD
FD
09
0E
FA
F5
0C
00
FE
F7
00
FB
07
0E
FB
02
FC
05
0A
02
FA
FF
FF
FE
F2
00
03
FF
FD
FF
FF
07
03
03
FC
0E
FB
00
FE
08
FB
01
06
FD
05
FE
04
FE
08
00
F9
FA
FF
FE
02
FF
F0
FF
FC
F9
01
04
FE
FA
02
02
F7
01
FB
FA
F8
01
F8
F7
FD
F6
05
FF
0B
01
FD
00
FD
FC
FF
06
08
FD
FC
08
FC
FA
00
03
FE
0A
0A
03
FC
02
F9
07
07
FA
03
0B
06
11
07
02
06
07
F9
07
F8
FF
04
04
02
FC
F2
FB
0B
FE
F7
00
02
FD
03
0A
0C
16
15
08
0E
EF
0A
FB
07
04
02
03
04
00
FF
05
11
07
FF
0A
02
03
04
05
FD
F9
03
FF
FC
F9
FF
01
FF
FE
02
0E
F1
FC
01
05
17
FE
FE
FD
07
FF
0C
03
01
07
0A
00
02
FE
00
06
F7
0C
03
13
08
0D
E9
02
FF
05
FC
04
07
FF
FD
02
07
05
F6
FD
01
09
14
FF
FE
06
09
07
0D
01
FF
03
03
FC
FD
01
03
03
FC
06
03
03
F8
01
06
0B
04
01
05
FD
F8
F0
03
05
FD
06
FC
05
06
F8
2B
03
FE
00
00
03
07
07
05
0A
08
FF
F4
02
03
0E
04
04
F7
01
05
0E
FA
0B
08
FC
FC
0A
0C
FE
01
19
FB
FC
0B
FF
14
01
0A
05
FC
05
FD
01
06
FF
FB
11
FA
FA
13
F7
00
00
04
02
08
FC
01
00
0A
F6
09
03
FE
FE
18
03
02
FC
06
F5
0A
EC
03
02
03
01
05
F9
FC
02
10
FF
09
00
FE
0B
04
06
02
FB
01
04
00
06
FB
04
05
04
FF
16
03
E8
0F
13
0A
FF
03
01
FF
FD
ED
06
F5
01
FE
0E
08
04
04
0A
04
F9
0B
EC
04
FF
FD
F7
00
03
0C
09
02
03
0C
14
08
09
F5
03
03
08
EF
FE
02
05
01
1C
05
13
08
0C
17
13
01
07
08
12
12
09
FE
02
03
F9
F8
06
03
FC
E8
04
06
01
FD
F6
0B
FD
02
02
09
02
F2
13
07
02
0D
01
04
FA
14
06
02
03
15
FB
FD
0E
FA
09
0C
04
0F
EF
06
04
FB
EF
28
0C
06
01
02
0A
F8
FE
FD
04
00
FC
EE
06
FE
11
F9
06
FE
04
09
06
02
FB
01
FE
FC
FE
07
FB
0B
06
07
0F
FF
09
FD
FD
00
13
FD
0B
0B
F9
F6
06
00
FD
0D
11
00
FC
FC
EF
07
08
01
07
00
02
FC
00
F7
0A
05
FF
01
06
FF
FC
01
0E
F7
FE
00
09
30
FA
0E
0B
02
01
21
07
F6
04
10
1A
01
01
FA
06
0C
03
2C
02
00
0E
01
07
08
FE
03
F4
01
06
F7
04
0A
FF
08
FF
01
FB
37
02
0D
FE
E6
0C
07
08
01
03
2A
00
37
01
00
F9
2A
07
FC
06
06
F1
FA
05
06
00
F5
07
01
08
0E
06
00
F8
0E
FD
06
05
FF
FD
03
FE
0B
03
05
21
03
1C
FC
04
FC
15
FE
04
F9
0A
01
02
FD
FE
05
EB
FF
07
08
05
03
00
04
02
07
07
FE
FD
F7
FE
F3
0C
01
FE
01
FC
F4
05
05
03
02
06
0C
04
F9
05
06
0C
08
04
09
01
05
FD
04
01
06
02
FB
FF
08
05
FB
07
09
05
03
FC
00
01
FE
F7
01
00
FD
03
00
03
07
02
05
FD
02
05
FC
F9
F9
06
02
08
FE
F8
01
02
05
02
04
03
0C
03
FF
0B
F7
09
05
06
F3
02
FC
07
04
06
F2
FA
00
02
06
0E
00
F3
06
06
06
01
02
02
FF
01
FF
07
02
02
FF
05
FB
0C
05
FB
07
FD
0B
05
09
00
08
FC
FC
06
FC
FE
04
07
0D
00
05
04
FF
06
FE
08
FC
07
0B
FE
01
07
00
04
05
11
02
03
FE
03
0C
F6
05
06
FD
FB
05
10
01
03
FF
0C
02
03
19
FF
0A
FD
01
06
09
FF
00
FD
07
15
FA
F8
07
04
06
F7
00
F8
05
F7
04
00
04
00
02
05
FE
03
F6
06
FF
05
05
0A
08
FF
04
05
0C
03
06
03
06
02
00
01
05
FF
03
0B
00
00
02
04
07
FF
FD
FE
00
FD
00
05
FE
FD
F6
02
FF
FF
00
FD
02
F6
F8
00
FC
01
FF
FD
FD
FA
FC
08
01
FE
FC
FE
03
FA
FB
FC
FA
FF
FE
FF
F9
FE
F8
FF
03
FE
F9
09
FC
00
F9
FF
FF
FB
01
FD
00
03
04
FD
FB
0A
04
FE
00
FF
04
FB
01
FD
FC
FE
F8
F9
FA
00
FC
FE
FB
FA
FC
FF
FF
F1
FD
F9
F7
F9
FE
FC
FD
F8
FE
02
FA
FF
F9
FE
FF
00
FD
01
FE
F8
FA
F8
F8
FE
FF
FC
F9
FA
FD
03
FF
F9
FB
FC
FB
05
00
FD
FF
02
01
F8
FE
01
00
FA
02
FA
FF
F8
FD
00
F9
FC
02
FC
FD
FC
FE
00
03
FA
06
00
FD
F9
FC
03
FC
F8
09
F9
02
03
FE
FE
04
FB
FD
00
F9
FC
F9
FF
FE
FD
FD
FC
FB
FE
05
00
04
FD
0D
FE
F7
01
FC
05
F6
03
F9
0B
F9
00
FA
F7
FB
FE
01
FE
FC
FF
FC
FF
06
FC
FD
00
0F
FA
FB
FF
FE
FE
01
02
0C
01
08
FA
FF
FB
02
FE
FF
F9
FE
00
FE
FA
F7
FF
00
00
FC
FA
FB
FB
F9
FC
01
FD
FC
FF
FE
F9
FB
FB
FD
FE
01
FE
FD
FF
02
02
FE
00
FC
05
06
11
00
0C
0B
01
10
FC
05
14
06
14
00
0C
FC
08
FD
01
11
10
FB
F9
04
03
01
0C
FB
02
FB
06
02
FC
07
00
01
0D
03
04
FD
0B
F6
02
08
FE
04
FF
05
FF
FD
04
10
FD
08
04
00
02
03
FC
FF
00
06
F2
05
01
02
02
0A
0C
05
04
0E
04
FF
06
F9
05
0B
06
06
0B
0C
FF
00
FC
08
FD
F8
07
00
02
FD
07
03
FD
04
03
02
0E
11
08
07
07
FA
07
04
11
F0
0F
FE
05
06
04
15
FC
03
07
01
05
06
0F
11
07
0D
FA
FD
03
FC
00
05
11
00
01
02
11
04
00
01
17
13
06
FF
0F
EE
09
05
FC
03
02
04
06
02
F7
FB
08
FB
02
08
09
F5
00
02
04
FE
FD
FA
07
FF
FC
0F
07
05
0F
0B
08
13
06
04
08
FB
FF
FC
F6
03
01
FD
FE
FB
18
F8
FF
04
FE
07
0B
07
05
FF
04
09
08
13
05
F5
11
00
FF
04
05
06
00
05
0F
04
F9
06
02
02
FA
FD
03
FE
08
23
02
00
05
02
01
01
FF
FD
01
05
00
0B
0B
FB
FF
03
02
FF
0B
F4
00
06
00
0C
0A
03
04
F9
01
02
05
02
06
03
06
FD
02
01
FA
FF
F9
02
06
FD
02
02
F6
FE
05
FA
F7
F1
FB
02
EB
03
FC
09
08
F5
01
00
FF
FD
FE
05
02
FE
05
00
03
FD
04
FE
F9
FE
FF
FF
05
F7
05
08
FA
FF
FE
F5
F8
FF
03
06
FB
FF
01
FC
02
00
0A
03
03
01
FB
03
FC
F6
FC
F8
00
F8
F8
FB
05
00
00
04
FD
04
F9
F9
0B
FC
F9
05
FF
01
FC
02
FF
05
FD
03
FF
FB
FE
F1
03
0C
FE
01
FE
F6
FF
05
F7
FB
07
03
FC
0D
FE
F8
0D
06
FA
F4
FC
04
01
FF
FE
FA
06
04
03
07
0A
02
0C
06
F5
0B
08
04
05
06
FC
04
05
01
07
02
02
FF
02
0C
01
FE
FC
F8
0C
FC
F5
03
F9
06
FE
01
05
FD
01
07
05
FD
03
03
FE
03
ED
03
FF
01
01
FA
FB
FD
FA
08
FD
FD
FC
FE
FE
07
FC
08
FE
F7
EC
FB
01
F8
03
F8
0B
FC
01
FC
FC
FA
F8
05
0F
FB
0C
04
03
02
05
08
FB
00
F7
06
02
02
FF
02
03
FC
FF
FF
02
FD
05
05
FC
FF
FC
03
FC
FF
FF
03
FD
07
00
F9
03
FF
FE
04
FE
01
04
09
FE
FE
FA
FF
02
FD
05
FC
FC
FC
FF
03
EC
FE
08
F7
02
F9
FF
FC
07
06
F8
07
06
03
F7
FF
FB
FA
02
FE
F7
01
F2
06
05
F8
06
F5
FA
02
04
FD
FD
03
F6
00
01
F8
01
FB
FD
05
03
F7
02
04
FC
FE
03
00
FA
FF
02
F9
FC
01
FC
F5
02
F5
FA
FF
FA
02
F6
F9
FD
FE
00
FA
03
02
06
03
03
06
02
FC
F7
00
0C
06
FD
FD
02
03
01
F6
1D
F7
F8
02
FE
F2
05
04
F8
F6
00
F9
02
FE
00
FC
01
05
FC
00
03
F4
05
FA
06
04
FF
FE
FD
06
06
03
05
FB
F8
FF
01
FC
05
00
00
FF
F4
FF
FE
FA
00
FE
FB
00
04
FA
FE
05
F6
01
FB
F7
01
FC
0F
00
01
05
FC
03
03
FD
0B
FD
01
F9
FF
FD
F8
FE
05
04
FB
08
03
08
FE
FE
F6
00
07
01
FA
02
04
F9
01
09
F6
FE
FF
F6
F1
01
FF
03
FA
FD
02
00
F9
00
0B
F4
FD
F7
F6
0E
11
10
FE
FD
05
FF
0A
FA
02
F8
0B
01
06
FB
07
02
01
FF
FE
03
FF
02
FF
0B
FF
F9
FB
F3
04
FE
02
03
09
FE
FA
FD
0E
09
FF
F9
FE
FD
FD
00
02
0C
01
FD
08
03
FA
09
01
01
01
FA
07
0B
01
04
06
01
F6
02
20
17
07
0A
F8
10
EC
02
08
F5
05
00
FA
F1
F8
FC
04
FD
F5
0A
07
0A
16
05
1C
10
02
12
FD
00
00
00
F9
05
FB
FB
F9
06
0B
04
17
EC
07
00
FF
FD
FC
04
03
FB
FE
01
FD
01
17
0D
0F
FD
0C
0F
F8
02
F5
F0
FD
FD
D9
F9
08
08
0D
FF
F6
0A
ED
03
03
FB
F7
FE
EF
06
05
FD
08
F6
0A
0C
FC
01
FE
1D
FC
F8
07
04
0D
00
F9
F0
F3
0A
FA
06
F2
F4
0F
F9
02
07
FD
00
F8
02
07
01
06
05
06
03
05
F3
04
07
0C
03
09
FB
F9
02
06
F6
0B
0F
0A
F6
08
07
F6
FF
0A
16
F9
FD
00
0A
F8
FF
ED
01
04
F8
FA
08
16
03
0A
0E
02
01
05
04
02
08
E1
F5
14
38
FA
0D
FC
FD
02
02
04
06
06
FF
0C
FE
FF
FF
02
08
F8
13
FF
F5
FE
FE
F2
F4
F5
F4
F8
02
F9
FD
FF
FF
FE
06
02
F9
02
2A
F7
F4
00
F5
05
06
F8
FD
FD
0C
05
18
01
F0
07
0F
0E
FD
FD
03
0C
FF
01
FC
FA
FA
F3
FF
01
FF
06
E2
FE
FE
FC
FE
F1
00
07
00
FA
EF
00
0B
F1
FB
FF
FF
F8
FD
FC
F5
FC
FF
06
FA
08
06
FE
F5
FF
0B
F4
F3
02
F6
FA
FD
FF
09
F7
08
FB
F7
05
F6
FA
08
05
05
F6
F9
FB
F1
14
05
0E
ED
FE
01
0A
07
FC
FF
07
F4
F6
05
FA
FA
FE
F2
FD
03
FD
05
F4
FE
00
FC
F8
F9
09
F9
F9
02
05
FB
FB
FC
E8
FE
03
F8
FE
F8
07
FD
FB
06
F5
FF
FE
02
04
FC
05
0A
F0
0A
F6
FB
FF
FE
EB
03
F5
07
F7
FC
F6
02
0B
FC
F9
F6
FD
06
FC
03
05
FA
14
F9
03
0A
FC
00
F5
FC
04
F9
FA
FA
FE
FE
FF
00
04
0D
FD
01
01
FC
FB
05
FD
03
FB
F8
FE
00
05
FF
0A
F6
FE
FC
03
FB
F5
05
FD
F7
1D
FC
F7
06
FE
02
05
12
FC
07
00
FC
08
FA
05
F7
FA
02
F9
FA
03
F5
FA
FD
0C
06
F1
F9
FF
FA
F8
04
FC
FF
02
F8
FC
00
05
FB
EF
FB
07
03
FC
02
0C
FE
FA
FA
F7
FB
00
F9
F8
FD
FF
08
00
FA
FF
07
00
FA
F3
01
06
FE
EE
F7
FC
07
06
05
FD
F9
00
04
F7
05
FE
17
0B
FB
FF
04
0C
E4
FA
04
03
05
03
06
FB
01
03
FA
FD
0A
04
06
FF
F4
F4
FA
F9
0C
04
06
FB
FA
06
F9
FF
08
FD
05
01
FC
FA
05
E5
0A
F6
FD
03
EE
01
FC
FB
FB
07
03
F1
F4
F6
FC
FD
06
F2
04
FA
F9
C5
F8
FB
FE
FC
02
05
05
01
0D
03
02
FB
17
F7
FA
06
F7
FD
FF
EF
F8
F4
FD
FD
FD
FD
02
FC
10
02
F7
F4
0A
00
FB
FD
01
F4
F8
00
F2
FE
04
FE
0C
FC
F8
F6
FE
05
F6
FD
FF
E5
15
0D
FB
F9
EF
0E
FA
07
FB
FE
FA
05
FF
F7
F5
FA
00
02
FA
02
03
FD
FB
00
12
FE
0A
FE
FE
FA
FE
03
01
EE
FE
E3
FD
E2
06
F3
FC
F5
FE
FC
FA
06
04
FD
00
02
01
F5
F5
EB
F7
00
F5
FB
FE
F5
FE
00
01
FF
FC
F6
F2
FE
FF
01
F9
04
F0
F9
FE
FE
F6
FB
FB
01
F9
FE
F8
01
08
FF
EB
FB
07
04
01
06
F9
04
F6
02
02
ED
07
FB
FF
08
F4
07
FA
03
00
FB
FA
FF
FF
01
10
FB
02
01
05
FF
F8
06
FC
F9
02
05
04
FC
05
FB
FF
07
00
FA
00
FC
FD
08
F7
F7
FC
FC
F4
06
02
01
04
02
04
04
01
FD
05
04
05
02
00
F9
FC
02
07
F9
05
00
04
FB
FF
07
04
0A
00
03
FE
08
04
07
01
03
FF
04
04
FE
00
00
09
03
0A
02
04
04
06
00
06
05
02
05
01
05
01
03
04
07
04
02
05
F2
03
03
04
02
04
04
03
07
01
04
07
FA
02
07
03
07
FF
00
03
00
06
04
04
06
07
01
05
00
04
02
04
FD
05
04
01
01
03
00
06
03
03
09
09
00
11
08
01
04
01
04
00
FE
04
01
02
02
FD
0B
04
07
04
FF
01
05
FE
FC
05
03
02
05
FD
07
00
FB
05
03
04
00
05
03
FF
04
07
06
00
02
07
07
03
08
FC
03
01
05
04
03
04
06
FF
06
00
05
06
03
02
09
01
03
04
02
00
02
FE
00
07
03
03
01
04
FE
00
FF
03
04
02
02
02
03
FC
01
F5
02
04
06
02
05
06
00
01
08
FF
03
FB
04
01
02
06
05
03
00
FE
01
00
01
04
06
08
06
04
FD
06
05
00
07
07
02
07
06
05
03
01
03
01
05
07
05
02
04
FB
03
07
07
05
07
FF
FF
00
07
FB
07
04
02
04
07
04
FF
FD
EB
FD
FB
F6
FD
06
FB
F6
00
00
04
06
02
F9
FE
FC
FF
F7
F9
FE
02
FF
03
FA
FB
00
F5
04
00
FD
00
FB
EC
F2
FF
FB
02
02
F4
06
FF
0B
02
ED
FE
FE
02
FD
FE
05
FD
FA
00
FB
F8
FB
FE
01
03
FC
F9
03
FB
00
FC
03
FB
04
F9
F6
07
00
FF
F8
09
FC
00
F5
08
FC
01
FD
05
00
04
03
FF
05
08
00
FF
04
07
05
FE
05
F8
06
FA
FE
F7
FE
FB
F8
FC
FA
FD
FD
F6
F9
F9
FF
FB
F9
F2
01
0A
00
F2
EE
05
F6
FD
01
04
FA
FF
00
FF
FB
F7
F9
04
FB
F8
FD
01
01
FC
01
02
FE
F6
FD
03
FC
F8
FD
FE
FB
FC
FF
FE
F1
F8
05
F9
01
00
FD
FF
00
F1
FA
FF
FA
FD
03
00
03
F7
F9
01
FD
FC
FB
FB
00
01
00
F6
FD
FD
F6
F1
04
0A
00
03
FA
F1
F3
00
01
FE
01
01
FE
FA
00
FE
08
F8
F7
FD
05
FC
04
03
FD
06
00
FA
02
FB
01
00
F9
F6
01
FF
FF
01
F9
00
F9
00
01
FE
FF
00
F8
FF
F0
01
F8
FB
FD
FB
FF
F6
FB
FE
01
00
F7
FC
FE
FB
F7
FE
FC
FF
03
FD
02
08
FC
FD
F8
FA
F8
FF
FC
EE
05
F5
04
06
01
FE
F4
FE
03
F7
02
00
01
04
0C
FB
FB
FA
F1
FB
07
FF
FF
04
FB
FD
02
00
FF
FA
04
FF
00
04
FC
FF
00
10
F8
05
FB
F9
05
F9
0D
01
FF
06
04
FF
FC
06
F9
03
F8
00
FF
07
F2
16
02
04
FB
FF
04
05
01
F8
09
02
00
05
FB
02
00
FB
07
FB
F2
02
00
EA
02
EF
FF
04
F4
FD
00
FF
FF
FB
F6
00
FB
FF
00
00
FC
EE
FE
03
06
01
0B
0F
01
F7
FC
FE
05
04
06
01
FE
03
05
F8
FE
FE
FC
0A
01
FF
06
06
01
00
FD
FE
FF
04
05
FB
FE
05
F9
FA
00
00
03
FF
09
FE
01
05
01
05
FE
FF
F3
03
FD
05
00
04
FA
FB
00
12
01
08
05
02
FC
00
01
04
07
FD
FF
FF
F5
FA
F5
FF
02
02
05
FD
00
F4
06
01
01
FE
FF
FD
02
F3
FD
02
00
F7
00
01
03
09
FD
04
F7
FD
FC
04
07
02
04
01
03
00
FC
05
00
04
09
01
00
01
01
0A
05
FF
FE
FF
FC
FD
FF
FF
04
01
FC
F9
F5
FD
00
FB
FD
FF
FA
01
FF
F7
03
FE
01
FF
02
02
00
FF
03
03
FA
06
03
03
05
00
02
06
03
02
07
01
02
F5
02
FC
03
03
04
03
0A
01
FF
00
07
07
0A
01
00
02
06
04
01
01
04
03
03
04
02
03
05
07
03
01
06
FE
F6
01
07
04
00
00
04
07
04
04
FE
03
08
06
05
05
04
01
02
07
FD
02
04
05
04
02
00
00
08
FD
FF
08
07
02
05
02
FB
02
02
02
02
F9
02
F8
04
00
00
02
08
07
05
01
00
07
03
04
00
0B
07
0A
03
05
00
06
01
00
05
07
07
04
09
02
02
05
00
09
FF
FE
01
02
06
FF
04
02
08
02
06
01
03
06
04
02
FA
06
FD
06
07
06
04
FF
FD
04
06
05
06
04
05
00
06
03
0A
01
02
07
FE
02
08
01
05
00
01
06
FE
02
01
02
07
02
06
05
04
05
03
07
00
06
04
FF
08
FD
06
08
FE
07
02
02
08
04
01
07
EC
04
07
01
02
FF
05
00
FC
03
02
05
01
01
03
FF
04
02
FF
01
03
00
03
05
01
01
03
03
00
01
FD
05
FB
0B
FF
07
FE
04
02
03
FE
00
06
04
09
03
00
04
00
01
06
FB
FF
0F
0F
09
08
0E
02
05
00
FE
E8
FE
F5
04
E8
D7
F4
FD
03
FB
FF
0C
FD
F2
07
FA
0A
F6
05
F3
F4
04
FA
02
FE
07
EB
06
FC
08
07
FA
15
00
FC
05
FD
01
FC
07
11
FF
F8
00
FC
F7
0D
F6
FD
F1
0E
03
FE
08
07
F7
F4
FD
00
02
FB
FA
F8
FE
FA
F6
05
FC
04
05
0A
FE
02
FC
04
FD
03
01
EE
FE
F5
05
05
EF
02
03
00
FA
F7
02
04
FB
FD
F4
EF
09
FD
FF
01
FD
FB
00
FE
FA
11
02
0F
01
F7
03
01
F5
ED
F9
FC
0B
01
05
01
11
04
07
0A
00
03
0B
FA
F7
F7
F9
FF
F6
FB
F6
FF
FC
06
01
0D
05
0A
F0
F8
13
02
FC
06
0E
06
02
05
07
06
04
03
11
12
E4
04
FA
FF
FF
09
FB
0D
04
01
03
07
F1
FE
08
07
00
00
FB
FE
0D
03
F3
FB
F4
F8
00
FC
FD
03
FC
03
01
F4
FB
01
01
06
00
FC
08
07
08
F8
00
03
01
F7
08
01
01
01
FF
F0
02
FD
17
FE
FF
00
08
F9
FE
00
FB
01
FE
01
11
FF
F6
0A
01
FF
00
EA
05
02
FC
0C
07
F4
0C
0B
F0
0E
FF
10
F7
FD
FF
05
FA
03
F6
F3
00
F8
01
F9
FC
01
06
FE
06
E7
FB
F7
05
F7
E6
03
F7
06
03
FC
FC
05
01
01
00
03
FA
FC
FB
FA
FC
F8
FF
F4
F5
02
FF
F5
02
FC
06
01
F9
FD
0C
F3
FA
00
FF
F3
FF
FF
FE
05
FF
09
FF
06
00
FC
FD
06
04
02
FE
0D
FC
FD
06
FB
FF
FF
06
FC
FA
03
00
F8
F4
FD
FC
FF
FF
00
02
F5
04
F5
FD
0C
FA
F4
00
02
09
05
03
04
01
FA
01
07
00
00
F9
F1
FB
06
FF
07
F9
FE
07
FC
05
F7
FC
08
03
03
03
05
01
02
FC
05
F4
00
F5
FF
F9
FB
FF
04
F9
01
FF
FD
FE
07
00
04
FF
FD
00
00
FD
FA
FD
F9
F4
FC
FB
02
02
FC
FD
FC
00
02
F5
00
FE
FE
07
FD
FF
FF
F9
FE
FF
00
F7
FA
FF
FF
FF
0C
FF
F7
F9
01
FC
02
FD
FA
08
F7
0B
03
00
00
00
FE
FB
FF
FC
04
FA
FB
FB
09
FC
F7
02
05
FE
07
01
FB
00
F7
FD
FE
03
FE
FD
F0
FE
F5
FE
04
FE
01
03
FE
01
FD
FC
F7
06
FF
FE
07
FF
F4
FE
F5
04
FD
F8
F0
FE
00
FC
FD
F8
FE
FC
FC
F9
FB
00
FD
F9
08
FB
FD
03
F7
F9
F8
FA
FB
FF
FE
03
FF
FC
02
10
07
FE
02
00
F9
FC
FA
FB
06
03
09
FF
02
01
FB
FD
00
04
FE
FA
01
00
FE
FE
FD
00
08
F9
FF
F5
07
FB
03
03
FB
F9
05
04
F9
0C
FD
03
00
06
FC
FE
09
02
FE
F7
F4
FC
F9
FB
F9
00
03
00
03
F6
FE
FD
F9
02
F8
F9
FC
FD
02
05
03
0D
FE
FF
FE
FD
FA
FF
F9
FC
03
00
FB
FC
F9
FE
F6
FA
03
FE
FC
FE
FF
05
04
05
FC
01
FE
FD
F9
FB
FA
FE
FC
03
FE
FB
F5
FE
FA
FD
04
0C
FA
01
FD
FB
FA
FF
F6
F5
FE
01
FC
04
FD
FE
EC
05
FF
FF
FB
FE
FC
03
F6
FD
F8
FB
FA
FE
03
FE
FF
04
FE
F9
00
02
FA
00
01
F8
07
F3
FB
06
EF
F7
FD
F9
FF
01
04
FA
07
F8
FE
FE
FA
01
FB
05
08
FF
FD
FE
F9
FE
FC
FD
FD
FA
03
0D
09
FD
F5
FE
FB
FD
FD
02
FC
FD
00
FC
FD
01
00
00
00
FE
FF
F8
00
07
FC
00
11
00
FC
05
F7
FD
FF
05
05
F8
00
00
EF
FF
F3
0F
00
01
00
FF
FD
FC
01
FF
07
04
02
08
01
F9
03
00
F8
05
02
FD
FF
FE
FF
FF
0B
05
04
03
06
08
07
03
03
FC
05
F9
01
FF
02
F4
FE
02
03
FD
0A
05
09
04
02
01
00
00
FF
FE
FF
04
03
04
0A
FE
09
01
08
00
02
04
02
04
0E
03
00
06
FE
FC
FE
01
03
02
04
01
05
FE
FF
02
FF
03
00
FD
06
00
FA
08
05
03
FF
03
F9
05
F5
03
00
07
04
05
0C
03
FF
02
07
03
04
00
04
02
06
01
04
00
01
FF
FF
01
00
02
02
F7
00
F7
07
04
09
06
FD
00
00
00
F8
00
08
03
03
01
07
0B
01
FE
04
FC
06
07
FB
0B
04
05
FF
03
01
04
0A
FF
06
02
04
03
FF
0D
04
00
FB
02
02
07
03
05
05
FD
FE
06
03
06
04
FD
00
FF
FF
FB
02
FC
06
02
01
FF
05
04
02
00
FE
07
00
04
07
04
05
02
00
FF
0B
03
03
01
08
FF
01
03
06
06
0D
04
01
01
F3
01
FF
FF
02
FC
FD
02
05
04
05
02
06
01
02
FB
04
02
09
03
FF
02
0A
FD
00
00
05
03
00
03
FC
05
00
04
02
0D
06
00
03
01
02
06
03
03
FE
04
00
04
04
03
03
01
05
01
06
05
06
01
FE
F5
02
07
00
02
05
FB
FF
FB
FA
01
FF
FD
01
04
07
00
03
03
03
06
FF
04
00
01
09
01
00
01
FF
F8
08
FE
01
06
06
01
05
08
05
FF
04
03
00
0B
0A
05
03
01
04
F9
04
02
03
F6
F8
FE
00
03
01
FF
06
00
FF
FB
00
02
0B
FE
02
00
05
01
04
03
01
02
FF
FC
04
01
FA
02
03
0E
01
06
FF
FF
07
02
04
FE
04
00
01
03
03
00
F8
05
03
07
FF
FE
00
07
06
01
FE
00
01
FF
FE
05
FC
02
07
02
06
02
02
07
08
00
04
05
FA
06
FD
FF
0E
06
07
00
00
03
05
01
03
FF
05
03
01
02
FE
03
FF
01
01
01
06
FC
0F
01
06
08
04
06
06
FC
FD
03
05
02
01
09
00
09
04
05
07
06
02
07
05
07
FE
07
00
01
FC
03
01
07
FF
0A
05
02
FC
02
05
01
0D
10
06
04
FB
04
02
FB
06
01
06
05
00
05
02
FE
07
F7
07
00
07
0F
00
FE
02
03
02
08
08
06
05
FF
FD
07
03
06
08
08
00
01
09
FC
02
02
03
00
09
06
0A
F1
08
FB
00
07
F2
08
FC
03
03
FA
02
02
00
01
07
01
F6
07
02
FF
F8
F7
FC
FD
01
F3
FC
FE
FF
01
08
07
01
00
01
01
01
06
FE
03
FC
FC
06
01
01
FB
02
02
FF
FB
FB
05
07
00
06
08
FB
00
00
00
F5
04
00
03
01
01
02
00
FE
04
FD
05
05
03
FF
FD
FC
F2
F8
07
06
FD
00
02
05
05
02
FD
FF
0D
FD
FE
03
FC
04
FF
FE
02
01
00
F8
03
00
02
06
FF
F8
04
01
FA
00
03
FB
11
04
05
02
F6
02
FD
05
01
05
05
FF
F9
FF
FD
FE
00
FF
FE
01
01
FC
02
FF
09
FA
FD
04
05
FE
05
04
00
FE
03
FF
03
04
05
FF
08
FA
FF
FC
01
02
06
F1
FB
01
06
0A
02
05
FE
FE
01
FB
FB
FD
FB
F9
00
01
02
0F
FC
04
FD
F3
FE
02
00
FB
FE
04
FA
06
0F
08
04
03
F7
FB
04
FF
05
FE
FE
F9
FE
FD
09
F5
FC
03
FF
FF
01
FA
03
08
FD
00
F7
05
02
00
0D
09
0A
00
00
09
02
00
07
08
FC
FE
00
04
02
FE
06
F7
10
02
02
FF
04
00
F7
01
FD
01
01
04
02
03
00
04
01
EF
02
FC
01
03
FD
FC
07
02
00
F4
05
FF
0B
FD
F9
01
FE
FB
F1
01
04
04
07
00
08
02
08
06
11
07
07
00
FE
01
02
FC
06
04
FE
07
FD
FA
05
FB
1A
11
01
FC
05
FF
FF
FB
04
01
F3
FB
F8
FF
FE
FF
02
00
03
07
F9
07
05
00
F9
FD
03
02
F0
FF
07
FB
06
02
07
04
06
F9
FF
03
FD
11
00
FB
05
01
FE
FD
F1
03
FF
FF
04
FF
01
02
FF
07
FC
F5
07
05
FC
03
FA
FF
FC
04
08
F5
0C
0C
06
03
01
FE
FD
02
FD
FC
FD
F9
FB
05
0D
05
05
FC
FA
01
FC
FB
00
F9
FB
00
06
FD
05
FF
02
FE
F9
FF
01
FF
0A
FA
03
F5
FC
F5
03
0B
FB
FC
04
FD
00
04
05
02
00
0E
04
FF
0A
01
03
0D
00
06
FA
09
02
05
01
0C
03
FB
FC
FF
FE
0D
01
FC
FE
04
03
FB
FE
01
FE
01
03
FC
02
FD
FF
03
00
04
FB
04
04
07
FF
0A
03
01
F6
08
0E
01
F9
FF
07
01
02
03
02
05
08
0D
04
F8
00
04
04
F4
FD
01
FB
0A
02
FD
FC
FB
07
07
06
08
02
05
FE
05
FC
09
FD
02
04
03
06
FE
0C
02
02
07
02
FD
05
F9
FE
FD
00
08
02
F9
19
FD
04
FE
03
00
F8
FD
03
00
0C
FD
FB
FD
01
FD
03
FF
01
01
F6
05
F9
FB
03
FC
E9
F8
05
08
04
00
0D
FF
02
00
FA
FD
FE
06
F5
09
00
0A
09
00
01
06
FC
FA
FE
EE
F9
FC
FF
02
F9
01
05
FC
08
0D
02
DE
F5
FF
FE
EB
F8
0A
03
00
03
02
F9
02
F7
FE
03
FB
FD
FB
01
FD
06
04
05
03
00
00
0E
EE
F2
05
04
FD
03
FF
FF
03
FD
08
02
06
05
07
F7
08
01
FD
FE
07
04
FC
04
FF
01
00
F8
F5
03
06
FA
FB
FF
FB
FD
F8
FF
FF
F8
FD
ED
06
F8
FF
F7
FD
FA
00
03
FC
05
08
03
02
09
05
FD
00
02
FC
19
FA
FF
02
07
05
FF
03
FD
04
EF
FC
07
04
02
F6
F0
01
05
03
01
FF
05
FE
02
04
00
FD
FB
07
FB
00
F6
09
00
01
06
FD
04
F9
FA
01
EF
F3
FE
08
FB
F3
04
FD
FA
FE
FE
03
05
01
FF
00
EB
01
00
06
04
EB
FB
F3
F7
F1
04
06
F3
05
00
FC
FE
0B
FE
F8
F8
F6
FA
05
FE
02
FC
09
04
FB
F6
FB
F3
02
00
09
F6
04
D9
00
02
03
02
00
00
05
F3
04
04
FC
04
00
EF
F0
F7
06
FE
FD
FB
FD
03
F0
F8
14
F9
03
01
05
0E
FA
01
02
02
05
00
04
FF
F6
FC
09
00
F9
FF
FC
09
01
F8
FE
FF
FA
F6
FF
00
01
03
F7
06
F2
0C
F6
0C
02
FF
00
04
04
FA
F8
00
05
F9
05
F1
F1
04
02
01
F9
FD
01
07
05
FD
12
01
12
FF
F9
F7
FD
F8
FC
FB
F2
FC
FE
04
01
F8
01
F3
03
FF
FD
02
01
FF
ED
F4
F8
04
02
F4
05
FE
05
01
F9
FD
F6
F3
06
03
FE
08
01
FE
07
0C
03
FF
F4
03
04
F7
FD
00
FD
FB
00
03
05
F4
FA
0B
FB
FE
09
01
FF
08
00
F5
FF
FA
FF
FC
F9
FE
10
02
F2
03
F8
F3
FA
01
02
FB
FE
06
FD
05
06
F8
01
FE
FE
EB
F7
00
FE
FC
0A
FF
F8
E9
F6
09
FE
F1
06
11
F8
FA
04
00
FA
FB
FE
00
06
FB
F8
F9
FC
00
01
10
F9
F7
FA
01
05
ED
06
00
01
03
01
00
DE
0A
F7
0B
FA
FF
02
EE
01
05
FF
03
04
FE
06
F3
F6
02
06
05
FF
FD
F9
05
FF
E9
FE
08
F9
FB
05
F8
FA
07
03
0B
FC
FB
FF
FD
14
01
FE
01
02
FF
07
FD
03
F1
04
F5
ED
FF
FA
FF
FA
0B
F8
02
FE
05
0A
FA
F7
FC
00
FA
F7
FA
01
0A
FF
02
06
EB
0C
F2
F9
09
F3
03
F4
FA
FE
0B
04
FD
F3
E7
F3
01
F7
09
ED
02
FC
01
FB
14
09
F9
EB
09
01
03
F8
F6
FF
F8
08
05
03
0B
F9
0F
F7
04
03
F5
08
F0
F3
01
FC
0C
02
00
00
E8
01
F9
FC
F8
02
00
04
FC
0C
00
FD
F9
09
FA
F7
01
FE
04
07
02
FC
04
EF
01
0C
FB
FD
FC
0A
08
03
03
07
FE
FB
04
10
F9
06
01
F9
FE
19
FD
F8
F7
02
F3
EA
15
04
FD
04
FD
F4
FF
F8
05
FB
FD
05
F4
04
00
0F
04
F7
02
01
F4
04
FB
05
FC
14
02
F5
08
FC
DE
0E
FD
04
EA
FB
EA
E4
F2
02
06
0B
ED
FB
F7
07
FC
03
08
FF
F4
08
08
05
F5
FA
02
00
00
03
01
FF
02
F8
F4
03
07
0A
FF
F4
FD
EF
02
01
05
03
FF
F7
FC
E6
0A
FA
FB
02
FF
FE
FA
FD
0E
E8
05
F1
E5
FC
F9
02
08
F6
00
FF
0A
00
09
F7
03
03
0A
05
04
FE
FA
FE
FC
F5
06
0B
FB
13
04
07
01
06
02
F7
03
09
FB
10
03
08
02
07
02
FD
07
02
01
0F
00
00
F6
02
FD
01
01
FE
FC
FF
07
FD
02
03
06
06
FE
03
FD
01
FE
00
06
00
03
FA
08
05
08
FF
0C
0C
0B
04
03
06
00
01
08
FB
02
03
06
09
03
02
01
F8
04
05
FC
FA
03
04
09
0A
09
07
02
02
07
00
FB
00
FE
06
00
08
FB
02
12
03
0A
0D
FF
FA
FF
FF
05
FF
F9
04
03
0F
FC
05
01
03
19
01
FF
F7
FB
00
FF
FF
FC
04
FF
03
FC
03
0B
FC
FD
FD
F5
09
08
0A
09
FD
FF
06
0A
FB
00
05
00
FC
04
00
06
02
07
09
03
00
FF
07
02
01
FD
F8
04
02
08
FF
01
FB
02
09
08
02
03
FA
0C
00
10
05
05
03
02
F9
01
05
02
FA
F3
05
01
01
07
00
FA
09
FF
03
02
04
06
05
02
FE
ED
11
05
02
F0
FF
FF
08
05
F7
07
01
04
03
07
06
0A
FA
00
01
FE
0E
04
0A
F4
04
02
FA
07
01
01
01
00
05
00
03
07
FF
02
FD
0B
00
FF
FE
FF
FB
06
01
06
05
02
F5
00
09
F0
01
05
FB
09
F9
FD
02
FF
01
F5
FC
01
F9
0B
0B
FE
02
07
00
00
09
F5
F4
FB
02
01
FD
FB
03
F8
05
FA
01
06
09
FE
F6
FA
00
06
08
00
F7
F9
F4
FD
0A
08
FC
FE
F8
F7
00
01
01
0B
1B
09
FE
FB
01
FC
01
04
01
01
F3
01
12
09
FC
F3
01
03
0A
F2
0B
F7
F7
01
F7
01
F3
16
04
02
FE
FE
02
05
F7
10
FF
F6
F0
FE
FF
1D
05
FE
0A
00
FE
F8
03
01
03
04
03
04
F9
03
00
01
FC
EA
0A
05
FB
FB
FD
03
01
03
FB
08
FA
EC
02
F8
FD
F5
00
FE
FC
FE
05
02
FF
01
F9
03
FB
01
00
00
03
02
01
F8
08
FB
FF
F1
F4
01
FC
03
05
14
FC
FD
05
FF
03
FF
FD
FC
FB
02
FF
02
06
0A
FC
FE
00
EA
F8
FF
F8
10
F7
FE
02
F2
F7
01
04
FB
FE
01
FD
F4
0C
FD
FB
FF
F3
07
04
F8
01
F9
FF
03
03
FD
FE
FE
05
FD
FF
FF
FD
03
0C
00
00
F6
EE
01
FF
FB
01
FF
01
FC
01
FD
FE
F9
0B
05
FB
01
04
FE
FB
04
FE
03
FF
06
00
