6D
08
37
05
08
13
69
5C
61
6C
79
67
64
67
6F
73
19
26
6E
2F
76
15
68
7C
74
04
5E
6C
15
12
0B
05
7A
5C
7E
0A
09
72
77
7B
7A
0E
65
3B
72
07
63
7E
00
3A
10
77
62
79
0F
7F
78
54
2C
13
62
45
79
60
09
7E
00
62
0A
0D
77
7E
6D
0C
65
63
7C
1B
21
00
68
11
79
09
72
00
06
7B
09
08
70
75
7C
5A
7E
01
0A
7B
7E
67
0F
1C
76
7C
1F
06
11
7C
04
7D
75
7B
09
13
18
7F
6C
79
10
7D
07
65
6F
11
78
79
7E
7A
