11
06
7A
05
0D
0D
0B
77
6B
00
02
78
02
6E
0E
75
03
00
75
78
06
0E
05
00
7A
0C
0A
7C
06
75
01
12
7E
03
78
05
08
7E
08
7C
7E
0B
72
0A
12
03
77
09
17
7F
03
71
07
7D
78
0E
75
70
69
79
7A
04
07
02
76
07
09
7A
03
01
78
74
75
0F
77
6E
09
6D
27
08
7F
7C
70
73
75
74
76
75
01
7F
7F
04
76
73
0D
07
78
0B
0A
79
7E
7E
01
7E
77
7E
77
76
7D
06
7F
7A
6A
0B
72
6D
7E
7F
7A
0B
75
72
76
7E
01
78
7C
0D
