75
74
7A
02
6A
0D
77
75
6B
00
00
00
06
08
05
16
01
0A
7A
6E
11
73
7A
7C
02
73
0D
1D
0F
15
00
08
0A
7F
77
75
01
0A
08
7F
08
09
71
10
7E
06
71
6E
00
7F
7A
6A
75
06
7C
14
00
6A
21
7A
71
75
62
00
7C
7D
06
03
07
09
04
06
75
77
7E
7D
00
04
12
06
7F
08
7F
7F
18
01
02
00
0D
17
04
03
15
11
7C
04
7B
0B
01
7B
7F
7C
03
7E
06
06
79
7B
7D
05
06
75
08
6E
05
03
12
72
74
16
00
7C
16
76
7F
05
7E
02
