3F
02
03
03
00
3B
09
3C
3E
00
39
20
3D
34
35
34
00
04
3A
2C
37
0A
3D
05
02
02
05
3E
03
02
3C
3C
00
01
3D
06
0C
01
08
04
0D
39
3F
3E
05
04
06
02
1A
00
0C
27
01
0B
05
17
2D
24
3D
01
2C
0A
3D
0A
0B
01
3B
34
10
3F
00
0C
34
3F
3D
38
36
2A
07
07
3E
08
05
04
04
01
3E
39
00
39
3C
06
37
3B
32
3F
01
02
3F
0F
07
3A
3D
3E
00
02
38
03
1C
05
3E
03
10
07
3A
38
36
3B
12
04
36
2C
14
05
05
3C
3D
02
