04
02
05
09
72
71
15
05
61
66
7C
0C
7F
74
17
15
0B
73
7A
73
12
01
7E
7B
05
0B
79
0E
19
67
69
06
05
16
78
73
18
07
02
0E
05
7C
16
77
03
0E
73
11
7E
77
7D
5E
74
5E
7A
75
69
67
1A
01
03
13
73
0F
7A
00
03
71
7D
0B
7A
05
6F
00
07
67
76
00
07
7C
04
7F
73
70
00
79
73
01
13
10
0D
7E
07
09
08
08
7F
15
78
7B
10
05
02
7F
7D
7B
01
02
1A
0A
7C
7B
08
7D
7E
6A
0C
68
09
6B
67
78
7A
7E
6C
08
70
11
