03
04
04
02
78
7B
00
7E
02
7F
7B
73
78
78
03
7A
7E
01
77
76
6F
7F
01
7F
04
7B
7D
02
0B
7A
7D
00
00
0A
7D
02
05
01
7F
01
79
7D
01
05
79
03
7F
7F
0A
05
08
7B
7E
7B
0C
0C
78
7A
6E
02
7C
01
03
02
09
6E
15
0E
72
70
7F
2B
7A
7D
7A
08
06
6D
04
5E
00
07
64
7D
75
0A
05
7A
6C
0C
67
7F
07
7D
11
6A
04
16
7A
76
0F
07
00
6B
0A
0B
17
75
68
05
78
79
04
04
12
56
00
1D
70
63
72
60
7E
05
17
73
7A
7E
