05
15
03
7B
6B
77
0A
67
72
7B
01
0C
17
67
6E
14
0E
6B
7C
79
6C
0C
65
7E
68
11
7B
0C
78
79
6C
79
0D
7D
08
5A
06
64
10
77
7D
09
6B
0D
19
66
65
0F
05
07
77
62
0D
7C
0D
10
1E
75
22
14
79
6F
50
02
11
07
7A
02
7F
78
05
6F
60
03
78
71
69
73
02
09
07
0D
05
0E
04
1D
04
02
09
0D
77
03
02
71
15
74
7B
18
7A
76
77
03
7E
73
11
19
78
7B
07
09
7E
7B
3D
04
14
72
12
7F
0D
79
00
6A
0C
0F
71
12
7F
7D
