7F
09
73
79
7E
7F
05
06
09
78
79
7C
16
7B
70
0F
01
03
78
77
01
16
06
03
1A
04
08
7A
18
72
01
72
02
7B
11
00
7A
03
79
7B
7E
10
14
7A
03
7D
79
00
0A
03
79
03
7C
10
12
1A
6A
07
23
7E
7A
7F
1A
7B
78
7C
16
72
78
02
20
00
06
1A
71
03
0D
7D
0A
7D
01
61
76
0C
6B
01
73
07
76
09
79
03
01
01
08
00
7E
79
01
66
7C
07
13
11
2B
6C
28
6B
18
7A
69
7F
1C
07
11
11
19
76
13
7B
79
73
7E
08
02
00
1C
00
