06
75
02
07
7C
76
7E
71
7F
0F
01
7A
09
7C
65
74
0B
05
0D
78
02
06
00
7E
70
74
02
0D
05
77
10
7C
7A
07
06
78
0A
02
06
11
03
04
79
78
13
18
77
77
0C
0A
7B
70
01
7C
76
07
71
02
11
7A
6F
78
71
71
75
0E
7F
7B
03
70
00
08
72
7F
03
6C
05
0C
11
08
03
05
05
70
05
09
01
79
07
00
02
03
0B
74
7B
0A
02
0B
02
03
08
01
6F
0B
7C
79
06
0B
74
7E
0F
01
23
06
06
5C
79
6F
12
17
6D
6E
07
09
74
7E
0B
72
