78
06
76
11
0B
0F
01
02
0F
77
74
60
7C
6C
0E
7C
7F
09
7B
6D
04
0F
75
7C
7E
7F
71
14
06
7C
7C
77
7E
19
73
6B
79
79
79
77
05
03
0D
0B
13
06
7D
04
7B
0A
76
54
07
6F
6F
79
54
74
15
06
77
0A
7F
0E
05
16
00
6F
73
78
06
07
0D
11
08
00
71
7D
77
18
03
79
16
62
6B
11
7F
08
78
72
7B
19
13
10
7E
6E
0B
12
77
0B
0C
02
12
7B
0B
16
76
07
0C
75
7B
06
05
08
7D
0E
7B
65
12
77
0E
73
22
18
79
7C
7D
7A
