E0
14
FF
02
12
FB
0E
11
F2
02
FB
EF
02
15
0F
FE
F0
07
EA
EE
05
0A
00
ED
04
FE
F5
FD
0A
FB
E6
06
02
09
0E
F1
11
04
F2
E9
16
0F
FF
FC
1A
00
02
00
E8
0C
F1
F2
FF
FA
20
1C
FB
E6
0B
F6
01
F8
E5
05
04
1F
06
FA
12
03
1D
14
00
F4
13
FF
0C
00
EB
F1
FA
DA
F5
EC
ED
F9
F8
05
06
07
10
ED
1E
F4
EB
FA
05
F7
F6
FA
EA
09
E4
EF
07
1F
40
F6
01
FE
07
08
CB
08
06
07
FA
F3
0C
FB
F6
F9
07
FC
26
FC
08
F9
