6D
05
0F
01
75
0F
77
7E
0C
75
08
04
6F
7C
05
64
03
7E
07
79
7D
00
02
70
02
6B
11
07
08
16
1F
63
06
0F
06
7C
6A
7C
74
6C
02
1E
75
7C
7A
0A
7B
01
1E
77
04
78
6C
7F
77
74
02
70
15
76
03
72
2A
14
02
08
02
7B
00
00
05
74
7A
06
75
6C
72
7A
0A
04
05
10
61
69
17
01
03
06
07
76
09
0A
11
7F
78
0A
77
16
08
7F
06
06
7A
78
18
00
7C
0D
6B
04
04
03
76
09
7B
5B
78
74
0B
79
63
4C
0C
70
05
00
7D
7D
