17
02
F7
FD
FD
01
F9
07
FD
FE
01
01
07
02
19
6E
0A
09
02
00
07
0A
F7
06
02
03
01
F8
F9
02
FE
0C
03
FC
FE
00
FD
50
11
FA
E0
FA
03
FD
F5
06
00
05
FF
FF
F3
EC
04
FD
FD
00
FC
02
FC
FB
FF
FE
11
FC
02
FA
04
FF
0B
E6
03
0A
01
F9
09
FF
23
F9
F6
14
03
01
FD
F5
FD
00
FB
07
07
11
FF
00
E4
02
EC
FD
00
F9
00
04
01
09
06
02
F8
FF
FB
00
FA
03
04
F2
01
FE
00
FB
F3
FF
FD
04
FB
2D
04
06
05
FD
F9
FD
FA
01
F2
FB
FB
08
02
00
F7
08
FD
FC
16
06
00
04
FE
03
FB
F4
01
04
03
00
00
03
0B
F5
00
05
F7
EF
F4
10
FA
01
05
00
00
05
00
05
F5
F5
21
0B
09
FD
FF
06
FF
EB
12
1B
00
03
10
FB
FB
FE
FE
FA
FF
00
06
FE
F5
F7
F8
11
04
03
03
04
E4
07
FE
F8
03
F8
F9
06
F8
03
00
05
04
02
06
11
07
05
02
00
02
F2
03
0C
F8
12
0C
FB
01
02
FF
02
FB
FC
F5
FE
11
03
0A
F0
05
FB
F2
0C
FF
FA
03
F6
FE
FC
F9
0A
01
00
0A
02
F8
06
F7
F7
FE
04
08
FF
F7
0C
08
03
03
F1
11
01
FB
0A
06
02
02
F7
13
F6
FA
12
F8
F8
0A
04
03
F9
FD
FD
06
FC
02
0F
01
06
0E
F8
0D
F9
F2
FA
09
22
0B
FB
FC
F6
FF
00
01
03
17
02
01
1B
06
EC
FF
F7
FC
00
01
07
03
FE
08
FF
F4
01
FF
FD
FF
03
03
05
04
00
FB
05
10
04
0E
F7
05
06
0B
F4
EF
07
01
FF
05
F9
05
03
03
FE
F0
06
FB
01
00
03
08
02
14
F1
08
FF
04
0C
F5
01
00
F8
F1
12
03
05
01
04
0C
06
F0
04
01
FC
03
01
03
07
ED
0D
F9
FD
FE
FD
F3
FC
04
F4
10
FD
07
01
00
F5
01
01
02
03
03
07
04
16
05
03
F9
07
05
F9
FA
21
07
FF
02
07
02
FF
02
F6
06
ED
05
04
06
01
0B
02
FA
FF
FA
03
01
14
04
10
0E
02
02
04
03
01
FD
FE
03
06
08
FD
02
13
F8
02
02
1B
FD
0F
03
00
0A
0F
F5
04
0A
04
00
03
13
06
00
03
10
FE
06
08
FD
0D
03
05
00
0A
06
11
0E
D1
00
06
FF
03
11
F4
02
13
16
04
02
00
05
FD
F7
FD
FB
0E
FD
0A
FE
F1
03
00
E4
03
FE
F7
FD
00
FB
0C
00
0A
FE
F4
FD
05
16
FC
FA
F8
FC
DF
10
06
FB
FE
FA
FD
0B
04
F1
01
01
0F
00
FE
04
01
F0
FC
FF
F9
F6
0A
06
0C
02
06
0E
12
04
FF
05
EF
08
02
FA
FD
09
DD
08
00
08
F5
FC
FF
03
02
F6
F2
F6
FA
08
06
F8
FF
FB
00
08
08
0C
FE
FA
03
F8
02
19
06
01
FE
FC
00
00
0B
06
04
01
08
FF
08
0E
FA
FC
FD
01
08
FD
FB
F8
00
F9
FE
00
05
06
FC
00
03
07
01
FA
EF
F5
01
EF
00
02
04
05
FD
F4
04
FF
04
F4
08
FC
08
02
0D
00
FD
05
FF
FE
00
08
FB
04
06
02
02
0C
0F
F7
04
FF
FB
10
FC
03
03
FD
10
0B
08
F5
F6
FF
09
02
FA
01
F1
08
06
FF
FE
00
04
F9
E0
FD
06
FF
04
FD
02
07
FF
FD
08
F8
05
F8
03
FA
F8
04
FE
FA
F4
FF
00
00
01
01
08
F3
0B
FC
FF
0C
FE
02
02
F3
00
02
11
03
F0
F5
F2
0B
FE
04
07
00
FE
0D
FE
03
03
00
FE
05
F4
06
FE
FE
F1
04
0C
06
01
03
07
FF
02
03
FE
03
06
FB
02
FB
FE
02
02
FD
00
01
FE
01
01
F6
0A
03
01
F8
FD
E7
00
00
FF
00
05
FF
F9
06
09
00
05
FB
01
01
FE
FC
FD
FF
05
FC
F7
FE
00
00
02
FF
FE
FC
06
05
FD
FC
F5
F6
F9
FC
02
FF
04
00
02
FF
03
FD
FB
00
05
04
F6
FA
01
01
00
FC
FB
03
02
FE
F8
04
FC
01
00
00
FE
09
FD
00
FD
02
00
00
02
03
FE
FF
F9
FC
02
F9
FA
03
05
FE
09
01
F7
01
FD
02
04
FF
F3
00
F1
00
FD
FF
FD
FC
FC
06
FA
FF
FF
01
F5
03
FD
FD
F8
04
FF
03
FE
F2
00
00
FF
02
F3
F6
FB
FB
FF
04
02
09
FE
FF
FF
06
F6
FE
F6
FC
FB
02
FE
03
02
F5
EF
00
F8
03
FF
00
04
00
FD
00
FF
FE
00
00
01
02
05
00
FD
F5
01
01
06
FC
FE
F9
02
06
01
FB
06
01
04
FF
FF
00
F6
03
06
01
06
FF
01
04
06
F7
F7
FE
01
07
FF
00
FA
FF
FE
FB
01
01
F5
FE
FB
F8
FD
FA
04
FF
F5
FC
00
FB
FE
FD
03
05
03
F9
00
01
00
F7
03
03
FD
FF
04
FA
F9
FB
FB
08
01
F5
FC
0F
14
00
FE
02
05
08
FC
03
0E
06
FF
01
03
03
F4
F4
00
0A
F1
08
0F
1E
09
FE
00
07
FF
0D
FD
00
07
00
00
03
00
08
0B
03
0A
FD
04
03
08
02
04
07
03
08
08
FB
E7
FF
FB
FD
FA
02
FF
FA
02
04
FE
07
07
FE
FF
05
04
FE
03
09
09
F0
FA
00
01
FE
02
E7
05
15
03
03
00
0D
04
FD
F3
04
00
FD
00
0F
04
0B
16
0B
00
08
05
05
07
04
FD
0A
00
09
18
07
FF
F7
01
09
FE
08
08
00
FC
0C
FD
04
FF
0A
FD
02
FA
00
13
02
17
0A
EA
FA
FA
06
01
03
FF
07
EE
FA
FF
E3
0C
03
02
04
0B
06
03
FD
12
EE
FA
0A
F7
04
02
FF
01
FB
FF
F8
FD
08
FD
03
07
03
11
F3
02
FD
08
13
06
09
F7
01
03
FF
21
1B
FE
F7
08
F0
02
05
FF
01
07
0F
F3
02
11
07
08
06
FD
F8
FE
FF
04
FC
08
0E
F5
02
0E
FE
F4
01
04
FD
FB
02
0C
FC
FE
F4
02
F5
10
FF
03
F9
10
02
03
F8
00
FD
03
01
00
F9
00
02
04
12
00
00
02
FC
03
01
02
05
07
03
FA
FA
02
FF
FB
11
FF
FD
07
FA
03
17
FE
0F
06
0E
FE
F8
01
04
00
E2
FB
0D
01
F2
FF
03
00
00
F7
18
00
F5
FF
F9
FD
FC
FE
FA
05
00
0B
F4
00
FD
02
FE
02
F7
0C
EB
03
FF
00
FF
FE
FC
F1
F9
07
FB
FD
03
FE
FF
06
03
12
05
0F
05
F4
03
F9
01
FC
03
07
FA
02
02
01
03
02
FF
06
03
FB
0E
F9
EA
F7
FC
00
FE
03
03
02
F9
F4
FC
04
0B
FE
06
FE
02
03
05
F0
EF
FB
FB
02
FE
F0
FF
06
02
0B
FE
00
02
F5
08
03
F3
EE
03
FE
FD
FF
01
0B
1E
0B
00
F8
05
F8
FE
F9
0C
FD
FD
FE
FA
03
FC
FE
FD
00
00
06
03
F6
00
07
02
01
01
00
FC
FC
01
07
F8
F5
09
01
F7
02
06
0C
FF
FF
FA
00
FF
FB
FA
00
F8
09
FC
F9
00
03
FF
05
00
03
0A
00
F4
EB
FB
FE
01
FD
F2
FC
FD
03
08
EB
F5
F1
FD
01
FD
07
02
02
FB
F2
F6
FD
FD
06
F7
FE
05
03
FF
02
F6
FF
FB
FC
02
06
06
F9
F8
F8
FF
F9
FF
F8
01
FE
06
06
FF
FD
F9
01
0C
01
FE
01
FE
08
09
08
FF
FB
03
FE
FD
F8
03
00
03
00
F0
02
EE
FD
FE
FF
00
FB
01
02
FF
06
09
00
08
FB
01
01
01
1C
06
FC
0A
06
FF
00
FF
02
F9
FF
FB
FD
FD
05
FF
FE
FF
FD
05
FB
FE
FD
FF
02
01
FE
FE
FE
03
00
FE
01
F9
FF
FD
00
FF
33
01
08
FF
00
01
FD
03
FE
00
FF
02
FA
F4
02
FE
00
FF
00
F0
02
FF
FC
02
0C
00
FD
F5
03
FF
01
FF
FE
FD
05
FB
00
FF
FA
FF
FF
FE
00
F7
02
FF
FF
F9
FE
00
04
04
00
01
00
04
00
04
01
06
04
FF
FF
FD
F9
FF
01
03
00
03
F9
FD
02
01
01
00
00
FB
01
00
F7
00
FE
00
00
04
01
02
FC
FF
00
FF
00
03
FA
FA
FB
00
02
05
01
00
02
F6
FD
FC
04
FF
FD
00
00
02
FF
FE
EC
FE
FC
04
FD
FF
05
F9
25
00
FC
0E
00
00
01
FB
02
01
F8
FD
FD
FB
FD
03
FA
FF
FE
FE
00
F8
05
02
01
FA
02
06
FD
F8
02
FF
01
FF
FD
F9
00
00
FC
00
FF
F1
06
F1
FE
FF
FE
FE
FF
FE
FD
FE
FD
FF
FF
FD
FD
01
04
04
01
01
01
FF
02
03
FA
07
FF
01
01
03
07
FD
09
FE
0E
0C
0A
00
02
06
01
EA
07
02
FA
16
F9
04
01
EF
00
01
13
13
1E
06
ED
0B
02
03
04
02
07
F3
FD
02
0E
F9
05
F6
08
0C
04
ED
04
03
05
06
00
06
F8
00
FE
01
FA
F1
15
03
01
FD
09
02
00
FE
F6
EF
FB
13
FE
10
FB
04
00
0A
FE
01
F9
F8
05
00
0A
FF
FB
09
0B
FF
FE
1A
03
0E
06
0B
02
F1
07
02
FA
F9
02
01
09
F4
01
04
F8
09
F5
FB
FA
F8
07
FB
1C
F3
F4
FD
07
04
F7
04
08
01
F8
06
08
06
01
01
03
15
05
03
08
0B
03
05
01
03
F1
FA
0C
E7
07
09
16
F8
FD
09
05
01
01
0C
FC
05
03
07
05
FF
00
FE
03
03
FE
07
02
F8
07
01
07
06
F9
F3
03
05
03
F5
04
FE
FE
04
05
F3
06
11
03
0A
FD
08
03
02
F2
FB
FD
FC
FF
0C
11
02
FB
03
07
FD
EB
12
03
FE
05
01
10
FD
03
08
F6
F4
03
FF
04
F9
03
F9
02
ED
04
E8
07
FC
05
01
FF
FA
09
01
E1
16
F5
FA
08
09
0F
06
05
15
1E
FE
0A
08
03
06
EA
0A
FF
FE
00
FF
03
07
04
06
FF
08
FD
06
FE
09
FC
01
FC
FF
00
0D
01
FD
F8
03
04
00
FD
01
01
FF
02
FE
FF
08
03
07
FD
01
FC
F3
00
00
FF
FF
F6
01
02
02
F9
01
03
FA
F8
09
FF
FC
FB
05
03
FF
FD
FF
04
EE
F5
F3
FD
07
05
05
08
FE
01
01
01
00
00
02
FE
07
03
FD
00
01
08
FB
01
09
FF
01
FE
FC
03
05
03
FC
F5
FA
05
00
F9
00
00
FA
FC
FD
05
E9
FB
08
04
17
02
01
02
0E
FC
FD
08
06
FC
FC
07
FE
EE
FD
04
F9
00
05
01
FF
FD
FE
FE
04
FC
06
FB
FD
05
F8
FA
FE
FD
FC
00
01
00
FA
FC
02
FF
00
FC
02
FF
01
02
03
01
04
0A
FB
FE
FC
08
03
01
F8
01
F9
FD
FC
01
00
FF
00
03
FD
01
01
01
15
FB
01
05
01
FF
F9
05
02
FE
12
FD
04
02
07
F8
01
FE
09
FF
FF
04
07
FC
EF
FD
0E
FF
03
EF
00
03
0A
FF
00
01
FD
FF
01
FE
00
FD
FD
FF
01
00
01
FF
F4
FE
F7
01
FF
1F
00
00
01
FE
00
02
FB
05
FE
00
01
FA
FF
03
FB
FB
00
FF
11
02
11
02
FC
0A
00
02
00
01
07
FD
FB
00
0B
03
FA
02
01
FE
02
08
FF
00
00
0F
0A
FE
07
FB
FE
06
10
03
05
03
03
09
01
00
01
FF
FF
02
04
FF
F7
FE
00
02
00
09
00
FE
00
0E
FF
03
FD
FA
FD
07
1B
FF
01
FD
07
00
01
02
FE
05
FE
00
FF
FF
FE
0B
00
F6
FD
10
FB
00
0B
FE
0A
FE
01
FB
01
02
00
03
FC
06
F3
02
FE
F9
F3
01
02
04
0B
F7
13
FF
FE
06
00
FA
05
16
0C
03
01
F5
F8
04
FD
07
F7
FE
15
F8
00
07
FC
FE
0B
FC
FE
01
FB
03
07
06
01
0C
FD
07
FE
01
FD
F6
FD
03
0D
00
01
00
04
F8
FE
03
03
1A
02
02
02
FC
05
06
FF
FD
04
FF
FE
0A
FD
01
03
04
FC
07
FB
FF
1D
02
01
FB
08
00
03
02
00
FF
15
FB
FE
00
01
FB
0A
FD
14
03
07
FD
0E
FE
FB
09
08
09
01
FD
00
03
FF
02
05
FF
18
01
06
03
07
00
02
FA
04
0E
FC
00
01
0E
03
FE
05
02
00
01
00
05
01
02
01
0B
FC
FD
04
FD
01
FF
F5
06
FE
FF
00
F2
FF
05
01
FD
00
0A
FF
E8
09
FA
FD
16
FA
EC
FF
02
FA
0E
05
F8
FE
FE
05
09
0F
00
01
00
EF
09
EB
07
F7
07
06
03
00
F1
14
05
0A
03
01
08
05
05
F6
02
01
FB
F6
02
06
F9
07
09
FA
04
FB
05
06
FA
FC
FA
0D
03
FD
05
03
09
F8
06
08
05
11
F2
F8
F9
01
FB
04
FE
03
FD
09
F6
05
EF
FD
00
08
01
05
F9
F0
02
F9
01
FC
FD
15
0B
04
F9
FE
0C
FE
FA
F7
F6
04
02
06
12
FD
09
F7
03
FF
02
02
F5
FE
FB
F8
F8
01
FC
00
F5
EB
F5
FE
03
05
03
FC
FB
05
06
01
04
04
FC
0C
FC
00
FD
05
04
05
00
FA
05
19
03
FF
F8
00
01
F4
FF
01
03
FE
F5
FB
0A
00
FF
FD
08
0C
05
F7
00
F8
FC
F5
02
02
F8
FC
05
FF
01
F9
02
0E
20
F9
05
05
01
0A
09
05
03
02
03
F6
FB
ED
F6
FF
FD
07
FF
00
F1
FD
00
1F
07
F3
02
F5
FA
F8
FE
F9
00
02
11
FC
FB
01
FD
E8
0B
FE
05
FB
F9
F9
06
F3
0B
07
FB
FE
00
05
FD
FB
01
E9
F5
01
FC
06
00
FD
FA
FA
01
0E
07
05
05
07
FE
FE
F9
00
0A
EC
09
FF
F0
FE
01
F9
06
06
0A
F9
08
FB
03
FA
FA
F7
09
FA
F0
15
04
07
07
FD
FA
F0
FA
04
08
01
05
EF
FD
04
01
06
F7
06
06
01
01
FB
F9
01
08
0E
06
01
05
0A
00
02
0B
F8
06
FB
DF
0C
08
F8
01
03
01
01
F7
EF
0A
FC
04
04
00
00
05
15
FA
07
F8
E9
00
18
0D
04
05
08
02
02
00
EB
01
FA
01
FE
FD
FD
06
FE
08
09
00
03
05
F7
05
06
13
04
FB
F9
FD
17
03
05
23
06
FB
F9
FE
06
12
F3
09
0E
15
08
EF
01
E3
00
FF
00
04
03
03
05
FE
FF
14
05
05
0C
FF
FF
01
02
00
06
FB
F2
08
FB
01
F6
10
04
FB
02
FF
0C
03
00
03
F8
F7
05
00
09
00
03
00
FF
01
00
00
F9
00
F4
07
05
07
FD
02
0A
04
04
02
DB
F9
04
04
03
10
FB
11
F9
F9
FD
F7
07
03
05
14
FE
02
FB
F7
10
FB
FC
08
FE
04
FF
F8
04
00
FF
02
F3
01
FF
13
FD
06
FC
FF
01
0A
04
FC
02
06
02
00
FC
09
F7
F2
06
01
05
F0
ED
0A
E2
FC
FC
00
06
FD
01
00
D9
03
04
02
0A
FF
02
1F
FC
02
FE
00
F9
08
03
01
02
03
05
27
F3
F7
10
FD
FF
FD
05
FD
0F
18
20
F4
E5
F4
06
0C
0D
00
EE
0A
01
00
EA
08
F8
FF
06
FC
F6
09
FD
04
02
FC
00
F3
F9
FC
F8
FE
E4
0B
F0
08
07
11
07
08
01
09
F6
1D
ED
FA
FA
FA
13
F6
0F
10
08
04
CC
FF
FB
06
FE
00
02
00
FE
F9
1C
04
FE
00
0B
02
CD
FC
00
0D
07
0A
00
0C
1D
00
FF
F5
12
FE
00
07
FB
FD
F6
01
02
09
01
F7
06
0F
03
FA
05
F2
02
EE
F9
01
F9
05
06
FD
06
02
0D
08
01
F2
FA
F6
F5
0A
08
09
0B
EF
F6
1B
15
02
02
03
F5
F9
05
F5
04
FB
00
06
FE
FF
01
F1
15
F7
03
08
F5
F3
ED
0E
EA
04
03
01
E9
09
FE
F0
FD
0B
03
00
03
0C
FE
0D
FC
0E
07
F4
09
F8
02
0B
01
FA
03
03
04
F7
FF
F8
00
FA
FE
23
07
ED
FF
03
07
FD
FB
F7
01
F9
FD
0C
02
04
FD
FF
01
04
01
FB
01
0E
F9
09
05
F5
FB
EE
FC
03
07
08
04
F7
0D
0D
FF
F9
FF
0A
04
FB
11
FA
00
01
04
03
FF
F5
AB
FE
FD
FA
00
00
FC
02
05
FD
07
F9
0D
DC
1F
02
08
F6
EF
06
01
FD
02
FC
03
00
FE
FC
FA
FE
00
02
00
FE
03
FE
FE
FF
FF
EC
FF
02
00
01
00
09
04
00
03
FF
00
00
F6
FA
01
00
01
FF
00
00
FB
05
02
02
04
FF
02
CB
FD
FE
04
02
FF
05
FA
05
FE
FE
FF
03
04
08
F6
ED
FE
0A
02
F7
EE
03
01
FC
01
04
09
FA
00
02
02
FD
01
00
F4
01
FD
E3
FE
08
01
02
FA
06
05
F9
FF
F8
00
00
FE
01
F9
FD
01
01
01
FC
01
00
FF
0D
03
01
00
FB
F5
F8
FF
00
01
FA
FE
F8
F6
01
EF
FF
01
FE
00
FF
0A
01
07
FB
EB
04
01
00
02
0D
FE
FF
01
FA
01
00
0E
FF
00
F2
00
06
01
FB
FD
00
F7
FB
F9
F9
00
F7
FE
00
01
06
DF
FC
03
FE
F9
06
FF
FF
04
00
01
E4
FE
02
01
FF
FD
03
FB
01
03
F2
00
04
00
01
01
04
00
FD
08
02
00
FB
FB
03
FF
FC
02
01
01
00
0A
0A
04
01
01
05
FF
07
F4
01
FE
01
02
FD
04
F1
02
05
04
00
FE
04
00
04
01
03
FD
00
01
FD
FE
00
FD
FE
FC
01
FF
F3
01
06
F9
04
01
FE
FF
00
FB
F4
00
00
03
08
00
FE
F9
FE
07
F5
00
FD
FF
05
0A
FE
01
00
FE
FD
FF
02
00
F3
0C
0C
02
F4
F6
FA
FC
02
04
F5
00
03
FE
04
03
FD
08
FE
F9
0D
01
FC
FE
01
FE
F9
F8
07
00
02
01
F6
01
02
FC
FB
FC
FD
01
01
F6
F9
FD
00
EF
FD
F6
08
FF
FF
FE
00
01
FC
F9
FE
01
F4
FA
FE
F5
01
00
00
04
04
FC
05
03
FF
02
F8
FF
04
03
FD
06
04
04
00
01
02
FA
01
00
F9
08
FF
03
FF
03
04
FE
02
05
FD
FE
FA
FE
01
03
FD
00
01
FA
01
01
FD
00
FE
FE
FF
02
01
FA
01
05
FD
FE
01
02
FD
FC
02
01
03
FF
FB
FD
FA
FB
FC
FE
EF
FF
00
FC
02
FB
FB
FE
FE
FC
FE
FF
04
00
01
FF
FC
03
02
00
01
FB
FB
03
00
FC
FB
F6
01
01
FB
03
FA
01
FD
03
F9
04
00
FC
FF
01
FF
FF
FD
FE
FF
FE
01
0D
00
FA
FA
FE
00
F9
02
FE
FC
FF
FF
FD
00
00
00
FD
00
FB
04
00
09
EC
00
05
01
F9
FF
F0
02
01
FF
05
F7
FA
F3
F7
F6
07
FA
03
01
FF
05
F9
03
03
04
07
FC
ED
FC
FC
03
00
07
FC
FF
FD
FB
02
FE
04
F9
FC
05
F8
F9
05
FD
06
02
02
F9
04
F9
00
00
03
07
FE
05
08
FB
F7
05
02
FA
04
01
FE
FF
02
01
00
00
00
FC
FD
FE
FD
01
02
05
FA
FC
08
FF
02
01
FF
04
F8
FA
04
01
01
FC
FC
FF
FB
00
01
FF
05
03
F6
04
FE
02
02
FC
FB
04
FF
02
F3
06
06
00
FF
00
FF
00
FA
06
FC
01
05
FD
02
03
FD
09
00
02
02
FC
F5
00
01
03
FC
05
FF
00
FA
07
05
02
06
FB
F8
02
FD
04
07
FA
00
00
04
FB
01
06
FC
FC
04
FF
04
03
00
01
FB
00
FF
FC
01
06
01
01
00
FF
FC
06
06
FF
FF
FA
00
FD
FF
01
FB
03
FF
03
FA
FF
FF
00
FD
04
02
03
02
FC
02
1F
FB
02
04
04
05
FE
03
FA
01
05
00
FA
FC
02
02
02
05
03
06
03
06
03
06
FE
01
FD
07
F1
FD
08
08
FA
F9
02
06
03
06
F6
FD
F8
FF
01
01
01
03
07
FA
00
00
03
FA
05
FB
04
F9
23
03
06
FE
FC
1E
FC
02
EF
F8
01
FD
FE
EC
FE
FB
0A
02
03
02
FE
08
F1
E1
FF
FC
FD
0E
FB
FA
04
FC
FB
13
02
06
FC
FA
02
F4
F3
00
01
F3
EE
FE
FC
11
FD
03
FF
01
00
FC
0D
17
FF
04
05
02
FD
FD
FD
06
06
FA
F1
F9
05
07
04
00
FD
F9
FC
FB
EE
FC
F6
F4
03
EC
F1
ED
FB
03
01
01
FF
0A
0B
05
F9
04
0E
F1
02
F8
01
FA
EF
00
F9
FE
F4
FF
12
00
00
1F
09
F2
FB
07
2D
02
FF
FF
00
DB
31
F4
F8
04
03
0E
05
FC
F8
F6
04
01
FD
01
01
F6
FE
FA
FB
0A
09
F4
FE
FC
04
E7
F5
08
F5
F9
04
F7
E1
04
F1
00
02
FC
EA
04
E0
FC
FC
03
FC
07
FD
11
F0
F6
03
03
FD
FD
02
00
FA
F9
FD
FF
F8
FE
FE
F3
01
F8
05
01
F6
01
F2
06
06
F5
0C
06
17
03
F8
F7
04
EB
F4
FE
FD
05
F4
07
F3
03
00
02
FB
02
FC
F9
F7
03
05
F3
FD
0E
00
02
01
FA
FC
02
03
FD
F5
D9
EE
F7
00
08
01
F5
07
FC
05
FE
FA
00
E4
FA
01
00
05
00
FC
04
0B
FE
FF
FC
00
F8
FC
FE
00
04
01
FA
FF
FE
FD
01
12
FC
03
06
FB
00
00
05
03
FD
04
FF
01
01
07
04
FB
FB
03
00
FF
FE
07
F7
01
FE
FF
00
06
06
01
01
FC
05
FD
FE
00
01
07
FF
03
04
00
FC
FE
00
00
F7
02
01
01
00
F9
01
00
FD
FF
FE
02
02
FC
09
04
FC
02
FD
03
FD
01
03
03
F1
01
00
FE
01
0B
03
03
EA
00
00
07
00
00
00
02
FD
FE
FB
00
FD
FF
FF
FF
FC
FB
FE
04
F2
FF
FF
03
FC
02
FB
FF
FF
08
00
FD
FE
00
01
01
01
FA
F9
01
FE
F7
01
FB
FA
00
01
FE
FB
01
FC
08
03
FA
00
FD
03
FE
00
00
07
01
00
FC
FD
02
03
03
00
01
FD
FE
06
03
FA
02
F6
FC
FC
01
FC
00
02
01
01
01
FF
00
FB
01
04
00
06
01
03
04
04
FC
01
03
01
FD
01
FC
01
FC
FA
FE
00
02
FE
FF
FD
01
01
FE
02
03
03
FF
00
00
FE
FB
FF
00
00
01
07
00
FC
FE
03
FE
02
00
FC
02
FE
02
03
01
00
01
FF
00
FD
02
01
FD
FF
FD
00
04
FE
00
00
00
04
05
FE
01
00
FE
FC
04
FE
FC
04
07
02
FD
FF
FF
00
F9
05
FA
FB
F9
00
FE
00
06
06
FF
08
04
FE
00
08
FC
00
FD
F7
00
FC
F8
FE
FE
F6
FF
FA
00
02
F9
00
01
02
03
0D
FF
FB
FF
05
FD
02
F7
FD
00
FF
FE
04
0A
FB
F6
06
FF
04
03
FE
F6
02
03
EC
08
FF
FF
09
FF
0B
09
0C
00
FC
04
04
00
F8
04
06
FA
0E
F1
00
05
DA
FF
FA
FC
01
01
FD
FA
FF
FF
F7
F9
00
F6
08
01
00
F3
FD
02
06
0D
03
02
F0
04
02
05
FC
F6
FE
01
F6
01
F6
FE
01
FF
03
FC
F7
00
01
02
F8
F8
00
0D
03
05
01
02
01
E5
FF
03
FF
00
FD
FF
00
FF
00
05
FB
00
F7
06
02
01
FE
FD
02
00
FA
01
F4
06
01
FD
00
07
01
01
FA
01
00
0D
FB
F3
01
FE
FF
12
F6
01
00
06
F6
0E
FE
FD
08
09
FF
01
F6
FC
01
08
05
00
04
03
F3
00
00
19
01
02
F7
0F
02
FE
11
04
01
03
00
0C
F9
FE
01
FC
00
01
F9
03
0A
00
04
06
FD
00
08
03
02
00
FF
00
0A
FF
04
02
04
00
00
01
06
04
FA
FE
F6
F7
00
FE
EF
F6
FC
03
13
F4
FB
F8
F2
FA
01
FC
02
03
04
02
01
FB
F4
DC
04
F9
F7
F5
F1
0B
FF
08
F6
04
06
FC
02
FC
F9
FD
EC
FB
F8
F6
00
FC
08
01
06
FF
00
03
00
FD
FE
07
FB
FC
02
FF
01
F2
12
F3
02
FB
09
04
F1
03
FB
0E
04
FF
0D
00
F6
00
F9
F3
FD
00
F2
FA
07
FD
01
08
06
FC
04
0B
F2
F6
10
F7
FD
02
FE
01
FF
F9
03
F9
02
FE
03
FE
F3
F0
01
04
01
FB
0E
F4
05
FF
0F
19
F9
FF
02
09
FE
01
FC
E4
00
DC
FB
01
03
0C
02
F9
FC
F4
F1
05
01
FE
FE
07
FB
04
01
04
02
F8
00
FD
FD
04
06
F8
FF
FC
0A
15
02
04
DF
04
FD
00
FD
04
F5
03
EE
01
0C
02
01
EA
01
01
FF
00
05
F9
07
FC
EB
06
FF
FE
F3
00
0D
0A
0A
08
E7
FE
06
F8
04
04
F2
FC
FE
02
EE
01
03
FD
07
14
05
F5
06
0B
FE
FF
02
07
EF
FB
03
FE
02
F6
F3
06
01
FB
00
FA
F7
F9
FF
00
F7
FF
FD
00
08
EF
01
FF
FC
FA
F9
FF
F1
F1
FB
EA
FF
01
0D
FD
02
FF
00
FD
09
FD
03
03
41
FC
00
00
07
04
10
03
03
F7
00
1E
02
FF
02
00
04
13
1F
FF
01
FE
01
00
FF
0A
01
FE
06
FA
FE
FF
FF
08
14
FE
FC
FF
FD
03
01
FA
06
FD
FF
FE
00
FC
0A
FE
02
02
00
13
00
FD
00
F9
03
FE
FC
02
07
17
0D
01
01
28
1B
FB
01
F1
FE
04
09
09
02
08
05
FC
03
F4
02
0E
FE
03
08
FF
02
02
0B
0B
FF
FD
FF
0A
02
FE
03
FD
00
00
01
F9
FE
13
FE
01
00
F7
16
02
FF
04
03
0A
FE
FE
05
06
F9
09
00
00
00
0E
FF
12
FF
F9
FA
00
00
05
0F
FB
FD
FE
01
0D
05
F7
07
00
09
01
00
FD
FB
FE
00
04
08
08
0E
F4
FE
00
06
FE
24
FE
03
06
FD
04
19
FA
00
0F
00
00
FF
05
FA
FF
08
FB
05
02
01
01
FB
F9
F9
01
1B
2C
00
01
06
FF
02
F9
00
00
00
1D
FD
FA
00
F8
03
01
03
02
FC
F9
FF
0C
01
0E
FF
0D
01
02
FC
FF
FF
0C
04
FC
0C
01
FB
00
01
07
FA
09
05
00
05
FB
01
0F
F8
FE
01
00
FD
FF
FE
03
0E
01
FE
0C
04
01
03
FD
FD
04
D8
FA
04
04
00
EF
01
F8
F8
16
02
08
FD
FC
01
04
0A
F8
F7
FA
04
03
0F
D8
01
FA
EE
03
05
F7
F0
FF
FE
08
F8
E1
F9
FF
F7
F3
03
01
04
F1
03
08
F7
00
03
01
00
00
07
01
FF
05
F7
F8
FC
F9
03
FD
06
F4
FA
07
02
FB
FD
0A
CE
FF
F7
FD
FA
FD
FA
FF
0B
00
F5
03
09
F2
01
11
FF
FF
F9
06
FB
F4
F4
FA
FB
15
05
FA
09
0E
10
11
F9
02
03
F9
02
F0
02
04
F8
05
00
F8
FD
FE
F3
E9
0A
FA
00
FD
01
F9
FD
F6
0D
FE
F9
EC
0F
05
F7
09
FD
12
FF
05
F2
05
E7
FF
02
FE
05
03
00
08
F3
13
01
FA
06
05
FD
FD
F7
03
FA
FF
FF
01
01
00
09
ED
FB
05
F8
01
FD
FA
00
09
FF
FF
00
FD
F7
FC
EA
06
FD
F8
F7
F4
02
01
10
F4
F7
00
EE
F8
FF
02
00
02
02
FD
07
FB
02
01
01
EC
04
FF
E2
F4
00
01
02
FC
EA
FD
FC
F9
02
FA
F9
FF
02
FA
01
D6
FF
13
0F
FF
FE
03
01
00
03
F5
03
EE
0D
08
F8
F3
FE
00
FF
EE
F7
F3
FE
FE
FB
08
0F
F6
05
0D
FD
FA
07
01
FA
FF
FE
01
02
03
06
FD
F9
09
F5
04
F8
FB
FA
F3
F5
FD
F8
FB
FE
F4
FE
00
04
01
FB
FA
00
FD
12
00
FE
F0
04
FE
0E
F5
FF
FF
F8
FF
07
FF
F8
03
02
03
F7
04
00
07
04
06
04
01
FB
FE
FD
01
03
04
13
F9
FF
08
FD
05
09
07
FC
0D
02
01
D9
ED
FD
05
03
FE
01
FF
FD
09
FE
01
06
FE
FB
FE
FA
FC
EA
FD
F7
11
FE
0A
FE
04
F6
10
FD
FB
04
F8
08
F6
02
0B
EE
0F
EF
FD
01
FE
F2
FF
08
07
12
FE
01
F5
05
FE
FB
08
08
04
0C
13
F9
0B
04
F6
FF
04
0A
00
FE
0A
04
10
F6
FB
09
02
FE
04
02
FC
0D
03
0A
F7
04
07
0C
FD
01
FD
00
FB
03
0D
00
F9
06
0D
FC
F9
0C
06
07
FC
FC
FC
02
FA
02
01
F7
03
02
FE
07
FF
0A
01
FA
FF
FC
19
F5
FF
02
04
1B
F4
FB
FA
FD
02
FD
FE
05
03
03
03
06
F9
04
11
08
01
0E
04
10
09
1A
01
0B
05
FF
FC
FE
FB
00
01
08
08
03
FC
F1
FF
F7
07
01
00
05
FF
FE
F5
FF
13
03
09
FC
07
0F
07
EF
07
04
0B
11
00
01
E7
FF
F7
FA
FB
FE
15
DC
FB
15
10
FC
06
09
09
0A
08
0D
F5
F7
FD
16
01
0B
09
F8
F8
13
04
ED
F2
0A
FC
FC
06
13
19
05
F3
06
F0
FC
09
EB
01
EE
F3
F3
0C
FB
16
F9
00
07
FF
06
EB
0D
0E
01
34
F1
07
F6
04
F5
00
00
0B
09
05
EE
F7
0D
05
EC
FD
03
F4
FB
03
00
F0
FA
FC
00
FC
00
07
EB
17
F1
F9
07
FE
F6
F7
FB
11
FE
FC
F3
06
F1
00
ED
05
F4
EE
06
FA
FC
F2
EF
FF
FE
09
EC
FD
16
F9
15
00
FE
05
05
0B
E4
07
01
04
07
0D
05
F9
04
05
FC
F6
05
F1
03
06
01
04
F7
F7
04
0C
01
F1
16
03
F0
06
01
FF
FE
FF
E3
03
04
FE
F9
0A
FF
F8
02
F5
02
00
01
04
04
F7
03
00
03
F6
03
FC
FE
01
F9
FD
10
08
F8
E8
01
EE
0C
01
04
13
16
0B
F5
08
00
FE
F7
09
10
FE
04
FE
09
0F
01
00
EF
05
EE
09
FF
09
01
17
FB
FE
FF
FF
05
07
03
00
03
0B
06
F4
06
FC
01
0E
00
05
EB
04
FA
03
03
F3
00
FF
01
FC
FF
00
05
FD
01
02
FB
06
EF
FE
F9
00
FD
00
08
FC
FB
FD
00
00
04
00
02
02
01
00
02
03
FF
FF
FF
FD
09
F9
01
FF
FD
FF
FE
F8
03
06
FF
03
01
02
F6
08
FA
07
FD
02
FE
FF
FC
FD
00
FF
0B
01
FC
FC
07
FB
01
FD
FE
07
FB
0C
17
02
01
00
FC
FA
FE
FE
04
FF
02
04
03
04
01
FE
04
14
F8
FC
03
0C
FC
FC
01
FE
01
01
FF
01
02
00
FE
00
F9
FD
02
FC
FC
03
00
FF
F9
01
F6
02
0C
FE
01
01
06
03
02
02
04
0F
FE
01
00
07
FA
FE
05
00
FF
04
F7
FC
0A
09
FF
FD
FC
02
00
FE
FE
FD
04
01
FD
0C
FB
00
02
FF
01
01
F9
FD
FD
05
FD
FA
FE
09
00
FE
ED
00
FE
FE
FE
FE
02
01
03
FD
03
F5
07
04
04
01
FD
03
00
FF
00
02
0C
FE
03
08
02
F7
FF
06
05
01
FD
07
02
FE
FA
0A
F8
00
00
FE
FF
00
01
FC
05
FE
04
00
04
00
FA
FD
FA
07
03
00
00
02
F8
00
0B
01
FE
FD
FE
01
FB
FB
FE
0B
03
03
F8
00
FF
04
FF
01
FF
05
00
F5
FD
FE
00
05
FE
02
FF
03
02
00
01
00
03
FD
01
06
FD
AC
00
FB
05
02
FE
00
F8
02
00
F7
00
FF
FD
00
01
EF
00
FF
FE
FF
00
BE
01
02
06
02
00
04
FF
03
00
01
F8
02
FF
FE
F4
02
03
00
F9
00
00
FA
FF
FF
00
19
00
04
F5
FD
EF
07
FC
03
01
03
FC
00
E1
01
0E
01
F9
FC
01
FF
02
FD
01
FC
05
FA
F9
E8
F2
01
01
05
05
02
00
01
FE
03
00
00
FE
FB
F9
FF
07
FE
FB
01
01
FC
00
FD
FE
03
06
01
FE
CA
FF
F6
00
FF
04
03
00
FF
01
01
01
FE
01
07
FE
00
FF
01
FE
02
FF
FE
05
FE
01
FF
FD
01
01
FE
FE
01
F1
00
00
02
01
EC
F7
07
02
FF
FB
FF
03
00
03
02
FD
FF
FD
00
01
07
01
FF
FE
F3
F9
01
01
01
EF
03
FF
01
00
02
FD
04
08
FE
FF
03
02
01
FD
02
01
00
01
FE
00
03
F9
F6
00
00
00
04
FD
FD
03
FB
02
01
FF
F8
00
00
00
FB
00
03
00
00
01
00
03
01
06
00
08
08
FF
00
F4
FE
00
02
02
FC
06
01
02
06
FF
FF
02
05
F6
01
02
FD
02
01
01
00
F4
F1
04
F2
03
F9
FE
E7
03
03
FE
03
02
F0
03
F8
F8
FB
F8
F5
01
00
04
F2
FD
ED
FF
02
FB
00
F4
0A
FF
F7
08
FE
F8
01
03
0B
00
F4
EC
F5
FA
FF
F9
00
FF
0E
05
F2
0A
00
FE
07
03
F8
01
08
FB
02
FD
DA
F9
FD
03
0C
FF
04
E9
00
ED
01
EE
D5
FD
FD
01
F6
02
00
02
F7
F2
FC
FD
F9
FD
FE
FB
F4
FD
FC
00
F8
05
FE
FA
02
04
09
04
01
F5
EC
F8
01
00
07
F1
FC
02
01
FE
FC
0A
03
04
FB
00
00
F6
00
FD
EF
F2
00
FD
FC
00
FF
FA
FF
E8
09
00
01
F9
FF
F3
FD
01
06
DF
02
FF
00
01
03
FD
00
00
FE
F6
F5
00
00
EF
03
FA
0C
00
09
00
FB
CA
06
FD
03
08
FE
00
03
03
FD
FD
F5
00
01
F0
F7
00
F7
FE
E5
FB
05
02
09
01
0A
EB
02
FD
01
FD
FE
09
01
FC
EB
07
F5
00
FB
FB
02
F8
EF
FC
FD
F8
FE
F7
F8
04
00
01
FB
F9
06
01
04
FF
D7
00
F3
03
01
FE
00
09
00
06
FE
FD
F5
FA
FE
02
02
F9
F5
FE
F2
F9
FD
00
FE
01
FF
FB
00
FF
F9
04
FD
FC
1D
06
FF
02
13
FE
09
0D
EF
12
04
01
13
03
FF
04
00
0D
00
0B
07
F8
02
02
06
05
FE
EB
1A
04
FA
07
0D
0E
FA
03
FB
F6
FB
0D
08
F5
00
02
16
FE
FF
03
05
05
03
FE
FF
E5
0A
FE
EE
08
09
11
FE
00
04
02
0A
0D
FF
FA
F5
FB
FB
FC
05
02
06
03
05
0D
05
08
0D
0C
08
12
02
14
F6
13
FE
FD
03
F4
01
F3
00
03
F3
F0
FD
FD
03
16
0F
F2
06
FE
02
11
06
00
03
FB
00
00
00
F9
03
E8
08
F5
F6
01
0B
FA
EB
05
01
F9
02
FE
FC
02
0A
03
0E
FF
0C
FC
0D
FF
0F
F9
06
03
F4
05
F5
01
F6
F8
02
04
FC
FE
06
0B
D6
04
FF
14
FC
07
02
11
F3
13
05
02
00
F9
FA
FB
03
03
00
FF
FF
02
01
FE
04
05
09
03
FD
F5
FE
FE
0F
F1
0A
04
FC
05
03
2F
09
01
04
09
FB
08
04
F7
FC
0C
FA
00
FF
01
08
01
06
06
F8
02
00
0E
06
F2
FA
06
0C
04
FE
F4
06
FF
F1
0C
F9
03
05
03
04
F4
01
F9
03
00
FF
00
14
02
F6
01
01
06
F6
FF
FF
FE
FF
02
05
05
04
01
FF
F8
00
FC
FD
FF
06
02
09
FC
0E
01
FD
FE
03
F9
02
00
01
FF
00
01
00
00
03
02
05
01
03
01
03
03
06
01
00
FE
02
03
01
FC
FB
E2
09
04
01
06
F8
01
02
03
02
FE
FE
FE
00
00
02
08
00
0B
06
04
01
FD
FF
01
FF
07
02
02
04
FF
01
04
02
01
04
01
FF
FF
FD
EE
04
FD
00
0B
FD
01
0A
FC
01
FE
01
FC
01
02
06
FD
01
03
00
01
01
FF
FC
FD
FC
05
FF
FE
03
FF
FD
02
F3
00
01
FF
FE
00
FF
FE
FD
04
00
00
FC
00
FD
01
03
01
03
01
01
FF
04
06
0C
00
01
02
FF
FD
00
00
FE
FE
FA
FE
00
0B
FC
F8
00
FA
09
0A
04
01
00
FF
FF
04
FF
01
03
F5
03
01
01
02
FC
05
04
FE
03
EB
02
03
02
04
00
F8
03
FF
FF
FF
FC
F9
FF
01
00
FC
FE
00
FE
FD
04
EC
01
06
FE
04
01
FD
FA
02
03
00
02
FE
00
0A
00
01
07
FD
FE
01
00
FB
02
07
FE
FE
F7
F9
FE
FC
00
01
00
01
01
03
01
FE
00
15
F9
01
FB
FF
FD
00
FB
07
0F
00
FC
FC
FE
01
FF
FF
F9
02
FF
08
03
02
F1
FC
FE
F5
00
FF
09
FD
04
FE
06
05
04
FF
03
03
FA
02
FC
02
0A
01
F4
05
FD
00
00
02
FC
FF
FB
03
06
02
06
0A
FE
FA
FA
03
06
05
0C
03
05
02
04
FC
05
05
FE
F5
02
FF
03
FD
01
0E
01
FC
01
F9
01
02
F4
F9
FF
05
F8
FF
02
F0
00
0A
F8
0C
F9
01
03
EB
00
FD
FF
01
FD
02
FA
05
01
02
04
FC
0D
F2
04
F7
09
01
03
01
06
FA
0B
0E
0D
03
FC
00
02
14
FB
F9
FA
01
00
00
0F
04
02
02
EF
FC
12
FF
FF
00
F7
00
FB
0A
FD
00
F2
FC
FF
01
FF
02
01
08
03
03
02
06
01
03
F1
FD
FF
FD
0A
04
02
02
FF
06
0E
01
0A
08
0A
FF
02
00
E9
00
02
05
0A
FA
03
01
04
FE
FC
05
02
FE
FA
0B
04
03
03
01
06
01
03
FF
FC
FC
19
01
02
FF
10
FB
00
05
01
FD
F8
FF
00
01
FB
FD
00
12
FD
FF
F3
00
0B
00
02
FE
FE
00
FE
FC
02
02
FF
F3
04
16
02
FA
FE
F7
07
07
FB
07
02
FE
01
05
12
FD
FB
ED
00
F9
07
05
F2
00
F9
FC
04
0E
04
01
11
EF
04
FE
0A
FE
FF
12
FD
05
05
04
FA
03
FF
FF
FC
FF
0D
03
02
09
0D
F9
03
02
04
00
FF
E2
0E
F4
01
FC
05
02
F3
FF
06
05
FB
07
F0
11
F2
10
09
DE
FD
00
00
07
FD
08
0B
FF
02
EF
04
FD
01
0C
02
FA
FD
FC
FB
FC
0A
E9
06
FF
09
07
08
EC
05
04
FD
FC
F5
04
FB
08
07
CF
15
F9
FE
F7
FC
00
FD
03
FF
04
E2
0D
FF
0B
0B
FC
0A
07
FA
0F
FA
FA
0A
15
08
FE
F8
FE
06
09
01
00
FA
FA
0A
FA
F0
03
F6
FF
FE
02
FC
F8
FF
06
04
F0
02
01
FC
03
F5
EF
0E
FA
EE
FC
FA
F8
03
03
01
01
FE
FB
FE
FC
0A
01
00
F8
F7
FF
F5
F0
F6
CF
03
13
15
00
EB
07
FA
FE
00
08
FC
FE
F7
08
FE
FE
00
F9
F7
F7
F4
FA
EF
00
06
FB
F8
07
07
02
F7
FF
F8
FB
FD
FB
11
FC
FD
F7
0B
FB
01
EA
F4
00
00
FE
01
EC
FB
BA
FD
F3
FE
00
F7
F9
FC
03
E7
F9
F4
02
08
0B
FA
0A
F5
F5
01
FC
FA
02
08
F6
00
FC
F9
FB
FB
05
02
FB
04
01
FA
00
00
FE
FE
F5
FA
FD
F6
0C
FE
08
FD
06
08
F7
FB
FB
F7
02
F6
00
01
FA
F5
08
FF
05
04
F9
FC
02
06
03
00
08
FE
FB
05
00
04
00
ED
F7
18
02
F0
F9
FF
FB
FC
04
FD
0A
05
0A
FD
FF
EB
05
0F
FD
F4
FD
07
FD
FF
FE
05
ED
07
FB
0A
F5
08
08
00
04
FF
F6
01
01
03
FF
00
05
04
04
EF
F7
00
10
04
FF
FE
EA
12
05
FE
FC
FE
06
01
2A
FC
01
FA
11
FD
02
01
0D
F9
F8
F9
0E
0E
FC
FA
00
05
FD
04
FF
FE
FF
04
02
FA
FD
FF
08
00
03
07
00
03
04
03
0B
04
07
FC
00
FB
FB
05
F9
17
0A
FD
00
FD
E9
F7
00
FE
00
F9
FD
F9
E5
03
07
FF
FD
FB
FD
05
0A
07
FA
08
FF
04
07
09
FC
FF
FD
05
F7
FB
05
0B
0A
FE
11
08
08
0A
01
FC
0B
0C
FD
01
FD
00
FD
01
01
10
FD
F6
FA
FE
FB
04
FD
2B
04
FF
04
04
FF
FB
FF
FB
11
04
09
FE
00
FD
00
01
0C
3B
F8
11
FF
0C
FF
F7
01
00
01
FB
01
00
F9
00
00
01
00
FB
06
04
01
F5
F9
05
00
FC
FF
FF
01
00
41
03
27
FF
F9
FD
FD
02
04
FF
01
FF
FE
00
06
03
01
FE
00
F5
03
FC
FD
04
F7
F7
03
FE
FF
03
03
00
00
FE
00
FF
00
FE
EF
FC
FC
05
0C
03
FE
E7
FF
03
06
05
04
F9
F7
03
FD
FF
03
06
02
F4
01
00
00
FF
01
FE
FB
00
00
07
F0
00
06
03
02
00
01
03
00
05
00
FC
02
F9
FC
04
02
0C
FD
00
FE
FE
F4
FD
08
14
01
01
09
FB
00
00
00
FF
EC
02
00
02
F8
FD
FD
00
FE
FF
01
FF
F9
03
FF
FF
F3
08
F0
04
FF
05
0E
FE
FF
08
03
F5
FD
03
F2
FF
00
F6
02
00
09
02
FE
FF
01
FF
00
FB
01
FF
08
03
F2
FF
FB
00
F5
FE
01
04
FB
06
03
FF
FC
FA
FF
03
00
02
05
FF
FE
00
02
FF
FE
00
FC
01
00
08
FB
02
FB
F8
03
05
FE
02
FE
05
00
FE
FB
F7
09
F9
00
FA
1D
FC
FD
07
00
01
FC
01
FB
FC
01
00
F9
02
FC
FF
FF
07
FE
FB
04
00
01
01
FF
01
05
01
FF
FF
03
03
FF
FE
19
FF
02
FD
FB
FD
01
03
FE
F6
00
04
12
FB
00
FC
F5
02
16
00
05
EF
00
FD
0D
F7
13
05
18
0B
03
1A
FA
00
FD
FA
0E
1A
01
13
F6
07
15
14
0D
F7
E1
FC
FD
04
05
FF
F7
02
1D
FD
13
FF
06
14
F7
FA
08
07
F5
FA
FD
01
15
FF
06
05
35
1E
06
00
10
05
FE
FC
0B
0A
FF
FE
2C
11
13
F7
F9
01
E1
03
FE
12
32
F7
09
F5
1A
01
FE
F8
04
05
EB
00
DE
03
FF
FE
1B
04
15
EA
03
13
FC
FE
06
FF
FB
0A
00
12
FE
F3
06
02
00
F9
FA
F7
1B
11
00
01
F4
10
E7
F1
F5
0C
02
E7
06
FC
01
02
E0
01
F7
FD
04
15
03
0A
F3
10
FC
EF
FB
1A
05
03
0F
FE
F7
04
07
F8
08
00
FD
FC
09
07
06
01
0B
08
FF
F8
01
DF
13
02
13
FF
0F
FE
FF
29
1E
05
01
FB
03
F8
11
FF
F8
FD
0B
FF
10
FB
0D
05
08
07
F7
FA
FA
0B
E8
28
FF
03
EF
03
10
0A
02
00
D7
14
07
00
0E
23
04
0D
17
FE
06
05
04
03
03
FF
FD
0E
05
FD
FD
06
09
0F
FB
F4
13
10
F9
E5
F2
FC
F4
07
FE
03
07
0C
F7
02
EC
04
0E
04
FF
04
FD
02
00
F6
00
08
FD
01
0D
01
06
03
1C
FE
07
ED
FD
04
F7
06
12
05
16
F5
08
FD
07
0B
0A
0A
E5
FC
FA
01
00
00
00
FD
F9
1B
F5
FD
09
FA
07
03
02
08
03
F6
FE
00
0F
00
F8
13
F8
01
FC
FB
00
FD
07
0A
F5
FD
11
00
0B
FB
06
FE
04
07
0B
07
05
08
FD
08
02
F8
F4
FB
F0
09
04
FF
FB
FE
FB
FD
03
08
0B
F7
FF
FD
0E
04
00
FE
FA
00
06
10
FD
E6
FC
04
FE
14
F9
F9
01
EE
EA
10
15
06
FB
F9
06
04
F4
E7
FF
02
02
0A
FC
FE
FF
FC
EE
01
F1
FF
FC
EE
F7
FD
FB
07
08
01
F8
04
FE
0E
0D
06
FF
FB
03
03
FF
06
F8
08
EA
FD
04
08
FC
0E
03
FF
09
F8
0D
02
FC
04
03
03
01
FB
11
02
FA
0F
F6
E6
02
FE
FE
F1
00
02
04
04
02
E5
F9
FD
FF
0D
F8
FE
F7
04
08
F9
FF
F3
09
00
FE
01
FF
02
01
FE
FD
FC
FB
FF
05
FE
0F
F7
05
03
04
E9
08
FE
01
F8
FD
03
10
FE
FF
02
08
F6
09
FD
F7
FF
FF
FA
FF
EF
0A
FD
FD
FB
FA
08
02
01
FE
03
02
05
05
09
02
02
EF
02
02
0D
09
01
FB
F8
03
FD
FF
FC
05
F9
FA
00
03
FA
05
02
00
03
01
0B
03
05
00
FC
00
FE
F8
FF
FF
01
00
01
00
0B
FB
FC
01
00
F5
FF
01
FD
07
04
00
03
00
F9
00
FD
04
01
01
04
03
F9
0A
0B
FE
FF
03
FE
14
FC
03
FE
00
04
FC
00
FF
03
FD
FB
02
F9
FD
06
00
FB
00
FC
F8
07
07
00
00
0A
07
04
05
FF
02
01
F6
FA
F5
FF
EF
02
FF
FE
09
09
01
05
09
02
08
FA
01
FA
03
02
F6
0E
08
FE
FF
00
02
00
F9
00
09
FE
00
06
10
F8
03
01
F9
FF
FF
F5
04
01
FF
FE
FC
00
02
FE
01
FF
01
01
03
F6
01
01
F7
04
01
01
02
FE
01
F9
FE
06
FF
FC
00
00
06
FB
FC
F6
02
FF
01
0A
00
F9
FF
FB
01
20
0F
FB
DA
05
FA
FF
00
01
FA
FD
00
FE
06
FC
08
F9
F9
FC
03
08
01
02
FD
FF
FD
06
FF
FD
03
00
00
F9
04
06
FF
EC
FF
FD
F6
02
01
FF
08
FD
FF
FF
FD
FC
02
04
0A
01
02
FF
EE
F7
03
00
1E
FB
01
01
FF
FF
02
10
FF
FF
FF
02
FC
FF
FA
FF
FB
F9
01
F0
FC
02
F6
07
FE
01
01
FD
04
02
12
FD
05
05
01
FD
09
DD
FF
FC
09
F0
0C
02
03
FC
FD
FA
FF
FD
00
FE
02
FD
03
F2
02
03
F9
09
00
03
EE
ED
09
06
F6
FE
00
FF
03
01
01
F8
FB
F5
FE
E9
EC
F7
04
08
FD
F4
FC
05
09
04
1A
FF
F4
FF
0A
05
01
02
FE
F2
02
FF
ED
01
FE
E2
FF
FF
03
F7
04
FF
08
00
FD
08
FC
01
03
F6
F5
09
02
FB
02
FE
F5
FF
FE
00
00
FC
15
F7
FF
FC
FD
04
09
FC
FC
F1
FF
04
F1
FF
00
FA
01
01
FD
09
01
F7
E8
09
03
01
FD
F5
05
03
09
04
F9
01
F7
06
0B
01
03
FE
F8
03
23
01
03
FE
02
00
FF
F8
01
FF
F8
FA
FB
02
04
02
12
05
02
02
FE
F4
FC
FF
F4
E5
20
FF
00
09
01
03
0E
FF
03
02
09
FC
00
02
EE
FD
F2
FC
38
F1
FD
15
07
EF
F9
09
01
FA
F6
01
FA
FE
00
F7
F4
0B
E4
02
13
01
00
02
FE
F5
FF
04
02
00
0E
01
FF
04
FC
FE
F5
03
FC
0D
FD
FC
03
FD
FB
FE
FF
04
05
FC
07
F0
FE
00
FF
F3
04
06
FC
FE
FF
03
00
1E
FB
F9
04
05
0C
01
00
05
FF
F7
00
FE
02
FA
05
F8
02
05
FB
FC
01
F3
FD
01
F6
F0
01
FB
0A
00
04
00
FE
FA
F9
FA
FA
07
FC
03
04
FE
FE
03
01
FD
00
00
FC
EC
00
FD
02
FF
08
FE
F5
FF
FC
FF
0C
08
FB
00
02
FE
01
FB
FD
02
02
FD
FE
05
F9
F3
FE
F6
F3
FC
02
FD
01
FB
04
02
01
F6
FE
FD
FB
00
FB
ED
00
00
01
01
06
FC
FC
05
0D
0A
FA
FE
03
05
F7
F8
00
05
01
00
01
02
F4
04
FC
FE
03
F5
FA
E8
01
02
FE
F4
FF
09
FD
00
FE
01
09
FB
06
02
04
04
01
04
02
F8
FC
FC
FC
05
00
F3
FA
FE
05
FF
01
06
02
00
00
FC
F9
FF
FE
06
FC
FA
F8
01
00
F2
01
FC
07
F0
FD
F8
FF
FA
FB
F6
04
FB
03
03
FB
FB
FC
00
FB
02
03
0B
01
FD
FC
FB
05
FF
02
03
00
09
F9
00
06
FE
02
FD
01
02
00
03
04
FD
FB
FF
01
FA
F9
01
00
02
02
04
FB
F9
FA
03
F9
FD
FF
00
03
FC
02
01
01
FC
E6
FB
03
FD
03
0E
00
F5
FF
1C
F0
FE
FA
06
FB
FC
07
FD
03
F3
F2
F4
07
F8
FA
FA
11
FA
05
FB
EA
11
02
FE
04
06
01
03
FC
F8
FD
F4
E0
14
F3
0F
FC
08
FD
F6
F5
F3
00
0A
FD
FC
FF
01
04
FF
FA
F1
F4
06
02
FF
01
0A
07
F8
09
01
FB
FF
05
FC
F6
FE
01
FD
FF
FF
F9
02
0E
F9
15
F7
F7
06
F1
FC
0F
00
01
04
04
02
E6
FA
FE
F9
FA
FC
F0
FA
ED
F1
01
EB
EE
00
FC
FC
F9
FF
EF
F4
F6
FB
1A
04
07
08
FD
FD
E3
02
F6
F8
FD
FE
FC
FA
0D
FC
F9
FB
0F
04
07
FB
FB
FB
FD
00
FB
07
FC
01
F4
FA
F3
09
FE
1D
FA
FE
FF
FF
F0
FE
F3
25
06
FD
08
FE
07
F7
02
F8
04
FF
FC
FA
E0
05
06
06
FD
FF
F5
DC
07
10
0C
F3
F1
FD
F5
F9
FD
09
E6
05
F7
FE
F3
F6
00
08
F6
02
F6
F2
ED
E6
07
05
FE
F5
00
FC
FD
0A
0F
09
FE
05
F8
01
FC
0A
DE
FB
F0
08
F8
FA
00
FE
04
F2
F6
13
0B
E5
17
F0
FF
07
08
07
00
F6
D9
13
F9
F8
05
01
11
01
02
07
2B
03
00
12
E9
09
07
07
F8
FB
FF
F3
02
02
FC
FE
02
07
F7
F6
05
F6
00
F8
00
F3
15
06
FE
FD
EF
F8
F6
FD
03
06
05
F2
FF
F8
F3
00
07
F1
0F
04
0C
08
F6
05
F5
FB
05
F5
FE
16
EC
07
EA
F2
20
04
F8
F6
F3
FF
02
0C
FE
15
E8
0B
03
03
F3
FF
06
FA
08
00
F9
04
14
01
08
FA
F2
F5
1F
FF
05
09
FD
02
F6
07
E4
06
06
01
04
1D
FD
FB
04
05
F8
0E
03
04
00
06
FE
FC
03
0F
F2
F9
11
0E
FA
FC
F8
FF
07
F2
EC
FA
0A
05
0B
FF
17
01
F4
FD
00
08
F1
0D
00
07
01
FB
FB
FF
F6
02
F7
F5
02
F2
01
F6
FC
F2
FE
FE
03
F5
11
1C
FD
FB
07
FA
D0
14
01
FD
F7
00
05
00
03
03
3B
F7
D7
F2
0D
01
0A
0C
FB
FB
1C
15
FD
FF
09
08
01
F5
FB
FD
1E
10
29
01
06
E6
0D
FE
0C
04
11
05
F2
0A
FD
EF
0C
F8
FD
EF
FA
E4
08
FD
F9
FD
00
EC
03
05
1A
FD
15
03
FA
EB
03
03
0A
F1
F8
1A
FD
0C
00
01
FE
FB
FE
14
F9
03
F9
04
ED
F7
F5
D8
FB
F2
FD
FC
08
F2
FC
FE
03
0E
FB
FD
0E
1D
FD
0B
0D
FD
FE
0C
F7
07
04
F8
F9
07
F9
EF
FE
F6
06
FD
FF
FC
F8
F8
00
FD
06
FF
01
03
FC
FC
03
F3
FE
FC
F9
FF
F6
05
0B
01
FE
0E
04
FB
F9
F2
FB
0B
F3
0B
05
FE
FB
0C
FC
FC
05
EC
FC
01
00
01
FA
FF
EF
16
D9
0D
01
09
FA
FD
FC
F3
FB
FD
FE
FB
FD
00
F8
00
03
03
03
F7
D4
FB
FB
FB
03
F4
03
FC
FC
00
FC
06
00
FA
02
0D
08
FA
01
F5
FF
FC
F6
F8
F4
05
FC
FF
00
F5
01
FD
EE
FC
FE
FA
0C
FE
00
00
FE
FE
FA
FC
F9
F2
01
09
08
EA
FB
01
FB
F1
FA
F2
FB
F6
FF
FC
FB
05
FC
F9
01
FB
FA
FC
F3
01
00
0D
00
FB
F5
FE
F5
F1
E7
02
08
FE
F9
06
00
00
01
FC
EC
F8
05
FA
F2
FA
FC
05
08
F9
06
09
F9
FD
02
04
FB
FE
F5
F4
07
FA
FA
F1
FF
ED
F2
08
01
02
FE
1C
FF
F8
FB
F4
02
04
05
00
00
EA
07
00
FE
F9
FB
FB
FE
07
FC
F0
FD
08
FC
FF
FE
FE
02
0B
F8
F6
FE
F9
0C
FB
F7
FF
0A
00
FE
09
00
06
F6
FA
FE
02
03
01
FC
FC
F1
FA
08
00
F9
01
FB
06
FB
00
F7
FF
04
FF
03
01
FE
FA
FD
01
F6
F8
FD
02
00
03
00
03
01
04
01
F9
03
00
04
00
0F
F2
0B
F9
FE
F9
FB
FE
03
00
FB
F2
07
FC
00
0A
04
FD
FA
F8
FB
F4
FA
FF
01
03
02
04
FB
F8
09
FB
01
FE
03
FA
FF
FD
F0
04
07
FA
FD
FD
00
09
02
F0
F3
06
01
F6
03
05
05
FE
01
F7
FC
F9
01
FA
FE
02
F9
F8
FF
FE
FC
FE
0A
FD
FD
FA
01
02
FF
04
FF
FE
FE
03
06
01
01
FA
FD
FE
05
01
00
09
02
0D
FA
04
08
01
00
FD
02
00
01
00
00
01
FE
00
02
F0
FA
FC
FC
F3
08
01
05
05
07
02
FF
00
FF
FD
02
FB
FF
0B
00
00
EE
FE
FA
FE
FA
F8
FF
FD
02
04
FF
0D
07
02
02
FA
07
FE
09
FA
09
FF
02
01
FF
FD
FA
0C
03
FC
EB
05
FC
FB
04
00
04
F5
04
F9
00
FF
03
02
03
FD
00
05
01
FD
00
07
F8
04
FD
02
03
EF
02
00
FC
FF
07
03
FB
F4
F9
00
FC
FE
02
04
F7
03
F7
FF
FA
FD
09
FB
FE
09
FD
FA
FE
0B
03
08
EC
19
F8
04
0B
F8
00
FA
0B
1A
F1
09
0D
F7
08
05
FB
FE
0B
10
D4
FD
04
FB
F8
06
FA
01
05
02
1E
01
FE
FE
FE
04
FD
07
0D
F6
0D
FE
FE
F3
06
FC
E8
F9
FB
FC
F7
06
04
FE
03
0B
FA
01
07
FE
02
08
DD
FB
17
FF
04
08
09
F5
04
02
01
F6
00
FC
FD
04
01
EC
03
04
1C
FF
11
06
10
F9
FB
F8
F8
DE
03
08
F5
00
0D
FF
00
06
FD
F9
F0
F8
05
15
07
FA
F8
03
F5
FF
1C
07
FC
0A
09
F9
FB
F4
FE
FE
0B
F0
01
FD
F8
FC
09
FA
FD
05
FB
FC
03
03
F7
12
0E
06
FE
F3
E7
FD
04
0B
F4
F7
F6
FB
FD
0B
06
FB
02
06
0A
08
0C
FE
09
FA
E1
00
E8
04
FC
09
F8
0A
FF
03
F8
FB
02
00
EE
03
FE
07
F8
F4
FA
0E
F5
09
FA
0E
FE
F3
09
1C
FE
FD
07
03
F8
FC
05
F4
F8
EF
EC
00
00
04
FC
08
03
EB
F8
08
04
07
FE
F9
F7
06
FF
FD
01
FA
FE
03
05
09
0B
08
1C
FF
F9
FE
E9
FE
00
01
06
14
05
FC
06
EB
03
0B
0B
EF
04
04
FF
FB
04
02
FF
01
03
01
03
F3
F4
09
FC
FB
02
05
F0
08
01
FE
FE
08
02
00
01
02
EF
03
F9
ED
FA
FD
F7
FB
FF
FE
FA
03
0C
01
01
01
FE
03
FD
ED
F7
05
FC
00
01
00
01
FB
FD
00
05
FF
FD
07
FA
02
F4
E8
FF
07
FB
ED
FB
05
FF
FE
00
FC
FA
01
FF
FD
F8
F1
E7
02
F8
02
F9
FE
05
03
F5
FE
ED
08
F6
F1
01
07
00
00
05
FD
F6
EF
01
FC
EF
04
03
F8
00
05
02
05
F6
FB
FF
FE
04
06
04
F2
FD
01
FE
00
FF
FF
FB
F5
06
04
03
FF
02
FC
FA
FD
F6
FA
02
07
F8
00
00
F6
00
FE
00
F8
02
00
FB
00
FC
FF
00
04
FD
F7
F9
FA
FA
FF
FF
00
FF
06
02
FF
EC
07
FC
02
F8
FD
FF
FD
04
08
06
FB
01
05
02
FF
08
01
E0
02
E2
06
ED
FA
F2
05
01
05
FA
01
07
EE
07
FB
02
FC
09
FC
FE
F3
FD
09
05
02
FC
F9
FE
E2
00
FA
02
F9
02
F5
FA
05
FD
01
FE
FC
F9
01
04
02
06
03
FE
02
F7
04
E7
03
FF
00
F7
FD
FA
F7
00
02
01
07
FE
00
F6
FE
15
02
FD
00
00
01
17
0A
FE
00
FB
00
07
F8
02
FF
04
08
03
0F
FD
FE
00
E6
17
06
07
10
0D
0A
EF
04
0D
03
02
04
0A
FC
18
07
00
FF
08
03
0D
FF
11
21
F5
03
F9
03
F5
F0
FE
01
03
07
FF
FC
05
21
FD
02
06
09
F5
02
FE
05
02
05
08
0D
FA
0B
F9
04
F2
F8
09
12
27
FB
FE
FE
FF
F8
13
FC
FA
FC
09
06
19
0F
06
FD
15
FD
0B
18
08
01
05
0D
00
02
F5
0F
00
03
02
F8
FD
06
F8
02
15
F4
FB
01
08
05
01
08
FF
00
EA
0B
0E
02
FF
FC
01
03
FD
0B
03
FD
FF
07
06
F9
10
15
0E
05
FD
FD
00
10
12
FC
04
0A
04
00
FE
03
FB
FD
04
FC
F9
08
00
FE
04
00
FD
FC
FD
05
09
05
06
00
01
FF
FF
00
06
08
FE
FE
F4
07
0E
FE
06
00
0B
FE
09
00
08
FF
02
05
FD
FF
03
18
FA
0C
05
FA
00
06
10
07
FB
01
02
F6
02
02
1E
FF
02
05
02
FA
06
FB
1B
01
12
0B
00
FD
FD
03
F9
03
03
FD
FB
0F
FC
FD
FB
FE
FC
16
04
FB
00
0F
00
02
02
04
08
07
0E
04
05
FA
F2
02
01
FE
06
00
FB
01
09
EB
02
00
00
05
02
1A
F2
00
00
E8
FA
03
FF
0C
FE
03
05
04
00
01
01
F5
1E
FB
11
00
F3
03
30
FA
FF
EE
FC
FE
0D
03
06
00
F4
E5
DC
0F
EA
21
0E
FF
35
09
07
03
FD
FD
EF
FD
F9
FB
04
00
05
05
F6
FC
00
FF
05
F4
FF
FE
0F
F8
07
0E
F8
00
13
FA
FE
07
07
0B
F9
FF
F5
0E
00
F3
03
05
08
FC
05
FF
FC
F1
F9
13
E8
06
12
FB
06
F3
F9
08
F8
0B
EB
02
00
08
05
F2
13
F5
09
FB
F5
07
FD
FA
12
0B
F7
09
FD
02
FE
0C
13
FB
02
03
00
FC
00
05
17
01
03
F0
0F
04
F2
FE
03
FB
0D
E8
06
FB
09
05
06
01
FD
24
00
05
F8
02
0D
FE
0E
F0
F8
E8
17
0C
08
FD
01
FE
0B
06
FA
04
06
02
10
FB
0C
0B
0E
02
11
07
03
02
F5
06
F9
FE
FE
11
EE
F9
F3
F4
0C
FE
03
FC
FF
02
FC
00
08
04
04
01
05
07
F7
02
FE
FD
05
FE
FC
02
FA
F9
FB
12
0A
0F
0D
FC
E3
08
EE
0B
0E
00
03
0C
FF
FD
08
07
01
0E
FF
03
F9
FE
01
FD
FE
FD
06
01
FA
01
09
02
02
FE
02
07
FD
FC
FD
05
03
04
0B
02
01
FB
00
17
05
FF
FE
FB
F2
0E
FE
02
FF
05
FC
01
03
02
00
FD
FE
04
0F
FC
06
F0
FC
01
08
21
03
FE
00
02
FF
03
07
02
FD
02
FE
0D
FA
04
01
03
FD
03
02
01
00
F9
0C
09
09
01
FC
F9
04
01
FB
00
02
FF
06
FF
FC
FD
ED
04
01
FB
FE
FE
03
02
F8
06
FB
FC
0A
02
F7
06
F8
FF
FA
0D
04
02
FD
01
00
F6
FE
06
FC
FD
FE
05
FB
04
01
00
03
05
26
05
FB
FA
F7
FE
FE
F6
FC
04
FD
06
02
04
FF
FC
FF
03
FE
FB
03
00
0D
FE
FE
06
05
09
FB
FC
FF
03
FD
0D
FD
F3
FF
FF
FD
FF
FF
01
01
04
00
FC
FF
08
05
05
F9
00
01
F7
01
FF
02
0B
03
FC
00
02
FA
FD
03
FF
02
FC
02
FB
FF
01
03
FF
0E
0A
FF
06
00
FE
06
04
05
02
FE
04
01
0B
07
FD
FB
06
03
03
FF
FD
00
FF
01
FA
E0
00
FE
01
00
FF
04
02
FB
01
FE
FD
F7
02
04
FE
04
03
01
FD
F7
0C
01
FB
01
FC
01
00
FC
0D
05
01
01
F6
FC
FF
05
06
FD
FD
08
14
0D
FD
00
02
07
FD
00
01
FA
F5
02
FB
03
03
FF
00
02
F0
01
FF
07
FD
01
00
00
F8
FF
F6
F8
F5
05
06
16
0E
FC
FB
F3
F9
01
00
FE
08
01
FB
FF
FC
09
02
F8
FC
01
01
02
03
03
02
03
05
FF
03
01
03
01
FD
09
F8
FF
FD
F2
F7
0A
FD
01
01
02
08
FB
FE
01
F7
03
FD
0A
F8
03
06
0D
0B
01
FE
F6
04
FF
07
01
FC
02
FF
FE
FD
05
FA
FB
06
06
00
05
FE
00
FA
04
FE
F8
21
FD
FB
00
0B
F9
FE
00
01
FD
08
03
03
FD
F9
01
F6
01
03
FE
0D
04
05
F3
FD
07
05
03
FB
0C
07
07
00
03
02
02
EF
02
FC
04
0E
02
07
02
02
01
01
FE
DC
FB
08
FC
06
01
FF
FD
06
FF
02
05
FF
FB
F9
0B
08
02
02
FF
03
F9
06
02
01
F7
06
FE
04
FD
FA
03
FD
FF
FE
13
FA
F8
FF
00
01
01
05
0B
FC
03
FB
00
0B
FF
F8
07
06
FF
02
06
FC
FB
02
F9
01
01
F3
FD
01
F5
00
00
FA
FF
FA
FF
FF
01
FA
FE
FA
FF
01
FA
FB
FB
03
01
01
04
FB
F8
F5
0B
08
06
FD
04
FD
FE
FF
EA
06
06
FC
02
FC
09
FB
00
FF
02
06
00
F9
FE
FA
00
FC
01
FF
F8
04
0E
F7
01
00
0D
06
02
FB
00
FB
FB
F8
FA
00
F8
02
FE
FF
03
01
05
FC
03
00
00
F5
00
00
08
04
03
08
FA
F7
01
06
01
06
FB
01
FF
FD
04
FA
FD
05
FD
FC
06
03
F9
FB
F8
01
FB
FC
07
FD
00
03
04
01
FD
0C
FE
FB
FE
03
FF
03
01
00
03
03
FA
F6
03
00
02
0C
FC
FB
00
01
FF
07
FB
05
02
00
08
FF
F8
06
FF
00
FE
FC
00
00
05
05
00
F2
03
EE
FB
03
FE
09
06
F6
02
FD
03
06
F9
02
FF
FF
03
FD
01
05
02
FA
FF
03
05
FA
03
01
01
06
03
F0
FA
05
F9
06
FF
FE
FD
F9
0B
03
F1
01
FF
05
FD
FC
FC
F4
FE
01
01
FF
04
00
FB
FE
FA
04
06
07
01
00
F0
01
02
01
05
FE
00
0A
0C
FF
05
FA
02
00
06
00
05
02
02
00
06
FA
FE
01
04
01
FE
04
00
FD
06
FE
FC
FC
01
00
04
00
00
00
FD
F8
F9
07
00
07
EB
04
00
00
04
FD
04
02
FC
00
FD
00
05
00
FF
03
F9
02
FD
F9
00
01
03
01
FA
F7
FC
FF
FB
FF
FD
FC
FB
01
00
00
01
01
FB
FD
04
FF
FF
01
F5
02
02
01
F6
04
FA
03
00
01
FF
F8
01
FF
FF
01
FA
F6
00
FE
01
02
FE
01
FB
FA
00
03
FA
FA
00
00
00
00
FE
03
FA
FF
05
00
FF
00
03
00
FE
FD
FA
F9
00
FF
0C
00
01
FD
EC
01
FF
05
0D
03
03
04
04
01
00
FB
FE
F6
01
FD
FD
01
03
FE
FC
00
FF
FE
FD
06
F9
04
FE
FF
FD
FA
FC
F4
FD
01
02
FF
FC
F9
04
03
00
FF
FE
06
05
FB
FF
02
01
F9
01
06
FE
FF
01
03
00
FF
FF
FC
03
07
F2
01
05
FF
FA
09
02
FF
F8
01
00
F9
F4
F8
F7
00
01
FE
FF
FC
01
FD
FF
01
FE
01
F5
02
03
00
F1
FE
F1
FD
02
FE
F6
02
04
FF
F7
02
00
FA
08
02
01
FF
FD
02
02
FD
FA
00
FB
FF
F9
FD
02
FB
FC
FC
F4
FB
FA
FE
01
F5
00
02
04
FE
FF
FC
01
F5
FF
F6
03
FF
00
00
FE
F8
01
02
FC
F7
01
00
FD
F7
FF
FF
00
F6
02
02
FD
00
11
00
09
FE
03
FB
00
F8
0C
03
0E
F4
05
0F
FD
FE
FF
02
FB
FB
FC
FF
01
05
FF
06
01
01
02
FC
00
01
04
05
F8
00
05
FE
02
FE
02
00
FB
FA
0B
F5
F7
03
01
FB
FE
02
FF
03
0E
05
02
03
05
02
FA
FB
FB
FB
08
FC
06
14
FE
01
08
FE
FE
07
03
FE
03
F7
FD
03
F9
01
FD
FB
06
F9
FD
10
05
00
03
F5
06
F9
F8
02
FB
FF
F3
FA
03
05
FC
08
FD
FF
FF
FD
03
FF
FB
FE
FC
F9
F7
02
02
FD
FC
FC
FB
03
FE
01
FE
F5
03
F9
02
03
FC
FF
07
FE
FA
FC
02
00
FD
0A
FD
FF
FD
FD
FE
07
07
FE
01
05
00
F9
F4
00
FC
F6
05
1E
FE
FA
FC
09
00
06
04
F5
02
FF
FE
03
07
FD
02
F0
03
0D
FA
04
01
FC
05
FB
03
F7
01
FC
02
FE
FB
FB
05
03
01
FC
02
01
FF
0E
00
02
FB
0A
09
FF
FE
07
FF
02
00
03
07
03
FD
02
10
FD
05
05
01
F3
0C
07
02
00
F9
FF
F5
04
01
07
FB
FD
0B
09
02
FC
FE
00
FE
01
02
FC
FE
00
FF
06
F6
03
05
08
14
FF
00
FC
04
00
FF
04
01
FA
FB
F5
03
F7
06
EC
00
FF
04
17
F0
07
FB
FF
06
01
FD
05
F2
0F
02
01
E6
F8
FF
06
0A
F4
08
E5
00
06
F6
EE
02
06
06
04
04
03
12
02
02
09
03
00
08
EB
1E
FF
FE
13
01
EA
FC
FD
FB
09
04
03
04
0D
02
F7
03
03
07
00
F6
FE
FE
0D
10
03
F5
EB
05
02
13
04
01
03
10
FF
FF
04
FF
01
F8
02
02
03
0F
0D
01
00
06
F7
FF
02
FA
FF
06
FD
05
FF
04
05
04
07
02
0B
01
FD
02
F9
03
F4
FB
08
12
01
04
18
01
02
FB
05
F5
09
00
0A
01
0B
03
08
13
04
03
EC
07
07
04
F8
03
F2
00
00
F9
FC
FD
06
03
F6
00
02
09
03
F6
F9
03
FC
0A
0C
04
F7
FC
03
04
FF
F7
02
03
04
02
00
ED
F3
00
06
18
EF
01
FA
FD
0D
FB
F4
01
F8
FA
01
EC
03
05
02
00
FC
01
03
F5
04
F7
06
06
00
04
0B
FA
06
FF
09
00
02
03
0E
FC
03
FD
FD
00
FE
FD
0C
07
05
EF
00
01
01
FF
FE
01
FD
FF
06
08
FC
02
12
0C
05
FE
01
04
FD
05
00
00
F3
FE
0D
07
FF
07
00
06
08
09
FE
0B
FD
0E
00
0D
1E
0D
02
01
FD
F7
05
01
00
01
0D
11
08
0D
0B
FB
01
06
FE
09
FD
1B
0D
FD
FC
FE
01
02
FF
FE
0F
08
FF
09
FC
FC
01
F9
FA
09
FB
03
F7
03
FD
05
02
0D
0D
FE
07
02
01
07
FE
00
07
05
08
05
F9
02
00
0B
0C
00
02
02
01
FD
FD
FC
06
06
02
01
03
FC
00
F9
08
08
FA
08
05
09
0C
FE
FE
21
FE
0D
06
02
FC
0E
FF
F8
02
06
10
03
01
FF
01
08
09
F4
09
06
02
FB
02
F9
FD
07
01
09
04
08
0D
09
00
12
FD
05
09
02
00
10
04
02
06
0B
FF
FC
FA
FE
07
08
FF
03
03
FF
01
FA
08
0B
00
FF
FC
10
05
FF
0C
FE
00
FB
FF
FE
FA
03
06
01
FA
05
08
F2
04
05
01
03
02
0A
FD
00
0E
00
03
01
00
04
1A
06
0A
00
FD
06
04
FE
03
FC
F8
04
03
04
06
F6
04
FF
FF
FA
FE
03
02
09
02
FB
0D
FE
03
04
02
01
0A
02
00
0A
F2
07
01
09
02
0F
01
0D
03
FF
FF
04
FE
FE
F9
07
04
06
FC
06
FA
FE
00
FE
FC
FA
01
04
FF
FB
FE
0D
06
FB
02
FC
01
FF
FB
00
0C
01
00
03
01
02
03
00
03
FF
01
FE
02
02
FE
04
FF
01
01
01
05
01
FC
00
FE
01
03
02
00
03
00
FC
01
00
FB
FB
00
06
0D
05
00
00
F9
08
FE
FA
01
FF
0A
03
FC
01
03
FF
03
00
04
01
F8
02
FF
09
01
02
FE
F0
02
00
FD
FD
F9
03
FD
02
FF
FE
07
00
FD
00
07
1C
03
FD
F8
02
FA
F9
02
FF
FB
02
FD
03
FA
02
05
05
02
FD
02
03
FD
FF
01
FB
02
02
FE
05
F1
03
01
00
FC
FF
08
FF
FB
FF
FD
01
03
00
08
02
FD
FE
02
FE
04
04
02
FF
04
FD
09
00
FF
FD
FE
01
00
FE
0A
00
FD
02
02
FF
02
FC
02
FF
03
02
0D
FE
FB
05
FE
FE
01
FE
FD
FF
00
FF
00
FF
02
02
FE
FE
FE
01
03
04
03
FF
04
00
FE
FF
00
00
FE
FA
FE
FC
02
FD
06
FC
FF
FD
00
04
01
02
FF
01
FE
00
FF
03
03
01
00
FF
FF
02
FE
FF
FD
FC
03
00
04
0B
FB
FF
02
FB
FF
02
FE
FA
01
FE
01
FC
02
01
04
00
F6
04
F8
01
F7
02
04
00
00
FD
01
01
04
08
FF
04
FA
FA
02
FD
01
00
FE
F7
00
01
E1
00
FE
F5
FF
F9
FF
FB
01
F4
00
00
FA
F4
FE
F6
03
02
FD
01
03
FB
FD
F9
02
01
08
FF
01
05
06
FB
FE
0E
FF
FF
FC
02
00
01
FD
FA
06
0A
F9
02
03
02
01
FF
F9
FC
E8
FF
FC
FD
FF
FF
03
01
03
F4
FF
01
F5
F4
FE
FC
01
FF
00
FF
00
08
FA
00
FF
FD
0B
00
FD
01
FE
FE
FD
FE
FE
FF
05
04
04
03
FF
F8
01
FE
FD
E9
FB
02
FC
F5
03
02
FC
02
00
F9
02
FB
00
FF
F9
00
01
01
FF
03
F8
FC
FE
FD
00
FC
02
FD
FF
F9
02
F9
FD
02
FF
02
03
01
FF
00
FF
0D
EF
00
F8
00
EA
02
02
00
FE
F9
FF
FF
0A
01
00
FF
F2
FF
FB
FC
F5
00
FE
01
03
F8
02
06
04
FF
F6
F8
FA
FA
01
00
02
F5
04
01
FF
FD
00
F9
00
03
EF
EF
FD
01
02
02
FE
FE
FD
FD
00
00
F8
F5
00
FB
01
01
08
04
FA
FF
FF
EA
FF
00
FE
FF
02
FF
F9
04
00
FB
04
FD
F8
FF
F2
01
0A
FC
F4
FF
FC
02
00
FE
02
F7
0A
FE
02
FF
01
FD
03
F9
04
02
FF
00
FC
F6
00
FD
06
F9
01
10
0C
0C
FE
FB
03
04
03
FF
02
FB
04
08
00
09
FA
05
02
00
FD
0B
05
FA
0B
01
07
FF
05
FF
01
FF
00
F5
04
FC
04
FF
07
02
0A
04
0C
FA
02
FE
FA
02
FD
03
FE
00
07
0D
FA
02
FF
03
04
00
00
FE
F9
FB
01
01
FA
0C
01
F8
02
00
02
15
FD
00
01
01
08
00
FD
07
07
03
05
02
FC
01
0E
04
FE
FB
F8
0F
F9
01
06
05
05
FC
02
00
01
01
FE
03
FC
FA
01
06
02
FC
F9
05
00
03
07
FE
01
06
F4
FD
F9
01
09
F9
0E
FE
FB
FA
07
05
02
FD
01
02
FE
0B
06
04
02
FE
FC
01
FC
08
FE
04
FB
F5
08
0C
FB
FA
F9
F9
01
FF
00
FE
06
05
05
01
00
FE
0E
FF
FC
02
01
03
FB
FC
03
07
F4
01
01
06
02
00
08
FD
05
00
0D
FF
FC
FC
01
05
FC
05
02
01
F9
FC
FD
FF
00
F8
FD
FD
09
FE
03
04
00
05
05
02
FC
FE
FD
FF
FF
F9
06
01
FB
03
05
00
05
02
02
01
F8
FF
F7
04
05
02
05
02
02
07
08
08
00
04
02
06
02
03
02
01
06
03
01
FF
05
04
03
07
01
09
06
07
05
01
01
03
07
00
02
02
FE
04
FF
01
01
01
07
01
04
05
07
06
03
07
06
FF
FF
06
00
05
04
FF
05
07
00
05
04
05
04
05
05
02
02
01
07
05
01
03
05
04
01
03
01
06
03
08
06
07
05
FF
03
03
07
07
02
03
00
05
FF
00
01
05
01
07
01
06
06
03
06
00
05
00
02
02
00
04
06
07
01
03
01
01
06
07
03
03
04
01
06
04
03
03
03
02
06
06
03
02
08
06
05
00
07
00
04
02
08
03
FE
08
02
00
07
07
02
05
FF
01
05
06
01
02
03
04
01
06
FF
02
00
03
06
06
01
05
01
03
FF
00
09
03
FD
FF
00
00
02
FE
FE
04
01
00
03
04
FF
01
04
05
00
04
07
05
00
05
06
01
05
04
03
02
00
00
03
06
03
01
00
00
FF
02
00
FF
01
08
05
06
06
07
01
05
04
05
05
FF
04
07
F8
06
03
02
03
02
06
01
04
00
04
00
01
04
06
07
06
02
03
03
00
03
02
FF
06
04
04
FD
FE
F9
07
00
FF
03
FD
FB
03
00
00
00
02
FF
F8
02
FA
00
FF
FB
07
FD
0D
01
00
00
FA
FA
05
01
FF
FA
FB
06
F7
00
FC
F1
FE
00
07
FF
F9
02
01
12
F8
19
00
FC
08
FF
F9
03
FA
08
00
FE
FE
06
FE
03
00
FE
08
08
01
04
FD
03
01
FC
FB
F7
01
FF
00
FD
00
00
FC
00
00
00
F8
03
FD
10
06
FE
05
02
03
06
02
00
F3
02
01
FA
01
FF
0A
07
00
F7
FF
03
FA
03
03
06
0E
01
F5
0C
03
02
F6
FE
F9
02
03
00
09
FF
00
FF
05
FF
00
FE
FD
04
01
02
04
01
03
02
01
05
00
FC
F5
F0
05
FB
FE
02
FE
FD
00
FC
F9
00
02
FF
FA
01
01
F4
FC
F2
04
01
F4
F9
FC
FC
FE
01
FC
FF
01
01
F2
08
09
FC
01
FD
F2
00
02
FF
02
02
09
04
02
FD
FE
00
FF
00
F5
FF
00
00
02
00
FB
FF
05
FE
02
FE
05
00
FE
04
FE
FD
EF
03
07
06
FC
00
FE
00
FF
FD
FE
01
02
01
FE
F9
FF
FD
F9
FF
FF
00
FE
FD
FE
FC
FD
FA
FF
FD
FB
01
00
F9
06
03
01
00
FF
FF
03
00
00
02
FD
02
07
FC
03
FC
FE
02
04
FE
00
02
FA
FD
FB
FE
02
03
FC
FD
FF
00
FD
00
01
FE
F8
F6
FA
FA
FE
FF
FC
F6
FC
F6
FF
03
FB
00
01
F4
03
F8
04
F8
FB
02
01
FD
FB
03
00
FF
FE
FE
FE
02
FC
03
04
FA
F3
FF
FD
02
FE
01
03
FE
01
01
03
00
FA
FE
00
FA
F9
FB
FA
FD
F6
FD
FB
FF
01
01
FA
F7
00
FF
03
00
FE
02
FF
FC
03
00
00
04
00
00
F4
FF
01
00
FD
FB
FF
03
EF
01
00
04
03
00
FC
01
FD
FE
03
F9
01
FC
FE
FE
F6
02
FE
FD
02
F8
01
FB
F7
01
02
FF
FB
00
F4
FB
03
FF
01
00
00
05
FA
FF
F8
05
FA
03
FB
F1
00
00
0C
F5
F7
FF
F3
F9
FA
02
00
FD
FC
00
FE
00
F8
FE
FE
FF
FB
FE
FB
FF
F9
04
F2
FF
FD
09
FD
F5
EF
01
03
03
FF
00
00
F9
02
FE
00
FE
F2
FB
FA
FB
06
FE
01
FB
F9
03
04
F5
FE
FE
FD
00
02
FB
00
00
FE
02
FE
01
FC
FB
00
01
F9
FD
FF
FB
FB
02
FF
F7
FD
F9
02
FC
00
06
00
FD
FF
FB
FB
FE
05
FB
01
F8
F9
FE
00
00
E0
01
F4
F8
FA
00
0C
FE
02
F1
00
F8
F9
F6
FB
F8
06
F9
08
FC
01
11
00
0B
01
FD
08
FE
F3
FB
FD
FF
EC
0B
EC
04
00
FF
ED
05
F9
FD
FE
04
02
FC
07
00
FC
F8
05
F7
04
09
FF
01
01
03
03
F7
FA
FE
F6
01
F6
F7
FB
F2
FB
FA
FB
05
EA
F5
FE
06
FD
08
EA
FB
F3
00
F4
F5
FF
06
08
02
02
03
02
02
FA
06
01
07
FF
FA
FA
0B
01
FA
FD
F4
F8
FE
08
FC
F7
06
07
0A
FB
FF
05
01
FF
FA
FB
F3
0F
FF
FC
FC
FE
FB
03
EB
01
02
E7
FE
E8
FA
02
F6
02
09
FD
FF
03
EA
02
02
FD
F0
0C
02
F5
E6
FC
07
04
FE
0A
FC
07
05
FB
FE
02
01
F6
FD
04
04
05
F9
07
F8
0B
02
F6
06
07
FB
00
EF
FD
F2
FE
07
F3
F6
FD
FA
00
FA
F8
F6
07
F4
03
01
FF
FC
08
FB
F4
0C
05
01
F7
01
0D
E5
01
F9
FA
04
00
03
F5
EF
FE
FD
05
FD
F8
FC
02
FB
02
03
F8
FB
EA
FC
F9
E5
F6
FF
FF
0F
F4
EB
EA
07
FA
F5
F5
F9
FD
FD
F5
FD
FA
01
FE
00
01
10
04
00
F4
05
F6
FE
05
25
FF
10
05
FE
0D
0C
FD
FD
00
05
01
F9
03
FB
04
0E
00
11
0B
03
FD
02
FC
03
0F
02
01
FD
FD
FF
03
04
FC
FF
05
09
00
FF
00
F9
00
02
08
03
02
FE
FC
FC
00
0E
FF
01
09
01
03
03
FF
00
0E
FF
FC
0C
00
03
06
0A
FF
06
FF
0B
FE
FE
06
F9
FD
00
FE
FA
07
FE
01
03
F6
F9
01
FD
02
01
07
00
FD
0B
01
13
0E
FE
01
0F
FC
04
FC
00
FC
03
FF
FB
FE
00
06
FA
FE
1C
02
FC
FE
FB
FB
01
02
04
06
04
01
0F
0A
00
02
07
0A
02
0E
07
05
06
FA
00
FF
01
00
FD
17
F2
1B
02
03
00
FC
03
FF
FE
FD
05
05
02
05
01
01
FD
01
02
04
FF
FB
01
05
00
03
FE
04
01
08
FD
FB
F9
06
01
00
0E
02
01
F9
11
FF
09
FD
05
FA
00
FD
F8
09
FD
04
0E
00
FB
00
F8
03
08
04
FE
01
FA
FE
01
FF
0A
02
FC
05
FE
04
04
04
00
00
00
03
07
04
04
00
FD
06
FE
FF
04
04
01
F7
0A
FE
07
00
0C
03
FE
01
00
0C
F9
FE
01
04
05
F4
02
00
FD
06
03
FD
00
FE
00
02
00
00
FF
01
00
03
05
FC
FD
09
FE
05
15
05
03
FF
F9
06
00
0A
FD
FD
07
05
FF
FF
FC
FC
07
FE
FD
00
03
01
03
04
09
FC
01
01
00
FF
FC
07
02
FE
F9
FD
FF
F8
0E
FC
05
FD
03
02
0A
0B
FA
03
FC
02
00
FF
05
FF
FE
05
06
02
0C
00
03
FC
00
0A
02
FF
01
08
02
03
FD
FF
01
F8
01
01
00
F6
01
07
FA
FD
02
FF
03
00
FE
FD
00
03
0A
01
FE
F9
06
F8
07
01
FF
03
03
0C
00
FD
00
00
0A
FF
0A
05
FC
04
FC
09
05
04
F9
02
FF
04
FC
FF
FE
05
01
13
01
03
FF
FE
10
FD
FE
07
FF
FF
06
0A
00
FF
08
08
03
05
01
01
01
09
02
F8
0D
FD
01
01
FD
04
F8
07
FE
07
FB
FE
00
03
FD
FB
07
06
01
03
FC
F9
01
FE
06
00
FF
02
FD
FF
FF
05
03
F9
13
10
01
03
00
FC
10
0A
FA
02
FE
FE
01
FF
04
12
F9
FF
01
05
02
04
06
FA
FD
02
F9
01
02
01
02
FF
16
FF
01
FE
04
15
00
FC
0A
06
FF
00
01
01
FC
04
F7
01
04
08
F9
00
02
FB
06
FB
FF
DA
05
02
08
FC
07
01
02
15
02
FB
00
FF
FC
F9
00
09
EF
11
FB
FE
04
F3
06
00
FF
FE
03
FF
03
06
0A
FD
10
03
FF
01
01
03
02
FF
05
00
FB
04
F5
08
FE
02
0C
0B
02
02
FF
F8
FB
FF
0A
E8
F3
03
05
04
FF
00
06
FA
F9
08
FF
F8
02
FC
FF
15
03
05
FE
FC
06
07
FC
02
FD
FB
FD
FB
16
00
FF
FB
08
FB
04
F7
F8
FB
FE
01
F8
0A
FF
05
05
FD
0B
FD
0B
F3
FD
FB
00
02
FE
EC
02
04
FD
05
FD
16
04
EA
01
FF
F4
06
03
FC
09
0C
06
02
F9
EF
01
FF
EC
08
F7
03
00
01
FF
0B
0A
04
FE
0B
F9
FA
09
05
FF
00
04
03
00
03
F7
FA
00
00
0D
FF
0A
FF
FF
03
05
00
00
FD
05
FB
12
05
FF
F7
18
FD
01
18
FE
09
05
0A
FF
02
03
06
E7
F9
F9
07
00
00
FD
FA
F8
00
E0
03
02
04
01
F4
02
08
02
0D
00
01
05
FE
04
FE
01
07
06
03
F9
06
07
14
F7
07
01
03
FA
F3
05
01
0E
06
FF
F3
01
1D
E0
02
FC
00
F8
FB
03
FD
07
FE
F9
00
04
04
FF
01
E2
01
F2
FD
FC
00
FF
EF
0A
0F
FB
02
00
01
12
05
00
FD
01
06
FE
FE
01
01
FD
FE
F5
02
02
FE
05
FC
01
00
FD
00
00
01
FD
00
FF
07
F9
0C
03
07
FE
F7
E2
FD
02
FF
FF
09
03
01
FE
FD
0B
05
FC
01
FE
03
FE
F5
00
00
00
FB
07
FC
01
F8
02
02
FB
0A
04
05
02
0B
04
FF
FE
FC
FF
F4
02
FF
F9
00
08
FD
F7
EF
04
04
F8
FF
FD
01
ED
00
0B
01
FC
F8
01
FF
FE
00
01
03
03
FF
FF
F8
F8
00
FD
FD
02
FE
FE
03
05
03
FD
FD
03
02
FD
FD
05
F9
F8
00
FF
05
F4
00
FE
01
F6
03
FF
FB
F8
FD
06
03
02
00
02
FF
02
02
02
06
02
02
06
FA
02
02
00
FF
00
04
EE
03
FD
07
FB
06
00
FD
FF
FF
01
FC
0D
01
04
FC
02
00
FF
E0
06
02
FF
FE
05
07
00
03
FD
FB
F2
FC
FC
05
0C
FE
FC
07
02
02
FE
01
FD
04
FF
F4
FF
05
FC
FF
FF
FA
FD
02
09
05
FF
02
F9
02
01
00
F8
FE
ED
FF
FE
01
06
FE
FF
01
F7
FA
FF
F7
