CD
29
14
F7
E9
E4
0D
F2
1B
F0
FA
C6
00
15
0D
B4
FA
E3
FF
EF
F6
F1
09
17
DB
22
C4
25
EE
FC
0A
D9
FF
29
C2
00
EA
FD
2B
09
14
D3
0E
15
08
FC
DC
09
F5
2B
FB
13
0A
E8
27
0D
D2
EE
09
FE
E4
D5
DC
CA
0B
0B
03
F4
F2
00
03
F9
ED
03
FB
E6
22
F9
F9
F1
0E
FD
EE
F2
04
01
0B
F7
03
0B
F2
F4
04
FA
FB
FB
F5
13
F5
F7
F4
FA
FF
00
0E
01
09
00
FE
F4
F1
03
06
09
EF
E3
03
FC
F1
FF
E7
EC
02
F9
F5
01
02
02
