07
04
74
04
64
0D
04
07
78
03
79
68
73
69
01
02
7E
7E
02
73
72
0B
7F
7D
6F
0E
78
7E
06
5F
6F
6B
09
1D
78
74
03
7E
10
01
73
7A
0C
15
00
7D
78
73
1D
71
0E
7B
7B
0C
03
04
13
78
78
00
7A
7E
02
78
63
77
04
5F
7B
16
06
6F
0A
7E
20
6B
71
17
07
00
08
7C
6C
72
07
79
13
03
08
55
12
1B
7D
17
1B
6C
62
71
72
08
14
6F
1A
07
0C
11
05
19
14
72
5E
0F
78
07
17
73
0D
55
27
04
01
76
24
18
6B
73
14
76
