01
7A
7A
1A
74
12
60
07
5E
07
71
01
77
19
6C
78
18
7C
65
0A
6E
77
12
03
07
07
79
7C
7D
72
00
68
7A
1B
01
26
05
79
09
77
1E
6D
0F
18
01
74
60
12
0B
2E
7E
77
02
03
7B
1A
65
15
16
0A
76
72
01
74
7D
0B
10
7A
78
06
01
00
77
7E
05
60
05
71
75
7D
00
06
0A
78
79
7F
08
77
05
7B
01
7F
79
7E
0A
12
77
0C
01
01
6F
06
01
0B
11
7A
0B
7D
06
6F
0C
74
7F
74
02
6D
7C
7F
07
03
06
02
1A
03
02
7E
28
00
