71
06
01
06
16
0D
73
15
57
6F
6F
79
10
07
0D
03
09
75
0B
18
7B
0D
7B
06
00
07
01
05
72
7F
0C
7B
7B
16
7C
09
03
04
09
7D
09
06
03
01
24
73
7D
7F
1C
7F
79
06
76
7F
03
7E
7A
72
11
78
78
77
00
0A
79
02
7A
7A
7F
03
01
02
7A
0A
7E
70
7B
6E
7D
7F
78
77
7B
75
67
01
07
7E
79
05
7E
01
74
7E
79
09
01
01
07
79
78
78
05
7F
79
02
08
09
06
7F
7F
07
07
00
05
01
03
7F
01
7C
01
76
7F
0B
7C
03
7E
07
