0B
14
7D
09
1B
72
04
24
70
77
0D
70
00
6B
01
09
71
70
66
02
06
01
12
6F
06
75
61
70
7C
76
77
73
7F
02
67
06
7B
7E
64
03
14
14
14
7D
1B
6E
76
08
62
76
01
74
79
7F
08
12
07
06
7C
03
02
04
77
7B
7B
5D
75
70
61
73
7B
13
65
79
79
56
0F
65
16
07
77
76
08
15
7A
0D
01
08
0E
7F
7B
15
7E
79
00
04
75
0F
75
7F
7A
15
72
74
2C
05
09
07
4F
0A
70
77
6F
07
0D
07
67
78
7E
18
04
7C
2D
70
79
16
6F
17
