10
08
61
7E
79
77
73
02
73
77
7D
4D
5C
6D
75
09
63
02
74
7D
10
16
19
05
00
05
7D
6D
78
12
07
01
04
17
7B
00
01
07
01
78
10
1C
6B
7E
6C
12
78
70
20
04
76
00
6A
7E
14
03
6B
0E
11
12
68
0B
74
79
7E
7E
04
00
72
7B
7E
7A
03
07
73
6C
04
7C
79
75
00
01
03
78
07
04
03
03
79
7C
02
04
69
72
0A
78
06
04
77
7A
0A
7D
7A
04
09
13
79
07
79
08
09
02
79
7A
7F
64
0E
0A
00
09
6D
7A
04
7C
6F
7F
7F
01
