04
7E
7F
70
78
72
0C
0D
7A
69
00
65
73
12
75
72
79
71
7F
66
79
06
77
79
1E
7B
6A
78
1B
04
74
7B
7D
22
75
7E
28
72
02
6F
07
07
72
01
01
14
0D
7C
0D
6E
0A
01
04
70
03
19
04
68
26
75
76
6A
72
02
7A
02
00
03
7D
00
06
01
7F
01
72
6C
7F
74
06
7E
01
07
00
77
71
05
76
7D
77
02
03
7D
05
79
77
7C
02
12
00
79
77
02
7E
02
04
06
05
0B
7F
7D
7B
02
1F
06
01
74
00
6F
79
09
6B
6D
67
7E
7F
7C
73
78
