7F
0B
07
01
78
7E
73
74
6B
07
00
6B
7E
7D
78
78
07
03
6F
6D
04
00
7A
0B
7F
00
10
13
7F
67
6F
02
79
10
0C
00
06
07
0A
07
0B
76
0F
03
10
05
7B
7B
0D
03
12
74
07
7C
13
01
6B
62
17
76
77
0B
76
01
76
0F
78
0B
01
0D
04
02
78
05
78
67
09
74
7C
05
05
05
7F
78
72
07
7B
02
01
03
70
7A
7E
6B
11
7F
08
31
7D
0C
2B
08
78
02
73
7F
0B
12
6A
0B
7F
0C
37
07
0D
55
0C
6D
7D
7F
68
5F
08
78
77
00
6B
0B
