12
05
71
0A
67
79
37
75
7F
0F
02
09
10
7E
13
62
0B
71
69
24
6E
1A
09
7E
6D
02
6E
02
24
62
0B
06
7A
04
79
63
77
03
7D
69
09
74
01
74
00
15
00
0F
7A
77
0C
55
7A
1D
03
16
7E
11
14
05
09
69
1D
03
05
04
01
0E
7B
7E
05
7B
07
03
01
7E
74
7B
79
7A
7D
77
7E
04
00
7E
01
00
05
7D
03
03
76
7F
06
7C
7C
0B
7C
01
78
02
00
04
02
04
7C
7C
1C
7F
04
03
7D
7C
79
6F
06
04
79
7B
08
0C
74
7E
7A
7F
7B
03
