0A
01
07
3C
06
07
00
34
3A
02
39
32
3E
3E
09
0D
3F
3C
0B
03
01
05
02
01
03
02
02
38
06
2F
38
06
35
3C
3E
39
04
06
0A
07
0B
3C
07
39
3F
3F
07
3C
07
39
0D
02
30
0A
25
06
3D
02
0C
08
07
3C
3A
02
08
06
39
31
3A
3C
04
30
3D
01
03
39
3F
3B
38
3A
3C
01
02
00
00
39
07
3D
04
39
04
07
04
34
31
3B
03
38
08
03
04
32
08
39
03
09
00
09
3D
00
02
03
04
07
3E
31
3B
07
01
05
3C
3C
17
02
01
3E
0F
01
