7C
04
04
0A
79
7C
7C
74
7C
03
7B
74
68
79
0C
1A
76
1B
78
7C
04
00
7A
0A
6D
76
15
04
0E
76
0C
00
74
0C
01
15
7F
0B
01
5D
1A
05
1C
7A
7D
2C
03
17
78
04
06
65
03
7B
1B
56
6B
0E
7F
06
7D
00
76
21
74
0E
7F
7A
01
7B
7E
01
6E
11
77
6A
16
00
1C
08
7C
7E
71
04
11
7E
7F
71
7B
79
0B
6D
0D
06
61
02
7A
13
03
72
7D
05
03
73
76
05
7A
0D
12
78
76
79
09
0F
04
57
05
6D
0A
13
78
63
05
09
6A
71
6F
0A
