7D
07
03
7F
04
7F
04
00
75
7E
78
6A
0D
7A
0E
79
7D
04
7C
66
77
05
05
6C
00
01
7D
03
7E
70
74
10
01
1C
77
0B
13
0B
7B
79
05
01
00
09
05
06
7D
01
10
02
7E
65
75
79
0B
00
67
6F
15
04
7D
7C
75
00
16
06
72
7F
09
07
02
7F
79
07
7E
79
75
10
1E
12
08
05
02
6B
15
0B
7A
03
79
7D
0B
71
18
05
75
7B
0F
0D
7F
77
11
69
09
01
01
7D
76
10
71
08
7F
7F
21
06
05
64
0D
6A
78
08
18
7C
09
7D
00
76
06
77
