F7
FF
EA
FA
04
06
01
02
FF
FF
07
05
03
04
FF
EE
FF
04
FD
01
00
FF
FC
04
03
05
FF
00
FE
00
FE
FF
00
FF
FB
01
FF
FA
FC
FF
10
03
FF
00
00
FA
FF
00
FC
06
00
05
FD
07
00
FF
00
02
02
F9
01
01
F9
01
FE
01
FD
04
F5
02
01
FB
00
00
FD
04
F4
FF
FF
F7
FE
FA
F9
01
FC
FC
05
FE
02
FF
FC
FF
00
FE
FC
FF
00
00
FE
01
03
FA
04
FE
03
FF
FA
FC
FC
FD
FD
FC
00
07
FC
F3
00
FD
00
FF
06
F8
02
F9
08
08
05
FB
02
FF
02
04
FE
00
00
FD
04
F9
02
FF
FA
00
FE
02
06
FF
FD
FB
02
02
FE
FF
FB
00
FD
07
FC
02
04
00
11
0A
03
FD
FD
05
F2
00
02
02
04
FA
FB
00
FB
02
00
FE
01
F8
03
00
02
03
FF
00
06
FE
FE
00
F9
07
E2
F6
04
09
05
06
FF
05
02
FB
03
01
FF
06
F9
02
02
F2
F5
FF
F9
05
F9
FE
06
F7
02
FC
FE
FE
FF
F9
01
FD
FC
06
00
04
FC
01
FE
FA
FD
01
04
FA
00
01
03
FE
FF
04
0B
F4
FE
FA
FA
00
00
02
F1
00
FF
FE
F1
FF
02
FF
03
FD
FF
FB
FD
01
01
FE
0A
04
FB
FB
0C
F9
FF
02
F8
FB
05
F7
15
F6
FE
E9
FB
01
01
00
FF
F8
00
FF
FF
F8
ED
EC
FD
0C
01
FC
F6
FB
FD
FE
F7
F7
F8
00
FC
FB
F7
FA
FD
0A
FE
02
F8
05
02
FE
04
FE
FC
01
F8
FE
FD
FB
03
01
02
09
08
FC
06
00
FE
FA
00
FD
FC
F1
01
F9
04
00
01
FB
E3
FE
11
0E
05
F8
F8
EF
03
FC
00
F9
0C
00
FB
FB
01
FA
F8
FA
01
FC
FE
05
03
FA
F2
FA
0A
FF
02
F7
FD
FD
E6
01
FD
0B
FC
09
FF
F7
FF
FD
02
F2
FA
0E
FB
FA
FE
FC
F7
00
FE
06
FA
F5
00
00
FA
FF
FB
F7
F1
0C
FD
F3
FF
00
FB
FC
0B
F9
FE
F4
FD
03
03
FC
FB
14
F3
FC
FA
00
03
EB
E7
FA
F6
05
FB
FE
E3
FC
FD
08
F7
FA
FE
F9
EB
02
F7
FB
F7
00
F8
FA
EF
06
01
FC
F2
FA
05
F9
FB
F9
F2
00
FA
FC
03
F9
01
05
02
02
FB
FA
04
FF
03
00
0A
F7
FC
00
FE
14
FF
F7
FB
17
FC
04
F4
F6
FA
FD
FF
F6
00
FC
FF
E5
01
FB
00
FE
FC
08
08
F9
01
03
04
F5
FE
FE
06
03
27
0F
0D
05
03
FC
0C
F6
11
10
F8
0E
FD
E9
05
00
F6
FC
00
05
03
08
F8
02
01
FA
F4
06
01
09
05
01
00
12
FC
0C
FB
FC
08
06
FA
01
05
0B
FB
00
0D
FD
09
03
03
07
09
FA
04
FF
FF
08
F8
F7
02
F5
FE
FB
0E
03
FF
FC
FA
0C
0B
0D
01
05
FF
01
07
11
03
05
03
01
F9
FC
FB
00
03
00
FF
04
02
FF
0E
03
02
02
03
04
FA
FE
00
08
01
F6
FC
FC
14
FB
03
FF
06
07
FE
FF
FF
0A
F9
FE
F2
F4
01
05
0B
10
FD
FC
05
F4
FC
FD
00
FD
03
0B
01
04
07
03
17
01
07
09
FA
FD
FB
04
F6
FA
07
0C
02
03
03
FF
05
FA
FC
F8
0C
18
13
06
07
05
1A
0B
FF
F7
18
06
05
00
FB
FA
01
01
01
FB
FA
0B
F6
F5
F5
08
0A
FC
00
EF
F8
02
FB
04
FC
FF
FC
FF
01
02
01
ED
10
04
00
07
04
08
FF
0C
FE
F4
FF
09
02
01
02
FB
FF
13
08
FD
FF
04
05
0C
05
06
08
02
06
00
F8
F0
03
00
03
15
FC
07
15
EE
1D
F9
FC
0A
02
02
07
FF
05
06
03
01
F6
12
00
02
10
F8
03
07
07
03
06
05
06
13
02
03
06
FF
FE
0D
FC
0B
02
F8
05
0E
01
0A
F5
06
04
04
09
02
04
FE
0D
03
03
FD
F5
FE
01
F9
FC
04
05
05
04
04
06
03
FD
FB
00
11
04
04
FF
04
05
F8
19
08
0D
0A
02
F8
F9
FE
02
10
08
13
03
04
02
02
FC
EC
01
01
01
17
01
01
08
07
F9
01
01
04
1D
0B
05
07
FE
05
06
09
07
01
05
04
0A
04
02
00
10
04
06
05
06
FB
09
FF
01
FC
01
04
0C
00
FC
F3
05
01
05
0B
04
05
03
00
00
07
04
0A
01
03
03
F6
04
F7
05
05
03
FF
0A
00
FE
07
12
FC
0B
FE
FF
0A
12
05
07
05
08
EC
01
07
02
03
08
02
03
FC
FF
00
01
08
00
01
01
04
00
07
FF
FE
05
09
02
FE
FD
FC
05
FD
FF
F8
03
FE
06
FF
09
FC
01
0B
FE
FE
FE
02
FC
10
02
05
02
00
00
04
07
02
03
0B
05
08
0A
FD
F7
0A
FB
06
04
0E
02
0C
0A
0D
FC
0D
03
08
03
F2
FF
06
08
07
06
02
03
06
00
05
07
04
FF
FB
F9
0F
FB
05
00
12
08
08
11
07
F0
FB
EF
FF
00
03
FE
18
0C
04
DC
06
01
FE
F8
F8
FB
F8
06
13
00
03
05
09
02
F5
05
07
03
08
05
05
01
FD
FF
F8
00
FE
FC
FB
FB
08
01
EE
FE
F4
FB
FA
04
F5
01
FF
FB
FF
F4
05
05
FF
FC
F4
0B
F7
09
06
F6
04
04
F9
00
F8
08
FD
F8
04
FD
00
02
04
FA
09
0A
F5
FF
00
FE
01
09
F3
FC
FF
03
0B
FF
F5
F9
F0
FF
F9
03
03
FD
FC
FF
00
FC
04
02
FE
F5
E8
F9
F5
F2
01
01
F6
0A
05
FF
03
FD
05
FF
FE
F8
F8
01
E7
01
EE
05
04
06
F1
02
00
F7
08
09
FC
FB
F6
10
E9
00
01
03
F1
FC
FE
FC
01
FF
FE
FF
F4
03
00
09
08
FF
E1
09
FD
FC
07
02
03
03
14
EC
05
03
00
00
0A
06
FE
0C
03
03
0B
EF
06
02
10
00
F3
FE
FD
0A
FD
FF
08
04
FB
09
0C
02
F6
EA
FD
02
EF
FC
00
F8
FF
00
05
07
01
01
02
04
01
FF
01
F9
00
F6
08
FF
FD
F0
FF
F5
00
05
F8
F5
F7
FF
01
03
F4
FD
04
FC
FD
01
08
0E
07
07
F5
11
06
05
FE
01
FB
FF
FC
FF
EE
F0
08
F5
03
FD
F9
F4
0C
03
FA
EF
07
F6
09
06
F6
07
F8
00
06
01
00
08
01
05
00
02
01
09
01
0A
F0
F9
F7
F7
EC
02
02
09
FE
0E
03
F7
00
F8
05
FC
FB
FA
05
0C
FF
0F
FD
05
FA
FD
F9
08
03
F9
00
0B
05
04
02
05
02
05
FF
FB
01
18
FC
03
F9
F8
09
02
F9
0B
FF
FF
FA
FA
FC
FC
FA
F9
FD
FC
08
00
00
FD
FF
07
F9
F9
FE
FC
01
FC
10
13
03
FE
FD
FC
04
00
03
02
EF
FB
FC
E4
FA
FE
09
0D
FF
F9
FA
FA
0A
F6
05
F7
F8
FA
EF
F8
FE
06
FE
FD
FC
03
FE
00
01
05
02
09
F5
EF
01
FF
07
FE
FB
08
00
00
04
02
04
FE
01
01
F8
01
F8
0D
01
FA
01
FE
F9
04
EC
F5
F9
EF
F1
03
00
F7
05
05
F5
0D
06
FB
FE
00
03
0A
03
F7
F7
02
FE
FE
02
F5
FF
FA
02
00
02
02
FF
03
0F
03
05
08
0C
FC
F9
06
09
F7
FE
FF
F2
FC
03
FF
00
FA
E9
FE
F5
04
EB
FB
03
05
FD
F9
FD
F7
0D
FE
F5
0F
FE
FE
F8
FE
03
FA
02
04
FE
01
01
19
FF
06
17
03
08
1D
03
05
0A
F6
FF
FF
FA
00
07
FD
0D
01
00
0B
02
03
06
19
12
FF
12
FA
02
03
06
03
FD
0A
FB
0A
00
00
06
01
04
04
04
08
07
06
03
05
06
04
02
00
FE
00
06
02
15
06
FA
FC
03
03
05
10
FF
FE
F8
06
FD
00
07
FC
03
01
0C
04
06
F3
06
FF
02
04
F7
00
0E
00
FD
F8
FD
16
F9
FF
01
02
07
0E
FD
01
01
02
09
F9
FE
FD
FE
0A
F4
FF
F8
12
06
0F
07
05
EE
06
F8
05
FA
0D
04
F4
F6
07
06
00
19
0C
F6
02
02
FF
06
0C
FE
09
FB
08
FE
04
F8
FE
15
05
09
FD
FD
02
03
F7
0C
F9
04
08
0A
FD
09
03
FF
FB
02
FA
FD
04
FB
02
05
05
06
FB
02
02
FA
FF
04
06
05
FE
FE
04
11
00
03
02
11
08
02
0B
03
05
06
FE
FD
0D
FD
0A
01
F8
FC
09
05
11
FE
0C
FB
10
FC
F4
02
01
07
0D
00
01
05
00
0F
02
03
0A
FB
06
04
06
04
05
0D
00
13
08
07
FF
0B
F2
03
02
05
01
06
06
07
01
04
FB
09
FB
FC
00
FA
FB
FE
FF
F8
03
F0
0F
00
03
F6
FD
FC
EF
01
FA
0D
03
00
01
01
FB
FF
06
FF
FE
FD
0F
08
F6
06
05
FA
FB
01
F5
03
04
FB
F9
01
FC
FF
F3
F6
F9
FC
05
08
FB
FE
00
FD
04
FE
FD
0C
FC
FA
FF
FF
04
FA
FF
FA
FC
06
FA
01
F7
02
FC
0B
05
07
FA
01
01
04
02
02
01
FE
FB
F8
00
FA
00
E5
08
05
F5
FA
FC
FB
F7
F9
EB
00
FE
F9
FB
04
FB
FC
FC
FF
FD
F2
03
FC
03
02
F1
FF
FB
02
FE
F6
00
00
FA
06
FC
FB
03
F7
F8
F4
FE
0E
0A
01
04
F5
F8
02
E9
FD
01
04
FF
FC
FC
05
03
05
FF
00
FD
EF
F8
00
01
04
FF
08
FB
F0
06
01
0A
FC
0E
F1
00
F8
FD
FC
FE
04
F3
13
FE
FE
00
FD
00
01
FC
02
02
F5
F9
01
11
F8
01
00
EE
FD
F7
FE
F3
FD
01
F7
F9
F9
FC
00
FB
F0
F7
07
EE
FB
FA
FC
F4
06
FA
00
08
F1
00
01
FE
FF
FE
F5
01
FA
0D
03
F6
F9
FD
06
FD
FC
FF
03
FD
09
FC
FE
F9
08
F5
FD
FF
FA
F9
F8
00
01
08
03
FA
FB
00
FD
06
EB
F9
02
F8
06
02
FE
FC
FB
FD
04
FF
FA
FD
FF
04
00
01
FC
00
FC
FD
01
0C
F3
01
FF
FD
FA
05
07
00
FD
FC
04
FF
02
FF
FD
04
02
FF
FF
0B
05
06
02
01
03
05
01
02
02
F7
FF
06
FE
01
FE
FF
EE
04
02
FB
02
02
04
05
0A
01
03
00
FB
07
FB
05
FE
00
FF
00
02
FA
00
FF
FA
03
03
FE
00
02
FC
F0
04
00
01
FB
08
02
01
F4
06
FD
01
FF
FE
FC
FF
01
03
02
FB
02
02
FC
02
E7
01
FF
01
F5
07
FC
F3
FD
FB
FF
FF
FD
F9
FA
F8
04
02
03
FF
FD
FF
FD
FE
03
05
FE
FB
F6
05
01
00
00
05
FF
00
03
F7
FE
06
FF
FE
01
01
0F
02
02
FB
02
FE
00
FC
00
00
FF
FC
02
FC
01
FE
FF
04
FB
06
02
FD
03
00
00
06
02
FC
F9
01
03
01
FE
02
05
FA
06
04
F2
FD
03
01
FE
F6
04
00
FD
FB
FF
FF
07
02
FF
FB
FA
0A
05
01
11
00
FC
04
01
FC
FE
05
FF
FC
01
FC
01
04
00
FD
05
01
01
00
01
FF
04
E9
05
00
F8
FE
FF
FF
00
FF
FA
FE
01
FE
FF
FF
02
FE
02
07
04
FC
FA
F8
02
FE
03
0D
FA
05
FF
04
FD
04
05
02
F5
FF
FD
F2
0D
03
00
FF
09
01
06
F8
FE
00
00
FE
F3
00
FD
00
FC
03
FE
01
14
F9
0B
FA
FB
06
ED
02
FF
01
07
01
FD
05
07
07
01
03
FE
05
FA
FD
04
09
06
01
03
06
0B
F8
FB
0B
04
00
FA
0B
06
FB
03
01
FF
07
02
FE
F5
07
00
F8
02
02
F9
FF
04
03
04
F9
01
08
01
F7
EF
00
FB
FB
0B
F8
F5
F9
FF
FE
02
09
00
E7
01
01
0D
03
FA
FF
EE
0B
F0
05
FE
03
02
09
0B
FA
FB
01
F9
05
FE
00
02
02
FE
FA
FC
00
01
F8
03
FC
FF
FA
FD
FF
05
FC
FC
0A
FA
FF
01
00
03
01
03
00
01
0A
08
EE
04
FB
FE
00
02
FE
0C
07
FA
F8
F6
FB
F8
01
01
0F
FE
06
00
FD
01
03
EC
F9
08
04
FE
00
01
0A
F8
03
01
FF
FB
FD
05
FC
F0
FD
0D
04
FB
F5
FA
03
FD
01
03
FD
FE
08
FD
00
06
FE
FC
0C
FF
00
02
0C
FB
0E
FB
FB
07
00
0D
05
02
FA
01
1B
04
F9
FB
04
02
05
04
05
FB
09
FA
FE
FE
06
FE
F4
FC
04
00
04
F2
01
F6
01
FE
FF
FE
F0
00
00
0B
05
00
01
01
03
03
F8
03
FE
FF
02
07
01
FE
01
E0
03
FB
FB
F8
FF
F4
FB
02
02
FF
01
09
00
FF
10
01
F6
04
FD
02
F2
09
02
FE
FC
DB
04
FF
08
08
F7
00
FD
05
F4
FE
F9
FE
07
F4
FA
FA
F7
05
02
05
FD
FE
FB
FD
02
F8
FC
03
FF
F5
04
E8
FD
07
F6
E8
FF
F7
FD
EE
FA
FA
FC
01
F6
06
0C
00
01
FA
01
F9
C8
FD
00
FC
04
00
03
03
04
FB
FB
08
0C
02
F8
FE
04
04
FE
F6
05
02
04
02
03
01
08
02
0B
00
01
02
01
03
01
FD
01
FB
02
01
F5
F8
00
02
01
00
05
04
03
0C
F8
FC
FC
01
FD
FA
FE
F9
00
FC
01
FB
00
F8
01
0A
01
01
FE
00
01
01
00
05
03
E5
BD
F3
FD
01
FD
08
03
FF
FB
04
F8
FC
FE
03
F9
FE
01
0D
00
03
03
F0
FE
F4
0A
FD
FC
07
FB
FF
FA
FE
F9
FB
FA
FF
03
07
00
04
F3
02
FE
FE
01
01
00
09
01
FC
03
10
F8
F8
01
07
00
00
09
01
F6
01
FE
04
03
FF
02
01
FF
F5
07
FD
F9
01
FB
FC
FF
FF
F6
03
FE
03
F8
05
FD
01
FC
F7
FF
01
FD
FE
00
FC
FC
FE
02
FC
02
05
02
0A
04
FF
F9
05
FF
FE
FA
FF
00
FE
FE
FC
01
FF
FD
FE
FF
01
01
FD
05
FE
FA
F9
02
F9
F9
FC
FC
04
FF
FC
FC
FB
01
FD
FC
FA
FF
FC
F3
FC
F7
F8
06
FE
FE
FC
01
FF
FB
FE
00
FE
FF
05
00
F9
FA
00
FE
FC
00
FF
FA
06
FC
FB
FE
FD
FE
FC
F6
FD
00
FD
FF
FB
FA
FD
04
FF
F2
00
09
FB
FC
FB
FD
05
FC
FF
F7
FD
02
FA
00
0D
FB
00
FD
FF
FB
FD
FF
FD
FA
FD
F9
00
00
FD
FB
FC
00
F0
03
00
FD
FA
04
FC
FD
01
01
FD
01
FB
FF
00
02
FC
FF
F7
02
FD
00
FE
FA
F8
FD
FB
01
FF
06
FC
FC
FF
00
FF
F9
05
FF
FE
F4
FE
FE
00
FD
01
03
FF
04
F8
FE
FD
03
FF
FA
FE
FF
FC
01
FF
FE
FF
02
FB
04
FC
01
F8
F7
FF
FE
FF
FE
01
04
00
FC
FE
FF
F7
FF
F8
F7
02
FC
00
01
FB
FD
FD
02
FC
FD
FF
FF
F8
00
FC
F9
FB
F5
01
04
FF
FD
FF
00
FB
FD
FC
F7
FF
01
09
FB
00
06
0B
FD
EC
FC
00
F6
03
03
02
03
FA
04
F5
FE
00
F5
06
F8
01
FC
F5
FF
FA
FB
01
00
00
F7
FA
01
FA
FB
03
FA
FC
FC
FD
FC
F4
FC
FE
FB
F4
F9
FC
01
00
FF
FC
FB
FB
00
FC
04
FC
F3
FA
FA
FE
07
FE
05
FF
FB
FC
EC
00
F7
F3
F6
FB
FF
FF
02
05
FE
FD
FC
F3
F7
03
FD
04
04
FA
FF
FD
01
01
00
FD
06
FE
FC
F8
01
F8
01
04
06
01
FE
F9
FF
FE
04
FA
FA
01
05
FF
FE
03
04
07
F9
FA
00
04
FE
00
04
FD
00
06
FC
01
F9
FE
01
FE
03
03
0B
05
FA
F7
04
FC
FB
FB
03
FC
FE
F7
01
04
F5
FB
0F
FF
F8
07
03
FC
FB
FC
02
FE
F8
FC
00
FE
04
FB
00
01
FF
06
F1
F9
FA
00
0F
FB
FC
F5
00
FF
02
00
FB
F7
FD
FE
FA
F9
F4
01
F9
FA
F8
FB
F7
FA
03
F9
02
F9
FA
00
FE
01
08
01
02
03
F5
04
F9
FB
FD
FC
F8
FC
FC
FE
FC
FA
FA
FA
FB
FB
FF
FC
FA
FD
00
FA
EB
FE
FB
F9
FC
F6
02
FA
06
00
FF
FC
00
00
FE
F9
F9
02
FA
FC
02
00
08
01
F8
FF
FE
03
01
19
FF
FA
FB
FD
FC
F5
F8
FF
02
FD
FB
06
0C
F7
06
FC
FB
07
FB
FC
FE
03
FC
05
03
05
FD
FA
03
00
02
05
02
FC
FE
FF
00
FF
FE
02
04
04
00
0A
F9
F8
05
00
08
01
F5
03
06
06
05
FF
FF
02
05
F8
05
02
0B
04
01
07
27
00
00
00
FC
FD
08
12
FF
07
FB
02
FC
FB
00
FC
F4
03
FE
FB
FA
02
FE
01
F4
05
FD
F6
FE
FE
FC
FF
FD
FE
05
FB
00
FD
08
FF
FB
05
FB
F4
FE
06
02
FB
05
01
FD
FF
FA
F5
FE
FF
FF
FE
F7
06
02
FF
0E
F8
02
04
03
F5
F9
05
00
04
07
04
00
FF
FB
FD
00
00
FD
02
09
FF
00
FF
FF
FF
FD
06
FF
07
03
00
01
00
05
F3
01
09
FE
FE
00
FE
04
FF
02
03
07
FE
FC
00
FA
02
01
03
FC
02
FB
0B
01
02
FC
07
FB
04
FC
06
06
FC
0B
FC
04
06
01
01
01
02
01
FA
FE
05
FE
07
07
05
02
FE
10
FC
FA
02
FF
00
09
00
03
FF
FE
FD
02
FF
06
FC
03
01
01
03
FA
FF
FF
F9
03
02
FF
07
FF
01
FE
F9
F6
06
03
01
00
FD
01
FE
FF
0A
FE
FF
01
0B
FA
00
00
F6
00
02
F8
FC
F9
02
03
FB
05
0C
FE
08
01
02
00
01
0D
03
FD
03
FD
02
00
01
FD
F7
05
03
02
FD
01
03
FD
FE
01
F6
F8
FD
FF
01
06
FC
FD
FC
07
FF
F9
02
05
FF
03
00
FC
05
FB
01
F5
FC
09
00
03
FA
FB
01
F1
14
16
FA
00
07
F5
00
FB
FD
06
FE
0A
0C
00
F8
02
0E
10
02
02
05
05
01
FA
00
00
01
08
00
00
02
05
FF
08
FE
FE
06
F9
07
01
0B
02
01
FF
02
FF
08
03
04
02
04
07
05
FC
03
05
05
00
F7
05
01
02
FC
F8
04
FA
03
06
FD
FF
FC
01
02
02
06
FF
FC
FE
FE
12
0A
07
01
01
03
09
07
FB
01
FD
FF
08
FE
04
FE
06
FF
FB
02
01
00
00
02
05
02
01
01
00
FD
FE
FD
FE
07
01
FD
04
FF
FE
04
FA
0B
00
FE
FE
03
02
FA
FE
03
0A
0D
06
02
00
FC
FE
06
06
FD
FC
FF
FF
FF
01
FD
FF
01
FE
01
06
02
FE
05
FF
FB
00
FD
FF
0D
F9
02
05
FF
FF
02
02
FC
04
01
04
FE
02
F1
05
04
FA
F9
FC
FC
FB
00
FC
FF
FC
FC
FF
F7
00
FB
FD
FA
FA
FB
FE
FD
FA
FA
FC
F8
FF
FE
FE
1E
04
FC
FF
FE
00
FA
F8
F9
FE
00
F8
FC
F9
FE
FD
FF
F9
FF
FC
01
FB
F9
FF
FE
00
FF
F9
FA
FE
FC
00
00
00
00
FB
FD
FD
FD
FF
F8
00
00
FE
FB
00
FB
FC
FE
FB
01
FC
FF
FC
FD
FD
FA
FD
FC
FD
FF
FB
FA
FC
FF
FE
00
FD
FA
FB
FE
FA
FD
FC
FE
FE
FC
FC
FD
F9
F9
FB
00
FF
FA
FD
F9
02
F9
FB
FF
F9
06
FC
FC
FC
FE
FA
FA
FC
FF
00
01
02
02
FC
FF
FF
00
FE
FC
FF
F9
FE
FF
02
FF
FE
FC
FE
FE
FD
FA
FE
F9
FF
FB
FE
FF
FB
FF
F9
00
FC
F9
FF
FB
FC
FB
FC
F9
FC
FE
FF
00
FE
00
FE
F9
01
01
FC
F9
FE
F8
FF
FC
FB
FB
FD
F8
F7
FC
FF
FF
FD
03
FA
FA
F8
FC
FF
00
FC
FF
FF
FF
0C
FE
FF
F8
FD
FA
FB
FA
FD
FE
00
FE
FD
00
FC
FD
FF
FB
FB
FB
F9
FE
F8
FB
FB
FC
FE
FC
F8
FB
FE
FC
F8
FB
FE
FE
FA
F9
FE
FA
FA
FD
00
F8
FD
FC
FB
F9
F9
FA
F9
FD
FD
F9
FD
F4
F0
06
00
03
E4
08
03
0A
F5
FC
0F
ED
00
08
0B
F3
F4
ED
FD
01
0A
0E
FB
ED
05
F5
0C
F3
E1
F2
E9
06
02
F3
F3
DF
00
07
E1
00
08
09
08
FB
F0
08
F3
DB
FA
FD
ED
FC
19
E8
F4
F2
01
01
04
02
08
02
03
11
04
E8
11
FE
FC
F0
03
FE
FC
F8
0D
F4
07
F8
FA
FD
FF
F0
04
FC
05
F5
FD
E7
FB
02
01
F6
FC
FD
F4
01
F2
FB
0A
FA
FD
FC
FD
F5
ED
FE
01
F2
FF
F0
1C
D3
F5
FC
F1
03
F8
06
FF
00
C7
F3
13
00
01
FE
02
00
F0
F3
FB
FA
FC
01
FC
ED
FC
EE
F8
00
F9
FF
0C
F3
FF
FD
03
FA
FB
E9
F4
FF
FF
DA
06
FC
0B
FA
F3
FE
FC
05
F6
D9
03
05
01
1E
FF
FB
F8
F8
FA
03
02
00
E7
00
F6
FE
DD
FF
EF
04
EB
05
F7
0D
03
FD
EF
0B
FF
FB
F7
08
E0
FB
FC
FD
01
0B
F8
09
FD
03
FB
FF
F5
02
03
FB
FB
0F
EA
FB
EE
FE
06
F7
F7
F0
0F
02
08
05
FD
F3
02
01
08
FC
00
08
00
00
00
01
FF
F8
09
FB
F3
F9
FE
0C
00
FE
EF
FA
F7
FF
04
00
0A
01
06
09
08
03
F0
FD
FF
FF
02
00
FD
01
07
01
00
05
FF
01
04
04
01
09
F6
01
FF
00
FD
01
FF
01
04
F5
09
FD
02
07
FE
04
01
FF
04
FD
03
FF
02
FD
07
FF
FE
FE
F7
FF
FF
06
03
F8
F6
02
04
02
11
FA
04
00
FA
FF
08
02
0C
02
05
FB
FF
00
FC
FD
01
02
05
01
03
06
00
14
01
0A
FD
08
01
03
03
F6
04
F6
09
01
FF
02
03
F8
F5
00
FF
03
02
FF
FF
03
00
03
FE
02
06
01
10
01
05
FD
FF
01
03
02
07
03
03
FF
06
FC
02
01
FD
01
F7
FE
10
F5
0F
01
05
05
FA
06
04
02
FC
FC
09
01
FF
05
FE
08
FD
01
FC
04
02
FA
06
0E
FC
F2
06
01
FA
09
00
03
FA
FC
02
08
F9
FF
FD
00
0D
FF
02
01
03
02
01
FF
FF
06
09
04
00
FA
00
04
04
09
03
00
FE
01
04
FA
02
00
03
FD
FF
FB
0D
02
E8
04
FE
05
EF
09
FC
08
07
09
06
03
04
05
03
FC
FE
00
FF
FC
09
03
01
FD
05
FF
FF
04
09
FE
00
FF
01
F6
0A
03
02
F9
00
00
07
FE
F5
03
01
FA
FF
FC
02
01
08
FC
F4
02
02
FE
00
FE
FD
01
00
07
F8
FF
01
FE
F8
00
02
FB
FA
FA
01
01
00
00
04
FA
FD
0B
F9
00
01
FB
08
06
F8
FC
03
05
07
FE
FB
08
FF
07
FF
02
01
FF
F6
02
FF
03
01
F6
FD
F8
01
F9
F6
00
02
FE
F5
01
FF
F9
FC
05
01
F9
03
01
07
FE
FE
FB
FF
F9
03
05
04
04
00
FD
02
F8
0A
0D
FF
00
09
FF
01
04
F5
FC
01
F9
FE
FD
02
09
00
FF
09
02
00
F9
FA
01
01
F5
FD
00
06
FE
F9
04
FB
03
FD
FF
06
02
04
01
07
FC
F1
0B
FF
FE
FF
FA
FF
00
04
06
06
01
11
00
FB
08
00
FF
02
FE
0A
03
FA
01
0A
08
02
03
00
03
04
06
06
FF
04
07
04
03
00
F8
F7
FF
01
07
FF
02
F6
FE
FF
FF
FA
FD
FB
F9
F9
01
FF
EF
FD
02
FB
F9
03
08
04
F7
FC
12
00
FE
FF
F7
F6
FD
FF
05
01
06
06
FC
FE
FF
02
FD
F9
FD
FF
01
FB
F9
01
FF
00
00
00
F9
FA
FA
FD
03
0A
FF
01
06
00
07
0A
04
00
01
FD
FB
FF
07
05
01
FD
03
09
FD
05
FF
FD
EE
05
02
04
07
F5
FC
FF
F6
04
08
06
F9
F0
00
FF
EC
FC
FD
00
08
F6
FA
F6
01
FE
EF
06
05
FF
FA
03
03
F5
03
FE
02
00
FF
00
01
09
FE
F5
F7
F1
09
02
09
F6
ED
00
01
F4
F2
07
FA
0B
FE
E2
06
03
FD
07
F9
08
FE
EE
07
F9
FD
09
FB
FE
FE
03
FD
0B
EF
FC
F9
FD
F5
08
F0
05
F7
EB
F6
F4
01
F7
FB
FC
F9
01
00
FD
0B
07
FE
01
FA
FD
FA
02
F7
EF
0A
05
03
07
03
FE
01
F8
FA
FF
F2
0A
FF
09
05
07
FC
FA
02
F9
F4
01
F0
FD
F3
F8
04
F8
F7
01
F0
F1
07
FD
03
00
01
00
03
03
02
03
03
FF
01
FF
03
03
F4
02
03
F5
FF
FF
FA
FC
01
FD
02
00
EA
FA
06
04
03
04
01
00
03
FA
FE
0A
FF
FB
F9
F9
01
E6
FC
0D
FA
FC
C2
09
F6
FA
E7
FE
03
FF
03
FF
03
FF
F0
EB
F0
F4
F9
FA
FB
08
01
01
FC
F5
FD
FF
F5
FE
F9
FC
FE
FC
01
0E
01
02
FD
FC
FF
01
02
03
FF
00
00
FF
FB
FA
FC
F9
F2
F5
F5
01
E5
FC
FD
FF
FF
04
EA
FF
06
FE
09
F7
01
01
F9
FE
0A
FF
FC
FA
F9
00
F8
FF
F2
04
00
F8
01
02
FC
04
FA
00
04
FD
10
FD
02
FA
0C
F1
FE
0E
FB
13
09
03
00
09
F7
03
F6
F8
00
FE
FF
FD
05
07
04
FE
F6
FD
FC
01
06
11
06
00
FE
FF
FF
FE
06
00
F9
06
FE
00
0C
05
0D
FF
0D
01
FB
01
00
F7
00
01
0B
F7
16
01
EE
03
FF
EC
00
F9
0A
FB
0D
05
00
01
FD
F8
F6
07
11
FD
FE
01
01
01
02
01
F9
04
0A
05
FF
03
F9
02
00
03
1B
FF
03
FF
0B
F5
F6
ED
12
14
06
FF
01
0E
08
00
03
11
02
0F
F9
07
01
00
00
06
FA
03
0B
FE
F9
00
0D
03
00
F8
09
08
00
01
01
00
FE
F9
FF
FF
00
03
01
11
00
0B
04
FB
FE
FD
17
FA
F0
01
06
02
FA
F8
00
13
02
00
FC
02
03
FB
F8
FE
F6
00
02
FF
04
F5
00
04
07
0E
FD
FD
FA
FF
FB
FE
05
FE
01
05
02
FD
FA
04
FD
02
0C
03
F8
02
FE
FF
01
06
FC
0A
04
04
F9
01
01
FA
07
02
00
FD
04
02
F9
01
FC
02
FB
FF
FB
05
00
FF
F6
F5
06
03
FB
FC
F1
FF
F4
FE
01
FE
15
F5
DF
04
ED
F7
FC
FF
FA
FE
08
00
FE
FC
FA
06
08
F8
FA
01
FA
FE
F7
FD
FB
06
FF
FC
09
FC
FD
FD
FD
01
F3
F2
04
F5
FF
FB
05
FF
F7
FB
F7
02
F5
07
01
05
0B
08
F8
01
03
FC
FF
FC
F5
01
FD
05
FF
FA
F7
FB
01
09
F5
05
FF
05
F6
01
02
FC
FA
FC
EC
FA
EA
FF
05
F5
06
03
0B
04
FD
08
00
FB
F9
04
02
FE
01
F6
06
00
F4
F9
F9
F2
08
05
FA
FA
0E
FB
FD
06
F8
00
FD
F6
FF
FF
00
03
F9
05
01
FC
06
FC
F6
02
FE
05
04
00
F5
F6
F0
FD
FD
05
03
08
02
FA
02
FE
03
FE
07
FF
F7
03
00
00
07
FD
00
FE
00
FE
00
FF
FC
FA
F8
FC
FB
00
02
00
FE
06
FF
FB
02
04
05
06
FB
F2
FB
E8
FA
00
FF
07
FF
FC
EB
05
FD
00
02
03
F8
00
03
FF
FF
FA
17
FD
03
0A
FE
FB
01
00
04
FD
0A
04
FE
01
FC
FD
00
04
00
F5
03
FC
01
01
0C
F5
FF
FF
12
00
00
00
00
F6
03
FC
F6
00
FD
03
F2
F0
FB
02
FD
F9
FB
03
01
02
03
0D
FE
02
10
09
F9
07
11
01
04
FF
FB
0B
0A
F7
04
01
0E
02
F8
FD
06
F6
F2
FE
01
02
09
09
E9
03
FD
05
01
F7
FB
04
FD
02
07
09
00
09
F9
01
FB
01
F3
00
07
09
04
F6
F9
F8
0A
06
FF
F9
FC
FF
FF
05
FF
0C
05
00
F5
ED
FF
0D
EC
FF
04
02
FB
08
03
0C
00
01
F4
02
FE
00
01
00
00
04
F4
F5
07
00
04
05
0C
F4
FB
09
FD
FA
FB
F7
02
F9
11
FA
05
05
E9
FF
FA
01
F7
06
09
0F
FE
00
02
FF
01
0F
0A
00
EF
06
E7
01
07
03
FB
FB
FF
E9
03
04
FF
F8
07
08
FF
FF
06
00
FF
FF
05
F9
04
F4
F2
00
01
02
F9
FA
03
03
06
0E
03
FD
F6
EF
02
FA
06
FE
F6
08
0E
06
F4
09
FA
00
F7
11
00
FF
FA
E4
0A
10
FC
FF
FF
02
FA
0A
E9
0C
F8
09
FC
0B
EC
01
0D
F1
FE
F9
04
FC
E8
F1
0A
01
04
15
F2
01
01
FB
F7
FF
FE
FC
FA
01
F4
F9
02
03
F3
06
02
00
F5
05
05
F9
FC
09
07
F7
FB
01
F1
06
05
07
05
E8
02
08
08
05
02
FE
07
0D
06
F7
06
FD
02
FA
0B
04
00
F8
01
02
F9
FC
F7
09
04
FB
FB
03
F1
EB
FA
FD
F8
01
FD
FE
FB
F8
08
E8
FD
FC
FD
F6
03
F0
FB
FF
FF
04
F8
F8
02
0A
FF
FD
EF
02
FD
04
F4
F7
FA
01
F7
FB
02
F9
F6
05
01
FA
F9
FE
00
01
09
ED
FE
FC
F7
0D
F7
05
02
FA
FB
01
01
FC
FA
00
F2
F9
00
FF
00
0D
F1
00
F6
ED
F7
F9
01
04
07
10
00
ED
FB
F8
09
04
F1
E2
07
F8
F6
07
00
07
FC
FC
01
F5
00
0B
FB
FF
05
0B
FD
FC
FB
02
0E
FE
06
FD
04
EC
05
F3
FB
F7
FA
07
FA
ED
E6
FA
F6
FE
F8
04
FF
FE
01
F7
FE
F8
FF
01
EF
08
03
FC
F0
FE
F4
F7
FF
02
EF
F5
F3
00
05
02
03
F9
FC
FA
FA
FE
00
FD
07
11
07
FE
F9
F5
F5
01
06
F4
FA
F2
FC
F8
FF
FC
03
FE
F2
01
01
02
FA
FF
08
F8
0B
F9
F8
01
0F
FF
05
00
01
FF
0D
FE
FC
F7
FA
F5
07
08
F9
F7
F8
0C
00
FD
FF
F7
FA
FB
02
FC
0C
F0
FF
00
F7
03
FC
03
F7
02
FA
FD
FB
0D
09
FE
FD
F7
FB
FE
02
05
FB
02
06
FE
F1
FF
02
13
06
FF
10
FE
04
FD
00
0B
04
0C
04
05
F5
F6
08
FE
FB
0A
FF
02
09
09
FB
02
FE
FB
05
F6
01
02
00
05
03
03
06
00
07
F5
FF
FB
FD
07
FE
0A
18
07
0F
00
FB
01
FA
02
01
0E
FB
F4
01
05
15
06
FC
FD
10
07
FE
04
07
00
F7
09
00
01
04
04
05
22
FC
00
FF
FB
FD
FA
01
FF
05
01
08
FD
12
07
0E
FF
03
FE
FD
FC
FB
08
FA
0C
1F
04
01
0C
FD
FB
FC
FD
FE
02
FA
FD
06
11
04
FD
11
0A
09
01
FF
04
FA
0A
05
05
07
06
03
04
FC
FE
0E
01
F8
00
02
FF
01
05
FE
01
FE
05
03
05
03
24
F8
FF
04
15
FC
FB
03
01
03
01
FA
FC
05
FA
02
01
08
09
07
FF
06
FC
04
05
FB
FD
03
0A
FA
F8
17
02
02
01
02
FD
FE
01
FD
03
FE
FC
00
05
0C
FB
0F
04
10
04
FF
FD
FE
02
07
0A
15
0D
07
02
0A
FE
03
FE
04
01
02
FC
01
FB
FF
0A
01
03
03
01
F1
00
01
05
00
02
04
06
09
F2
F0
08
FC
02
05
05
04
02
03
07
0B
04
FF
FF
02
F1
FD
00
02
FF
07
03
01
FE
05
00
02
FF
03
27
02
F2
0B
F8
FE
02
07
02
00
FF
03
FF
FA
FE
02
03
FE
03
01
05
FD
1F
00
FF
01
05
00
06
02
FE
00
FD
06
06
F7
FA
F6
04
02
FD
0A
00
F7
04
00
FC
FB
F7
00
00
F9
08
04
02
03
01
FC
04
FE
FE
0C
FA
04
11
F7
FA
FD
FE
02
FF
02
FF
FA
07
FA
FA
FD
01
F2
02
FB
01
04
06
00
01
FC
FF
00
FD
03
02
F7
04
FC
00
02
FC
01
FB
02
FE
01
05
FF
0A
02
FC
29
02
01
F8
05
FF
FF
11
05
FD
FE
FA
FF
02
00
0A
08
FE
04
03
FE
FB
02
03
03
00
06
FE
FC
03
FE
06
FA
FD
FF
FE
00
FC
FD
02
FE
0E
F2
04
04
FC
FF
00
00
0C
00
FC
00
FF
00
FE
04
FE
F7
02
00
07
05
FD
FD
FD
FF
FE
17
F8
FC
02
01
01
00
FC
07
FE
01
00
01
02
00
04
FE
02
04
04
04
FF
00
F8
FC
01
03
05
FC
03
14
02
00
05
FF
00
00
FC
FE
FE
07
04
00
02
04
02
F2
FF
12
FB
05
01
F5
00
02
01
1B
01
FF
FF
F6
F7
FF
02
22
07
FC
FE
07
08
06
09
03
00
01
FF
02
06
01
01
03
02
0A
0F
02
FD
F5
FC
04
0A
F7
F7
04
0F
02
01
06
FE
FE
F7
05
04
FF
02
03
03
03
00
0A
02
F6
FD
05
02
11
FF
FF
F9
02
08
FF
0C
04
05
0C
F5
0D
02
01
FD
FF
25
0E
FC
03
05
FF
01
FF
0F
03
03
F1
09
FE
FE
0B
FF
F0
FD
03
FC
FD
0B
02
00
F2
00
01
FE
00
FA
0D
00
04
FF
13
FF
02
01
FB
FB
03
03
00
00
02
F8
04
00
FB
06
04
09
0B
ED
01
07
01
FC
01
06
08
FD
01
08
FF
02
01
07
06
04
0D
F4
05
01
02
06
F7
FE
06
F9
FE
F9
00
F7
FA
04
07
0C
01
05
00
FA
09
04
03
0E
00
04
FF
00
00
02
09
04
01
0B
1E
F1
FF
02
FF
01
FF
0A
01
FD
FB
00
1E
FC
FF
25
FE
F9
04
02
04
01
FC
F9
FD
05
FF
07
EA
FB
07
F9
F6
FD
F7
FC
04
02
09
FF
00
FD
10
FF
F6
19
FC
06
06
FD
FC
08
12
F9
01
F2
03
1B
FF
FE
09
FE
FF
FD
FC
02
07
FE
FE
00
04
0C
FE
FB
06
F6
FF
03
03
02
FF
FF
FE
FA
FA
09
06
FF
F9
FE
FA
FE
FD
FF
02
FC
F6
03
F6
F8
FF
05
FB
04
FD
01
06
FB
FB
08
F7
FC
FE
FB
FA
00
FC
FE
03
FE
FB
FE
0A
09
F9
FE
FC
FB
07
F9
02
F9
FD
FB
FA
02
F9
F9
FC
11
FD
FF
02
03
FA
04
FE
FB
00
FE
FD
F9
12
00
FC
F9
F7
03
FC
07
04
F9
FE
01
05
FF
02
00
06
F9
F6
FE
02
FE
F5
FB
F6
FD
02
00
F7
02
FA
01
01
01
00
FD
FE
FF
03
05
00
FC
00
08
04
01
FB
00
01
FF
FC
FF
FF
FF
FA
FA
00
03
FF
FE
02
02
FF
F5
F4
FA
FE
FE
FF
02
FE
00
FF
FB
00
FD
02
04
04
0A
FC
FE
FE
02
F8
F5
01
06
FA
FC
FA
FD
FA
FE
FD
FD
F9
04
FA
FC
00
FF
FC
F9
FD
02
FD
04
FF
F9
FB
FD
FD
FE
02
05
F2
FB
FC
00
FF
01
EF
FA
FE
01
F8
FF
F5
00
FA
02
F8
FA
F9
FB
03
F2
FD
00
FA
FF
F3
F6
00
FD
04
F5
07
FA
FC
FC
FF
FC
07
FD
00
FD
01
05
FE
01
FC
FC
FA
FD
00
FE
FB
05
00
FE
04
FB
FB
FB
F8
FA
FA
FB
FB
FA
FB
F5
F5
06
00
03
04
FF
0E
05
FC
03
FF
F3
01
FE
07
01
F6
07
FD
EF
FF
FB
FA
07
FB
03
FD
F8
03
FE
03
FE
FC
FA
00
03
FE
02
FE
FD
04
FF
FA
FF
00
03
FF
F5
FD
04
07
02
00
01
FD
01
02
FE
02
FF
02
01
02
06
05
03
01
04
02
08
F8
FE
03
F8
02
FC
04
FA
FC
06
FE
03
F5
FF
00
F7
01
02
F1
FD
03
05
0B
FE
EF
02
F7
01
02
02
00
06
FD
F8
03
FE
FA
02
04
FF
FC
00
FE
FA
FE
08
10
F8
04
FF
01
03
FA
03
01
F7
FD
FF
09
03
01
FD
FB
FD
0B
0F
FD
09
08
00
00
00
FE
FD
03
02
04
FB
01
FB
F9
04
FC
FC
01
00
FE
01
01
FE
06
01
01
F9
00
01
0E
FE
00
01
FF
00
FF
03
00
F9
03
FE
FF
01
07
03
04
FD
FB
FB
01
FF
00
FD
00
03
FC
0A
13
03
01
FD
03
07
FE
FE
F0
01
FF
03
FB
FE
FB
06
0D
FB
F9
FE
F7
FD
03
07
FC
00
03
FA
FE
FF
FC
0D
09
01
FF
F9
02
FD
0A
03
FB
00
00
03
F9
01
F8
02
FC
04
01
FF
03
02
00
FD
06
F9
01
00
F9
F9
FF
FD
05
07
F6
F9
FC
0E
FD
EA
07
13
F6
04
07
F8
F8
04
FB
05
18
FB
E5
FC
EA
08
EF
FD
01
0A
04
F6
FB
06
0D
11
1A
0A
FC
01
02
F8
05
00
02
06
03
0A
FF
FC
03
0C
0E
FE
FE
0D
02
FB
FD
F6
F4
01
F5
02
08
F5
FF
02
0A
ED
FE
04
F9
01
11
02
F7
03
09
F9
F4
0F
02
05
DF
FF
1D
FE
09
FE
F8
17
04
F6
E1
F5
04
03
28
03
02
05
FA
00
09
08
03
09
03
10
00
EA
21
19
FE
FE
F7
0A
07
FF
F6
02
14
01
04
FC
F8
0C
18
F8
0A
F9
0D
01
FD
F2
13
04
11
FC
01
0F
FF
E7
02
01
FC
F7
F8
01
0A
05
FD
FC
10
F7
F9
0E
F5
01
00
11
03
05
F1
05
05
FF
05
02
1D
FB
03
F0
04
FD
08
FD
FF
02
0D
11
04
F4
01
18
F8
FE
05
E9
09
01
18
00
02
06
F6
FB
EF
F1
16
FE
03
FB
29
F4
FC
FB
10
EB
0F
F7
06
0C
2A
08
FF
FE
F7
0D
F9
04
02
F9
00
FF
F9
0E
00
F8
FC
05
FF
F9
01
FA
0D
03
EF
01
07
01
F2
0A
05
09
01
FB
EF
03
FC
16
07
F0
09
0C
11
FF
13
FE
F3
F2
03
F4
FE
04
05
01
00
FC
06
FE
07
03
E8
F7
FD
EE
0A
FD
04
F6
FE
F6
FE
04
06
FA
01
F0
FF
FB
F5
00
F7
01
E5
F3
F7
FF
FA
FC
EE
FE
02
09
0C
FE
09
FD
FF
F3
FE
07
FD
FE
F8
FF
FF
EC
09
0B
02
03
02
02
F6
F7
FC
F5
FE
01
02
03
06
F4
08
FF
02
02
10
FC
FA
00
0B
FF
F2
02
07
09
FD
04
07
02
02
F6
EF
05
FF
0F
F6
04
FE
FC
00
FE
FB
FD
F7
01
EF
F9
0D
11
F7
0C
00
F3
F0
08
F4
FD
00
00
00
01
02
04
01
FD
00
F4
FE
05
F3
02
07
F3
FF
00
FE
FA
00
02
FC
03
FF
F7
FA
01
03
F3
10
F9
FA
FE
F7
FE
FD
F8
FA
F9
03
01
EC
07
00
FF
08
FD
01
FD
FD
FE
DC
FA
FF
0F
F2
F8
F1
F4
04
08
F4
FF
02
FD
04
F8
00
02
0A
07
0B
F6
04
EE
FA
0C
F5
0D
02
12
F6
01
01
F9
F6
FD
F5
FA
01
08
FC
01
09
FC
FD
08
03
08
0E
FB
0A
02
0F
04
05
F7
FD
FB
FF
F7
FC
FF
07
0E
05
17
FD
05
07
18
03
FF
02
02
03
04
F9
FC
00
0E
FB
FF
FC
FF
FF
FC
01
01
FA
00
01
00
01
FD
FC
04
03
FE
FF
F3
05
05
F9
FB
01
F8
03
06
FB
06
FA
00
FC
00
07
FF
F9
FD
00
FF
F9
FF
05
FA
FD
03
01
03
FF
FF
0E
F5
F8
03
FF
FC
FE
05
03
FE
01
02
F9
FE
FE
FD
FD
FC
F8
FE
FD
FD
FE
FA
07
FB
FF
FE
FC
FD
06
04
01
F1
FF
05
FA
FA
04
02
01
FF
FC
F7
FC
02
00
FC
02
06
FE
FB
FE
08
FE
FD
FB
FE
F5
FD
F3
FB
FC
F8
FF
FC
04
FA
0B
FD
FB
01
02
06
FB
F8
F7
03
FD
FE
04
FA
02
02
03
F8
F9
FD
04
FD
01
02
00
FA
02
FA
FB
FF
04
F6
F9
FE
FE
04
FC
F1
FC
01
F7
FC
06
FF
09
F8
FE
FB
FF
09
FD
F6
F5
04
FE
F8
FB
00
FF
FC
04
00
FE
00
01
FF
FF
FF
FF
05
02
FD
FF
F7
16
FE
F7
FC
04
01
00
FF
F9
FF
F9
04
FE
00
03
F8
01
FA
00
FC
00
04
00
FD
07
03
01
FC
FE
FC
FE
FC
00
FA
FF
F9
F7
FC
FF
03
FE
FF
FD
E4
FF
F7
01
01
FB
FD
02
01
FC
F8
03
FC
F9
02
FD
FD
FF
FC
FD
FF
09
FA
2A
FC
04
F6
01
F4
01
F6
1F
F0
03
0A
FF
FF
FF
00
05
FE
02
03
0C
F6
0E
09
0A
04
FD
FE
00
FA
12
04
0A
19
F8
FF
F9
03
FA
F9
FF
1C
04
12
FF
FF
06
06
00
1A
0E
F9
0A
06
14
03
F8
08
04
FB
10
FB
FE
00
FB
2B
0C
FF
05
01
02
00
0F
E5
0B
FC
FF
02
12
03
0A
DB
08
00
E2
0B
FB
F0
FF
04
02
05
F4
FD
FA
0F
00
F5
02
03
FC
FF
FD
FA
33
02
13
FF
00
05
FB
FE
03
17
01
05
01
F8
12
0E
02
01
04
05
F1
FC
04
FC
01
FE
13
01
1E
03
FE
01
14
FC
F0
01
FF
FF
FD
FB
FB
F7
05
13
03
00
04
08
F3
FF
06
FE
07
10
0B
F9
FA
01
0D
F9
FF
02
F8
01
09
05
08
03
07
FD
03
09
0D
20
F8
18
00
F9
FC
00
00
09
02
1C
03
FE
FB
07
09
F5
FB
0D
01
F4
F5
04
04
03
08
FE
05
0C
FC
FE
F8
12
0A
16
0F
04
FF
02
01
02
03
04
F9
08
FC
FD
FD
0B
00
FF
04
03
03
FC
11
FC
02
FF
11
00
00
F3
0E
0D
FC
05
05
08
0F
07
0F
18
E9
03
F9
FD
FB
02
05
FD
FD
02
F4
FF
01
FF
02
FA
FA
01
04
02
FA
03
00
FC
FD
FD
FC
03
F8
FA
01
00
01
00
FA
FC
FB
03
0A
FF
01
FB
F9
FE
FB
03
FF
01
01
02
01
FB
F9
FF
FF
00
FA
03
FF
F4
FE
01
FF
01
03
00
FB
FF
00
FB
F8
FC
FF
F9
05
FF
FC
F3
FE
04
00
01
00
00
F1
FE
FF
FB
FE
FD
F7
FC
05
FF
FC
02
01
01
EE
F9
05
FF
00
FE
FD
00
F9
FC
04
00
F7
FE
F5
FC
F6
FD
01
01
F3
FB
FF
05
FC
01
04
F4
04
0B
03
FF
05
FE
FD
01
FD
FE
FB
FF
03
0E
00
FE
04
00
FD
02
00
01
FE
F8
00
F2
01
FA
04
02
03
01
00
FD
FB
FE
FF
02
02
FA
00
01
03
00
F8
FF
00
01
F0
F3
09
FF
03
01
00
02
01
0A
02
F6
03
FE
FF
01
00
FE
F7
03
01
FC
EC
F3
00
FF
03
04
04
00
FD
FC
FE
FE
FF
FD
FE
00
04
00
F9
FF
FF
01
FD
01
00
EE
01
00
01
FD
04
F5
FF
FF
FE
03
FF
02
FE
00
F9
FF
F5
F8
FF
FC
03
FF
03
02
06
FD
06
FF
FD
01
FD
02
FC
FE
FC
FB
FD
FE
FA
FF
08
F8
FF
EC
04
F0
06
F1
0C
FF
02
F5
FE
02
FC
05
FF
FA
FD
06
F9
02
0F
F5
EC
04
FB
01
08
FA
FA
FB
01
04
09
FB
02
02
0C
F9
FF
F8
09
F7
FD
01
EF
0E
DB
0A
03
01
F9
F1
F9
03
0B
0A
FD
01
F8
FB
01
02
FF
FB
F8
12
09
00
01
06
F8
05
F4
04
FE
04
03
04
01
FE
FB
04
E6
02
F9
02
E9
02
F9
F9
08
02
05
03
04
F4
08
FF
F4
06
02
00
0C
05
0C
02
FF
FB
0A
0A
01
F3
F7
F6
14
FD
F4
0C
FB
E8
F5
FB
06
F8
04
01
FC
F5
01
F4
00
04
05
F7
00
08
F9
F5
04
F1
09
0A
00
0C
06
04
FD
FB
04
FD
0F
02
FA
05
F6
00
00
FA
FF
FB
00
F4
00
02
02
01
01
F9
FA
07
FB
FC
05
09
FF
DD
07
F7
F8
EF
F6
00
02
F8
FB
0C
01
01
04
EC
04
05
00
F2
08
14
F8
05
03
07
F7
FF
06
F4
05
01
FF
00
02
06
FB
FA
05
FC
00
FD
FF
04
0B
F2
09
F0
06
FA
FD
FD
F9
04
FB
02
FF
FC
01
02
03
03
FC
F7
FB
03
1B
FA
FB
F5
F9
06
01
00
07
01
FE
FD
F9
05
FB
F4
0B
16
FB
00
FC
FF
F8
FE
02
04
FD
FC
02
04
F4
03
00
FA
FA
FD
FB
F8
04
07
FB
01
00
FA
FA
00
01
F6
FB
01
F5
05
FE
01
00
FD
07
FE
FC
00
05
FA
F3
01
03
FE
01
02
03
FA
FB
FD
01
06
F1
FF
FC
FC
01
FB
04
07
04
05
FE
F7
01
04
04
08
09
08
F7
00
F8
02
03
11
FC
FE
F8
FE
F3
FB
03
FE
F1
00
F7
07
00
00
04
02
00
FB
02
FB
F3
FC
00
F9
FA
0E
02
00
FD
01
FE
01
FC
00
09
F9
FC
01
08
00
F7
FE
01
02
02
08
02
03
FC
F8
04
F6
FF
03
00
0A
03
0B
F7
FD
FD
FA
00
FE
FF
01
FD
02
F8
FA
02
04
00
00
01
04
FB
F7
04
FD
01
03
F3
02
10
FE
01
01
00
FC
03
FF
02
09
03
F1
04
FE
01
FF
0D
FB
02
FB
02
02
07
03
0C
FE
F9
03
05
FC
04
FD
08
FC
04
F7
04
01
FF
04
FC
02
02
03
07
F8
FF
F9
EC
01
FE
FF
0B
05
03
06
FD
F7
02
03
06
00
FB
04
08
F8
FF
01
03
FC
03
00
FD
00
F8
FD
F7
FD
F2
08
01
FA
01
FA
F3
F8
FD
F8
FE
FE
FB
0A
FE
00
01
FF
F5
FB
F6
F9
FE
FD
FF
11
00
FC
00
02
08
F8
FC
01
FC
00
FE
02
01
01
02
FB
04
F5
FB
00
02
FA
02
FF
01
FF
01
07
FC
02
07
FE
04
03
FE
FB
FC
05
F8
FF
FE
FA
FF
05
02
FC
FE
00
02
01
FF
01
FB
F8
F4
00
FD
EC
01
FA
01
F6
00
02
F3
02
00
FF
FD
04
07
FE
05
04
05
01
04
07
04
00
FF
05
07
FA
03
FE
FB
F8
00
F3
03
08
0D
F7
FE
F9
00
08
FF
06
05
01
08
FB
FB
FD
FB
F8
05
FC
01
FF
08
FD
06
08
FE
F9
01
FB
FE
0C
03
07
00
F6
00
FB
F5
01
00
FC
00
FF
FA
FE
F9
00
FF
FB
FA
FD
F7
06
09
01
FF
FC
04
FE
FD
01
03
ED
03
FF
04
FE
03
F9
01
04
F7
05
FD
FA
01
03
FD
01
02
FC
03
02
F8
01
02
FF
05
03
FB
F1
05
FA
FE
03
02
05
00
10
FE
00
05
FE
01
FD
01
FF
FD
04
02
FA
FD
FB
03
00
01
00
FE
FE
FC
04
09
02
FE
FF
FD
FA
07
02
FF
04
07
F9
01
FE
FA
FD
00
01
F8
03
00
00
04
06
FB
FF
FC
F7
08
01
FB
FF
04
F7
FF
10
0A
05
0B
F8
FE
F9
02
00
ED
FD
FD
05
FA
01
02
FE
FC
FA
F9
F7
F5
09
FD
00
F5
F5
00
FB
14
FC
FA
06
FD
F5
04
FE
FB
05
03
FF
05
FB
FC
FE
FB
FE
03
01
F2
FF
00
FA
06
08
03
FE
FC
05
08
FD
01
F4
05
00
FF
FF
FA
05
05
F7
03
07
F3
FB
FA
FF
09
01
05
FC
02
05
FC
02
EC
01
01
02
01
02
01
09
0A
01
05
09
02
F7
00
00
01
02
FE
FF
04
03
0F
07
04
F4
04
FD
FA
FC
FC
07
FF
0F
F9
00
06
11
03
04
00
FD
00
02
06
FD
00
02
01
05
06
FB
02
06
F7
06
F9
0E
01
F7
02
00
FF
04
F8
03
FB
09
01
00
06
FF
02
F1
FA
06
01
F2
06
03
00
07
01
FC
F5
07
FC
04
FE
FD
FE
FC
00
00
02
0D
FD
F7
01
FF
01
FF
02
F9
03
04
F3
08
FC
03
FD
04
0B
FC
01
FF
00
06
02
FE
FF
FF
02
07
FE
FF
FC
0E
FC
04
04
FE
05
FF
03
FF
01
0B
FC
0F
05
08
01
0B
0A
04
10
FB
02
F6
01
03
02
07
04
FF
02
FB
01
01
FC
07
FE
FD
06
0B
FB
FB
FE
05
02
03
FA
FC
0C
FB
FE
01
EC
FE
F9
F9
F9
05
FA
05
07
FB
FC
FC
00
08
0D
F5
01
05
04
01
07
FE
F8
FA
EC
E7
FB
EF
12
F1
FE
04
FA
FB
FF
F8
FB
FE
F6
F0
F8
09
F8
F8
0C
F9
FE
00
01
02
FD
02
01
FE
01
FB
00
04
FE
11
0B
05
00
E9
02
F7
FE
FC
FC
F9
FB
FC
FD
FC
FB
00
03
FF
02
FF
FC
00
EC
F7
F1
16
03
03
FD
0A
05
FF
FD
FF
04
F6
FB
08
FA
FA
FC
F3
08
FE
FB
FD
F8
EF
FB
F8
06
FE
03
03
05
FF
00
01
FE
F9
F6
0A
FF
FD
F5
01
00
FE
FC
06
11
02
00
01
FC
02
00
FA
FF
D9
03
06
00
02
FA
F7
F9
FE
FC
FA
05
04
FE
FE
FC
FA
F9
02
FE
00
00
04
F7
FA
07
02
F5
F2
FD
04
EC
01
01
F3
FD
ED
03
F5
02
08
FE
04
FE
FA
02
05
EA
04
FF
F3
04
FF
02
FC
08
FE
05
FB
FE
F9
07
FB
FD
01
04
F6
FC
FD
02
FF
14
F7
19
00
FE
FE
FD
F8
FD
03
FE
F6
FE
FD
F8
0B
F7
02
FA
FD
07
FF
00
00
FF
08
00
FA
00
07
EF
F9
1E
F0
F2
03
08
01
FF
F9
02
0B
FC
06
FD
FE
F4
F7
07
FA
ED
F6
03
FD
19
FF
F6
03
07
05
00
F1
FB
FB
FE
ED
E8
03
F9
0F
FD
FE
00
12
02
F4
FE
FD
E7
00
ED
F8
F1
E9
EE
FB
01
FB
E7
EB
FA
FF
06
05
04
07
F8
FE
FD
09
00
FA
02
05
10
F1
0B
FF
FB
F9
08
0F
F1
F2
F1
FF
F6
FC
FF
E3
01
01
00
F3
FE
FD
F4
03
FD
F4
FC
ED
08
03
00
04
17
D2
F3
04
FC
F7
F1
0D
F9
08
FB
F8
07
15
F6
02
EE
03
FE
06
00
FA
F9
00
03
FE
03
04
F8
FD
02
EC
F8
F1
EB
01
00
FD
00
02
ED
02
FA
FF
00
07
FD
F7
05
F6
ED
05
03
06
03
F7
06
05
FE
FE
FA
02
FF
00
05
FF
05
FC
04
00
07
F8
EF
0C
FF
FE
FD
CF
0B
F1
02
03
06
FD
FA
03
FC
F5
E2
02
FC
FE
F9
F1
FB
D1
FE
FC
DD
03
F5
FE
FD
F9
06
04
FB
02
F8
F6
0A
F8
FF
00
03
C3
FB
F5
06
1A
F7
FF
F7
01
F9
E2
00
D1
FC
FB
0E
D5
F9
06
F8
FA
0E
04
FA
FC
F9
07
FF
05
FB
F2
F5
FC
03
F4
06
FB
FB
FD
04
00
03
EF
FD
F9
DC
FD
E2
03
FB
01
EF
FD
01
FC
F8
FC
02
04
03
FA
13
00
F6
FB
FD
F9
FC
FC
FC
FF
F9
F9
00
05
01
0D
F8
00
04
FF
FD
0A
FE
FE
F9
FE
FA
F7
FE
06
FD
F4
F7
F7
00
F4
FD
FB
09
F8
FE
01
FB
06
02
FE
FC
08
F9
F4
FD
F6
00
02
FC
00
01
00
06
FD
FD
01
F9
F5
FC
FA
01
FB
03
FE
FF
06
F8
FA
F6
03
09
F9
FC
FC
02
02
00
F6
FD
FE
F0
0D
F8
FA
FB
06
FF
03
F9
02
F9
04
04
04
FD
FD
EF
FC
0D
F9
FA
00
FD
00
FB
FF
FC
01
FD
FA
F9
F9
FF
07
FD
FE
02
FE
04
F1
FC
FE
FE
01
01
00
FC
00
03
FD
FE
FA
FB
FB
01
04
FF
00
F9
06
F9
F2
07
05
00
FE
F9
FA
F3
FA
01
05
FF
F1
0D
FE
FC
00
03
F9
F8
FE
FC
FA
F1
00
FE
E5
FE
F7
04
FF
FD
FD
01
FB
FF
FC
EA
04
FE
FF
FE
FB
08
FE
0D
01
04
F9
FD
F9
FE
00
FB
01
FF
05
00
FF
FE
FD
F9
FB
01
00
FE
FB
FE
FC
FB
FA
FE
02
FE
FF
00
01
F5
00
FB
FE
FF
FE
06
02
04
FB
09
07
FB
06
08
01
F9
00
FB
03
02
04
08
08
00
06
FA
05
03
06
04
03
FC
01
05
07
00
FD
03
FF
05
05
FF
04
02
06
04
05
07
02
01
07
FA
05
06
08
02
01
06
FF
04
07
00
00
03
04
F5
FF
05
02
04
02
05
01
02
03
00
08
01
03
FD
05
FF
08
05
05
05
02
10
03
05
08
06
02
02
04
02
04
FA
04
01
08
04
01
04
05
01
03
05
08
00
09
02
05
02
06
03
06
F9
03
02
FE
05
04
FC
05
06
03
01
01
07
05
03
01
06
04
04
FF
01
FE
02
07
02
04
05
05
02
05
03
02
04
FD
04
07
07
02
FF
01
08
FE
02
02
FC
06
FF
FF
05
03
06
09
06
07
02
01
01
03
FF
01
01
00
FF
00
FF
F9
FF
09
03
03
FE
08
03
02
F5
02
FF
07
03
FE
FC
03
04
01
08
04
FF
FC
01
06
04
EC
07
02
03
03
04
04
04
01
FF
01
00
02
04
FE
00
05
00
03
03
06
04
07
00
06
08
07
06
05
01
07
05
F9
03
06
01
00
02
03
05
04
02
00
00
00
03
00
00
03
04
06
00
FC
EF
00
F1
FE
FC
F6
FF
FE
EC
F6
F6
01
FC
F7
F5
FC
01
ED
F1
FC
09
FC
FC
FB
FE
09
01
FE
FA
FF
07
04
05
03
F2
F9
01
06
F1
FC
FD
FA
00
FD
06
04
FD
06
FF
EE
03
F6
F9
04
F9
FE
FE
FF
07
FD
1A
03
F7
F5
01
F5
F8
F8
FD
EA
FD
05
F8
05
FF
04
FB
F9
FF
F6
FE
03
F9
FD
FF
11
FC
FF
06
FD
FD
FC
FA
03
04
01
FD
ED
F3
FF
FD
02
01
FA
ED
06
F9
01
F9
FF
F4
E7
00
06
FA
FD
FA
FA
FF
FB
04
FA
09
FC
FC
FB
0C
02
F3
FE
00
FD
EA
03
FD
FB
E7
EE
FF
00
F1
10
FC
FD
01
FF
08
FB
00
01
F7
00
FA
02
FC
F5
FF
0A
F8
04
FD
04
03
09
F9
FA
01
01
FC
00
EE
F1
F6
EE
F9
01
FC
FB
01
FF
FE
FA
F3
FD
01
F4
E6
07
00
FC
02
FF
F4
FC
F7
FC
01
01
F1
FE
04
06
E9
02
02
03
00
FC
03
FA
F3
01
0D
FD
00
FD
0C
02
03
06
FB
E2
FC
FB
00
FE
05
06
FE
FF
FB
F8
FF
F5
F6
FC
FE
01
02
01
F5
06
03
06
FC
F8
FE
FF
FD
04
01
FC
FD
04
00
03
F8
03
FE
FE
FF
00
06
FF
FD
04
00
FE
01
FC
F7
FF
02
08
04
01
09
F9
FF
F9
FF
FD
00
04
00
FC
03
FF
01
01
05
FC
03
03
FF
FE
00
05
03
05
FA
05
FF
FF
0A
FD
00
07
04
00
05
FB
01
00
04
02
00
04
FC
FD
FE
01
05
FE
03
0A
00
FF
02
05
00
02
00
FE
FE
FE
02
F8
09
04
03
04
00
F5
FF
FC
FE
FC
05
01
03
00
01
FB
02
0C
09
F1
04
02
00
04
00
F9
03
03
FB
FA
FF
FD
02
04
F9
00
0A
FF
FD
FF
02
FC
01
FF
FB
00
01
FE
FF
FF
FD
F8
02
FC
F7
00
F6
F9
06
FC
00
FD
F9
FE
01
08
01
F5
00
FE
00
05
F4
FB
0B
FC
0C
FB
08
FE
FE
01
F7
FA
FE
FF
01
02
FD
02
FF
FD
FE
04
FF
FD
04
02
FE
F6
01
01
03
04
FF
00
FF
01
FE
00
17
00
02
05
FE
0A
F4
00
05
00
FE
04
01
F8
FB
05
F8
01
02
FF
04
02
FE
FE
01
FD
FF
FE
FA
FF
03
04
FF
02
00
05
FC
00
FF
02
07
FF
FD
01
03
00
FB
FF
FC
00
03
FF
07
FA
FD
05
FA
FF
00
FF
01
00
01
01
FF
07
03
04
08
FD
10
04
03
03
F9
02
FA
07
F5
FA
08
02
0B
00
07
FF
FD
07
07
F6
08
FF
FC
F7
03
07
FF
07
0B
06
FD
FE
00
FD
05
00
FE
04
00
00
FD
FA
01
06
02
05
05
03
F9
FB
07
FB
F6
03
0A
FE
FE
07
FF
06
06
02
F6
05
09
0A
01
02
FE
FA
FB
FC
FC
FA
FA
04
FE
05
0C
FF
FC
FE
07
06
FC
FF
FF
13
E7
FD
04
FE
FD
0A
F1
01
0E
08
FA
02
FF
FD
FE
03
04
FB
00
01
01
0B
FE
07
F6
F5
01
00
FE
00
05
FC
FC
07
0D
FF
02
00
F8
00
01
02
10
07
FD
02
FF
00
07
FD
FF
09
01
02
04
FF
04
05
FF
FC
F7
01
03
03
04
01
08
05
F0
05
FD
FE
00
FE
07
03
FB
F7
02
EF
FD
FF
FE
02
08
FB
F9
03
02
FD
FF
02
02
FA
04
FE
FE
04
0D
FC
00
00
06
01
FF
FB
0C
05
01
0B
00
09
09
EF
EF
FD
FB
03
FD
01
FB
05
04
07
FA
F9
FB
02
FF
FD
FF
FE
02
FE
00
00
0A
FB
05
00
FB
11
FE
00
F3
FB
00
FD
09
05
F9
FD
04
FD
FA
FC
02
0F
FD
EE
FD
02
F4
F6
08
F9
01
FB
FF
02
F1
F8
08
FB
FE
F9
12
F9
E3
EB
F1
F5
06
FF
0E
FB
FB
04
F0
00
00
08
04
08
FB
00
0B
FE
FE
FC
F0
FA
E3
EC
00
EE
02
FE
04
F8
0A
FC
01
02
05
F0
F3
FF
EB
18
F5
07
05
01
06
04
FC
05
03
FF
01
FB
F2
EE
F3
02
F6
E8
17
FF
09
04
05
03
25
07
F8
FC
FB
03
05
F1
1C
03
FA
FE
FD
01
0C
F7
02
04
FE
03
F6
02
FE
02
FE
E6
05
06
FB
FB
F0
F7
06
0B
04
F8
F9
F8
F6
0B
F3
03
FE
FB
FD
02
0F
01
FC
01
FF
FA
FA
FC
F8
09
01
F9
F5
09
FE
10
05
FF
FB
FA
F6
FF
FE
0C
FB
F8
00
FA
FE
F4
08
FC
F5
EF
0E
01
1C
01
00
02
06
F2
F5
FD
F6
EF
FD
03
01
00
FC
FA
14
0E
F4
CD
07
05
04
00
03
05
FC
02
FB
06
F5
02
01
FE
FF
F9
02
E8
FA
05
02
FC
01
07
0C
FF
03
FF
00
FC
08
00
01
F8
FF
02
05
D1
04
13
08
00
F9
FD
05
00
07
FA
FC
EF
FC
16
FB
FA
F6
08
FC
F9
F3
FE
02
FE
04
04
08
01
01
0E
FC
1A
FE
FA
FC
04
10
02
01
02
02
1D
05
FE
15
02
FF
03
04
00
FE
0F
01
00
F8
04
00
FD
03
0D
00
F3
0F
0D
07
07
05
04
06
F7
04
FD
08
05
FD
07
0A
F9
02
F3
10
0C
05
0D
F5
FB
F9
14
04
FF
FE
F9
FB
FE
FB
13
06
00
FD
08
0B
0B
0B
03
03
FE
12
01
01
02
02
04
F9
00
02
F9
FF
FE
09
FE
25
02
FE
0A
05
08
FC
07
09
F7
0B
07
01
05
FD
04
00
F8
0C
FE
08
02
01
02
15
F9
0C
01
0A
01
08
00
F2
03
07
0A
03
03
FC
00
FD
02
DE
07
FB
F8
03
05
0C
FF
02
04
09
FC
00
FD
04
FD
FD
F7
00
FB
02
03
0E
F8
07
FD
01
FE
FC
01
02
02
F9
07
03
FD
FE
01
0D
FF
09
02
E5
FF
06
03
03
03
00
F1
01
F3
FC
07
F1
02
FD
0F
02
01
02
06
02
11
08
04
F6
F9
14
FD
01
05
0A
FD
0A
FE
01
07
09
FC
F9
06
0B
02
01
FD
03
05
F9
FE
06
03
01
01
FE
0A
09
05
FD
F4
01
12
00
FF
01
FF
06
0A
04
FB
0E
03
06
04
F2
05
05
09
02
FD
06
FB
05
F3
F7
01
01
00
F1
0F
03
FD
F6
05
00
00
02
00
FE
0A
FF
F1
05
FD
02
0C
12
0A
07
EF
FF
01
09
05
F7
01
FE
FA
01
FA
04
01
0B
F3
16
FD
0D
FD
03
08
FF
03
06
03
FF
00
0F
0A
16
04
02
EF
0C
02
04
04
34
09
FE
FD
03
FE
F6
FF
05
FA
FB
06
07
ED
01
FC
FB
0C
09
01
08
0A
03
07
04
0A
FF
FF
06
F6
FE
0C
10
F7
FE
01
FD
03
02
03
02
0A
09
09
FD
FA
08
05
04
05
FE
08
02
07
1A
F2
FA
05
05
06
FC
04
F9
04
FC
04
FA
FF
06
FF
FD
04
FD
12
FB
F8
04
05
04
F7
03
FC
04
FC
02
05
F8
03
0C
FD
20
FC
1E
F3
0C
FE
12
FF
06
FC
FD
F8
0B
02
FD
FE
0B
0E
14
10
FB
0C
08
FE
06
09
FD
FD
02
FA
08
0B
03
05
FE
00
04
0D
07
04
00
08
05
08
FB
FC
00
0B
F6
F7
0D
17
02
F9
FE
F9
03
01
00
0C
04
0C
08
F7
0B
02
F8
09
03
06
FE
FE
08
FC
FE
00
FC
F9
01
00
F8
FC
FF
0C
FD
01
0A
00
FC
02
03
00
10
02
FE
03
04
02
01
FE
FF
07
04
03
00
0F
F9
FF
00
FA
FF
FB
FE
FD
02
F7
FE
FD
04
FC
0A
02
FE
FA
04
01
FC
00
08
00
FB
01
F8
FC
FB
FE
F9
00
FC
FA
FD
F9
FA
FE
01
FC
FA
FD
F9
F8
02
FA
FC
FE
FB
F9
FF
03
01
FD
FB
FB
FF
FA
FC
FE
FE
FC
0A
00
FF
FF
FE
FF
FB
FA
FD
FD
F7
FE
05
02
FB
02
FE
FB
FF
FD
FD
FB
FA
F8
00
FF
FB
FF
FB
FF
FA
00
05
00
FD
01
F9
F9
00
F8
00
FB
FD
FA
01
EC
FF
01
F8
FB
FB
FD
00
FD
FC
FB
00
FD
F2
FE
F9
F7
00
FB
FF
02
05
FA
01
F9
FB
00
FA
FC
06
F8
FA
FD
FD
FA
FE
FF
FE
FC
00
04
FE
FA
FF
00
FB
04
FA
FF
F9
FF
FF
FC
FF
FD
F9
FF
FB
FB
FC
FB
FC
FF
01
FA
FD
FC
FB
FF
FF
F9
FC
02
FF
FA
02
00
FB
00
FA
FE
FE
FF
FA
02
F9
14
F9
FF
00
FB
FF
FA
F9
04
F6
02
FF
02
FC
FB
FA
FA
FA
01
00
07
F8
FD
FA
01
FD
F8
FD
FD
FD
FC
00
FE
FA
FF
FD
FD
00
FE
FF
FB
FD
FA
FF
F8
FF
FC
FB
FF
00
FD
00
FB
FF
FA
FB
F8
FB
02
FD
FB
FB
FB
01
FE
FD
04
17
FF
03
09
02
FE
07
05
FE
FC
F6
FC
FD
03
04
F8
FD
05
FE
03
07
00
FC
02
FD
03
FD
FA
02
05
02
05
14
F9
04
05
01
FB
01
F9
FF
FE
FD
09
03
01
03
04
00
F7
08
04
FB
02
0A
04
05
FF
F9
FF
06
00
06
01
07
01
03
F9
07
02
F6
00
01
05
04
02
00
04
FE
FE
00
04
FC
FE
F8
00
03
ED
FE
02
02
00
F9
FF
06
FC
01
FD
06
06
02
FF
01
05
07
03
03
00
06
FE
02
02
00
06
0B
01
F5
07
04
05
02
F9
02
FF
F5
01
07
01
05
01
09
06
FC
05
08
05
FD
01
07
02
03
07
FE
00
01
FB
FE
FD
FB
03
04
05
01
05
09
F9
01
00
FF
FC
05
01
11
03
04
09
00
FD
FD
FB
03
0A
FB
FD
05
FF
FE
05
F9
00
03
03
FE
F9
0F
00
01
01
FF
12
FD
0B
05
03
02
FA
00
06
01
04
05
FE
FA
08
03
FB
09
03
01
06
FF
00
02
01
00
01
01
05
07
FD
07
01
01
07
FF
03
00
03
01
01
FD
04
05
07
FE
03
03
FF
09
0A
0C
00
FF
FE
00
07
02
02
02
06
01
02
FF
F7
01
01
F8
06
02
00
05
05
04
06
06
01
0A
FA
FC
FF
04
0D
FF
FE
0E
00
00
FD
01
F5
FE
02
05
08
03
FF
03
FF
FC
06
FE
01
01
01
02
FE
00
06
01
06
01
01
F1
FE
FA
08
07
00
03
F8
FC
FE
FE
00
FE
FA
04
01
03
03
05
F9
F8
0B
FD
FE
02
04
F5
02
03
F6
07
F9
0A
01
01
06
01
03
08
FE
FE
09
FC
FF
07
01
10
FE
02
0E
FF
FC
01
07
01
FC
FD
07
04
02
00
02
14
06
01
01
FD
06
F8
FD
01
F7
FD
00
00
03
02
00
FC
07
FE
FF
02
FE
FD
02
00
FD
F6
03
FA
FF
05
04
00
FD
00
02
01
08
00
05
FE
00
00
FF
01
03
04
FF
FD
FF
04
04
00
FF
FE
FC
FF
00
FF
FF
F8
01
FC
04
00
00
FF
FC
00
FD
02
FD
02
06
01
0C
FF
01
00
FE
FE
FB
0B
01
01
01
FC
FD
FE
00
05
00
01
02
06
02
FD
01
FA
00
03
03
FF
FF
FA
F9
00
00
FF
FB
02
FE
FC
FE
FD
FF
01
04
00
03
FD
01
01
00
FD
08
00
00
FD
FF
01
03
08
01
08
FE
02
06
01
03
FF
00
09
F7
FE
01
FF
FF
00
02
01
FA
04
06
FF
FE
FB
F9
F9
00
FD
FF
FD
FF
F9
03
06
FA
02
FF
FE
FD
F8
FB
FE
FF
FE
FB
01
F7
00
FD
F8
FE
FF
01
FE
00
FA
03
00
03
FC
FC
FC
FF
FD
FD
FD
0D
01
FC
FA
FE
FF
00
FD
F7
FA
03
FB
FA
FA
FB
FD
01
FC
00
FC
FD
FA
00
01
FE
F8
FD
FB
F8
06
00
F8
FC
FD
FD
FB
06
FC
F9
FF
F9
08
FE
03
FF
00
FC
F9
FE
F9
01
02
F9
F8
FA
FB
FD
F7
F9
FA
FF
F9
FB
FC
05
FF
00
01
FE
FE
FA
FF
FA
FF
00
FA
02
06
FF
F9
FD
FB
F8
F9
FD
FC
FB
FF
FD
FA
01
F9
03
FB
03
F8
F9
FA
FF
FD
06
FB
FA
FA
FC
00
FD
FD
FD
F6
F6
FC
FE
00
06
FB
FB
F9
FC
FB
FA
FD
FF
FE
02
00
FE
F9
F9
F7
FA
02
FF
FA
FF
FE
FF
02
FA
07
FE
FF
FE
F5
FF
FE
FB
01
FD
FD
17
01
FD
FC
FB
FE
FE
FC
08
FC
FC
FA
FB
01
00
FE
FB
FC
01
FF
00
FE
00
FF
FA
FF
01
FB
FE
FD
06
00
00
F4
00
FE
FC
FD
FD
01
FC
FD
FE
FA
FD
FB
03
FE
FD
00
FE
04
05
EF
ED
F9
FB
F4
04
FC
FC
06
12
06
0B
FF
0E
24
04
FE
03
04
04
FC
01
09
F1
06
F3
04
01
10
07
04
08
03
02
00
0C
F0
05
FF
FE
07
EF
FF
06
FB
06
00
FE
03
F3
06
0D
06
0B
07
ED
0A
07
0D
F7
00
03
F0
F8
00
05
08
F4
FF
04
0C
05
03
02
0F
03
03
FE
07
FB
FE
00
04
00
FE
FD
FB
0B
00
07
03
F8
14
FD
FF
02
07
09
00
00
02
02
06
0A
F6
01
01
FE
0A
01
FF
06
0A
ED
FD
00
01
01
07
06
01
12
0B
08
F4
F9
00
03
FA
FD
F8
F7
FE
FC
FA
07
08
09
FD
06
0D
00
02
FB
00
08
FF
F7
F7
F6
12
FD
EF
07
01
FC
FF
FD
FB
F6
FC
F7
00
FF
F9
EA
17
01
0E
03
02
F7
05
F0
FA
03
F9
02
0B
04
F9
F5
02
FD
FF
FE
F7
FB
07
04
04
09
FE
07
03
F8
FD
02
00
0C
06
FE
F8
FB
00
03
03
05
F8
0F
04
02
FE
06
FA
02
FC
FE
00
0F
FD
04
EC
FF
FF
05
F9
08
FF
FE
04
F8
04
00
F9
04
0B
F3
FD
FF
FF
0D
FD
01
05
EC
04
0E
F8
F2
0D
F9
03
ED
11
02
FF
FF
07
FA
07
0E
FD
0F
05
09
03
07
FF
00
FD
1B
02
06
00
07
17
FE
03
01
01
09
FD
FF
03
02
FD
00
00
0A
07
04
04
06
02
04
06
FF
00
06
01
01
01
02
02
01
FD
0A
00
01
02
10
01
09
07
FC
FF
06
FC
F8
FD
FE
07
FD
FF
FA
FD
F8
07
02
FC
01
FF
FD
FA
F5
03
FD
FF
07
0A
01
FD
FF
FF
05
FA
0B
02
09
03
F9
00
0A
01
00
FE
FB
00
00
03
0B
FF
FC
06
04
02
0B
05
06
FF
FA
06
02
00
08
FB
06
FD
03
FE
FF
02
04
00
04
FD
07
FD
00
FC
01
08
FF
FF
01
08
00
01
02
03
00
02
FA
04
00
05
FE
08
04
07
FE
0D
08
00
FF
FE
04
00
00
FC
01
0E
FE
01
05
F9
03
00
01
02
F7
FF
FF
00
06
00
00
FD
F5
FE
04
FF
FE
03
F9
FF
02
F9
08
FE
04
03
FC
00
FF
06
02
05
F7
05
FF
01
FF
02
02
FF
02
01
FA
04
02
01
05
00
03
02
FB
F9
09
01
0C
01
FD
00
01
FC
02
02
01
04
03
FA
01
01
05
FE
0A
01
07
FB
03
FE
0F
FF
00
05
00
08
01
FE
02
03
04
01
04
FF
F7
01
05
FA
03
07
07
07
00
FE
06
FD
01
04
FF
EC
FF
01
FC
FB
07
00
00
06
FB
FC
F6
00
04
FC
03
02
03
03
02
01
00
08
FE
FA
03
00
FC
09
01
06
F6
04
03
01
05
08
F9
00
03
F5
FF
01
FB
FB
02
04
F9
FD
02
07
0F
02
0A
07
05
FF
FD
F9
FE
06
05
FF
01
FF
02
06
03
00
FF
FA
01
E7
03
05
FF
07
00
09
FF
00
F7
00
FE
03
01
03
09
00
FC
FE
04
FC
FC
FC
F7
FA
02
F7
FF
FD
05
03
FD
07
09
FC
F9
FE
04
FF
00
05
FF
F3
06
04
06
04
07
01
01
09
FF
FF
0B
FA
02
03
0F
FD
06
FD
00
01
09
FB
0C
06
03
06
06
03
04
FF
FE
FD
02
03
02
FC
05
FF
FF
06
FA
0C
05
02
12
09
01
07
03
00
FA
04
FC
06
02
04
02
FE
04
FD
F7
00
00
02
03
03
01
FD
09
06
02
F8
F9
06
09
04
04
02
FE
FC
04
FF
FF
FD
02
FE
06
FC
01
05
04
04
01
F9
06
FB
F3
04
00
FF
06
02
02
FB
F5
07
04
02
0F
06
0F
EC
04
FC
FF
00
00
02
FE
05
FA
F8
FF
F9
FA
06
FC
06
03
FC
FF
06
04
03
03
03
F0
00
FD
FB
01
F8
F7
FD
F9
05
F9
0A
F9
03
00
11
04
01
FF
06
F8
FC
F2
FD
FF
F8
FF
FC
00
01
03
FB
FE
FB
FD
FE
F8
FC
F6
02
00
FF
FF
06
F8
03
FE
F7
01
04
01
01
00
FE
FE
FC
FC
03
01
07
FF
03
FD
03
F8
FD
04
FA
F9
FD
FA
FE
FF
FA
08
F9
FB
F8
00
00
FA
00
02
FF
FC
FE
00
04
FD
FA
FA
FE
FE
FF
FE
05
FE
FB
00
FA
FC
0E
FE
09
FF
FF
FB
F8
03
FB
FB
00
03
06
FA
FB
FF
F9
FC
F5
FD
FF
FC
09
F9
FB
07
F4
03
F9
00
FE
FF
01
F5
00
F9
FD
F9
FA
FC
F3
FD
00
FD
FD
FF
F8
FD
FF
FB
02
FF
FD
00
F6
FF
FE
FD
FE
05
00
FD
02
F9
FE
FD
07
F8
FB
FE
FD
03
FB
FF
F5
FA
00
FB
FD
FE
00
F8
FA
FF
FA
F9
FE
00
00
FC
F8
F4
FD
FC
FB
0B
04
04
FF
FF
00
05
00
FC
F7
F9
FB
F9
FC
FF
08
FB
FD
F8
FD
00
FE
FB
08
01
01
FB
FF
FD
FD
00
FE
FB
FB
FF
FB
FA
FD
FA
04
FF
F9
FD
01
04
FC
FF
FC
FC
FE
FB
FB
FF
01
00
F9
FA
FE
04
09
FF
F9
00
FE
FB
05
06
02
0B
04
FE
03
FF
F8
F9
00
FC
FA
FA
FA
FB
FC
F8
FF
FD
FE
FC
FE
FA
0A
FF
04
FB
00
FE
FD
FE
F9
01
FE
FA
FC
01
F9
FB
FA
FD
00
FB
07
02
FD
F8
0B
07
01
01
FC
FD
FD
FA
01
06
0A
01
FF
F3
04
F9
01
FA
FD
FB
FD
FC
FB
03
03
F9
F8
0A
FB
FF
F6
FE
FD
04
07
FB
F9
FE
02
F8
FA
FD
FB
FF
FC
09
FD
01
FD
03
00
FF
FC
F7
F9
00
FF
00
00
06
FB
00
04
00
FE
FF
FA
FB
FE
F8
FC
FE
FE
0C
FF
03
FF
F1
FD
FE
FE
01
F9
FD
FF
FF
03
F8
FE
00
F8
02
F9
FE
03
FA
00
FC
02
F1
FA
F9
FE
FD
00
FA
01
03
FD
FA
FC
FE
F7
FE
F9
FA
FC
F9
F9
00
FE
FD
FD
02
FA
FC
FC
05
FF
FC
F9
FC
F8
FC
FC
05
FF
FE
0E
F3
F2
FF
FB
07
FB
F9
05
FD
FF
F9
FD
00
FC
FF
05
FE
0D
FF
02
FE
F4
FD
01
FE
FE
FE
F7
F8
FF
F9
01
02
FA
FC
FC
F8
FF
FF
05
FC
04
FA
FF
FB
00
F6
FB
F3
04
07
08
FB
FF
11
FE
FF
03
01
01
00
F9
05
01
FF
FF
F8
FE
01
01
08
00
04
05
0A
02
FE
FE
FD
03
FF
FD
FF
04
06
02
FF
05
FF
00
00
01
03
00
FF
07
04
FE
FF
01
02
FD
03
07
F7
F8
F8
02
05
FF
09
FF
FA
02
03
00
FA
01
00
02
08
01
01
03
FF
FA
FB
02
08
F9
00
FF
FE
02
02
FB
01
FE
FD
ED
08
FF
01
FC
F9
FE
FF
00
FF
F8
03
08
00
FF
FB
04
03
02
FF
FF
06
03
FB
F8
FA
FE
02
05
00
02
FC
01
01
FF
FE
FB
FF
FA
FF
08
FD
07
FF
FF
F9
FC
07
F9
FF
FF
F8
FE
01
FE
02
FF
03
03
03
00
01
05
01
F7
FD
FD
08
01
00
FE
03
FE
FD
07
F5
00
FE
FE
FF
FE
00
FF
00
01
08
00
01
FD
F2
FE
FD
05
0B
00
01
00
FD
02
FD
03
FA
F4
09
05
FF
0D
FD
04
FD
04
FE
02
01
FE
0E
F6
00
FD
FE
FA
03
01
02
FE
FE
F9
FB
FF
FF
04
FF
05
FD
FD
04
00
01
01
FD
F5
FE
04
FF
02
01
00
00
F9
01
04
FD
FE
01
FC
F6
03
01
06
01
FD
FC
FB
01
FF
FC
02
10
02
05
F7
FC
01
05
F8
FE
FB
07
F9
01
F8
00
00
00
00
01
0E
F9
04
F9
FD
01
F3
FF
FE
00
F2
F9
FA
01
02
FF
FE
05
FC
FD
03
01
06
03
00
04
E9
F0
FD
01
FB
00
05
03
FB
FC
12
02
0B
02
02
02
FF
FE
FB
F9
07
F8
FA
FF
0D
FD
FE
FD
10
FF
F5
0A
FA
FA
FD
FC
F9
02
01
FE
FA
F1
01
06
FC
FC
03
00
0C
FD
0A
04
05
FE
05
01
05
FC
FE
06
F6
FD
05
FF
05
00
FE
00
FB
FD
FB
F7
FB
FC
01
00
FE
00
FF
FE
00
0B
06
FC
F2
02
FB
05
01
FB
02
02
FD
01
06
FF
F8
FE
FD
FE
FF
FA
06
FA
06
02
FB
04
02
0B
00
07
FB
F8
05
02
FC
06
FF
F9
00
01
06
F2
FF
02
F5
01
FA
F4
02
FB
01
F7
04
FE
FD
F3
02
03
08
06
FF
F6
00
08
00
FC
FD
03
01
FE
05
00
FD
FD
05
00
FE
FB
03
00
09
FF
FC
F9
02
FC
FD
FE
FF
F7
EF
FB
09
FF
FA
00
FE
00
03
FE
02
F3
FD
07
01
FF
01
08
02
FE
03
FB
FC
FF
04
07
FC
FF
FA
F9
03
02
03
FE
05
F9
03
FA
FF
FE
F3
01
00
FF
FE
08
FD
02
05
04
00
FE
04
FC
FF
00
E9
04
FB
FF
FB
01
FA
FA
FE
04
F5
FE
FF
0A
FE
03
00
FC
F6
FC
13
00
07
01
02
04
12
0A
FF
FA
FF
06
FB
00
FB
08
03
FE
FF
FB
0A
FF
FF
F6
F5
FC
FA
00
03
FF
00
05
0A
01
05
FF
08
F8
FE
07
06
FA
FE
23
04
02
FA
14
F8
F8
F9
06
F9
01
06
00
03
01
01
07
03
04
FB
00
F8
FA
FC
02
FB
FC
EC
06
02
FD
F9
07
FF
03
01
07
00
F8
FF
FD
FE
FE
05
FB
04
FC
05
00
FF
04
03
F9
FF
00
03
0E
02
F3
06
02
04
02
FA
04
03
FC
FD
01
12
FF
02
02
05
09
03
FD
FB
05
FA
F8
FD
02
F6
F6
07
00
FD
00
F5
06
04
FB
FB
FB
03
04
01
00
0E
01
F6
01
FE
06
09
01
FC
00
05
02
00
FE
05
FC
00
FF
04
F5
03
FE
03
FD
03
03
F5
04
FA
06
08
01
10
06
07
FA
00
0F
04
FC
00
05
05
FC
FF
FD
FD
00
14
FE
FC
FE
FD
08
FF
F7
08
0A
01
00
10
00
FE
04
FF
F5
FC
03
03
15
04
01
FE
00
FD
FA
FD
06
09
05
FA
0A
02
F7
0C
F8
28
04
05
F8
FE
FE
01
FA
0B
06
F4
FD
FD
F9
0D
11
FC
F9
FD
08
04
08
01
0F
00
EB
05
FF
00
00
00
07
FE
0A
FD
F6
01
FB
FE
04
FF
FB
FD
05
FF
09
F9
0A
FD
08
03
08
05
06
F8
FD
FB
05
FE
0E
FC
07
FD
06
FE
06
FC
FE
03
08
05
FC
FD
FA
05
06
FD
FD
02
0D
FE
FF
F3
06
00
F8
05
EB
05
05
08
02
06
04
06
0E
02
02
FB
05
06
F2
08
03
04
00
FE
00
02
09
08
05
04
FC
0B
FB
04
FE
FC
00
04
07
0B
F2
02
01
FB
FB
03
F6
F6
05
04
0B
FD
FC
0B
03
02
02
04
09
FF
F9
06
07
FA
00
00
FC
02
FE
01
03
0D
04
06
02
03
04
02
ED
F9
11
03
07
0B
0D
03
03
06
08
F1
04
F7
FC
F8
FE
02
0C
0A
0A
09
04
FF
F7
04
03
11
07
F4
FF
0E
FC
EB
02
05
FA
01
01
0A
02
FA
FA
05
0B
FE
02
FB
03
F7
06
04
05
00
FC
15
FC
00
FF
FD
07
01
1F
FD
0B
F7
01
FF
FE
09
FD
02
FB
FF
01
04
FB
0B
0C
01
FE
FA
01
FE
06
FF
06
17
FB
F8
07
01
FE
08
03
FD
FD
00
03
0C
FE
03
02
FE
05
05
01
07
F7
00
FC
0B
00
0A
11
F8
09
FE
04
F4
07
01
00
FC
02
02
05
FF
08
04
03
08
FB
EF
02
F6
FD
17
F7
0F
0A
FF
00
FB
FF
05
FB
F2
01
01
09
14
03
02
0A
FF
11
F3
05
FA
FD
FA
07
03
14
F7
FD
07
08
07
F9
FD
FC
FA
FE
F6
01
F7
0C
F5
02
04
FB
03
05
FF
05
F7
FD
FD
07
11
09
05
FD
09
03
01
FB
02
FD
04
02
03
FA
03
FF
FA
00
FE
FE
FD
FC
F8
0B
03
F8
07
FF
05
F4
F1
FF
01
00
07
00
FD
FC
09
FA
FD
03
06
F5
FF
08
01
FC
0F
1A
FC
06
F3
FA
01
0E
04
01
F7
05
04
F4
0E
FF
02
F5
01
08
FE
FF
05
F9
03
FB
08
E6
F7
09
FD
04
26
FE
03
FB
13
0A
12
11
0C
FC
FC
F1
15
05
02
FA
0C
01
02
0A
11
FA
FE
03
05
0B
06
FD
FF
FD
FD
FA
04
0C
0A
FD
F9
F9
F9
0F
01
0A
05
01
F6
02
FB
04
03
14
02
01
0C
FC
06
03
0E
02
ED
14
FF
0D
1C
09
FD
03
F8
0A
03
01
FC
FE
FB
01
FB
FE
FC
FD
FA
01
07
05
FE
05
FD
F2
06
F0
F8
FC
FF
FA
F8
06
FA
F8
03
EE
F6
FD
01
F7
FE
FF
F5
02
01
F7
FF
FD
0E
00
FD
00
FF
01
04
FD
F7
01
FD
FD
F4
07
FE
FC
FF
00
FD
02
01
FE
F9
FE
FF
FE
F0
FE
F2
F9
03
FA
FF
FB
FB
0A
FC
06
FF
FB
F9
F7
FA
02
FB
0C
03
00
0A
03
F8
FF
02
F8
04
FB
03
02
FD
FE
09
FD
FC
04
05
01
FF
01
F2
FB
FD
F8
01
04
FB
FE
FC
05
00
01
FA
EF
09
03
FC
FE
EF
02
01
02
00
FE
FF
07
00
FE
00
F7
02
03
F9
00
FF
05
08
FD
02
F5
02
01
FC
09
FB
05
FC
F8
05
04
FA
FD
FB
00
FB
07
01
00
FC
FF
02
FF
FD
FD
F9
00
FA
04
FE
03
FD
FD
FA
FE
01
00
FE
00
E9
FB
FA
02
FE
04
01
02
FA
FE
0B
FC
04
03
F8
FE
07
F8
01
03
02
FE
FA
01
00
01
16
EF
FD
FB
19
FA
FD
F6
F8
03
FC
04
FB
F8
FD
FE
FB
02
F8
03
01
F3
FE
FF
11
FD
FD
05
FD
01
00
00
FF
F7
05
F7
FB
FF
FE
00
F8
FD
FE
05
FF
FA
FA
FD
F8
F7
00
0A
FC
00
09
01
FB
0F
03
FF
02
EE
04
01
05
0B
FE
04
F2
F5
09
00
00
07
FB
0A
0A
06
09
FC
04
00
0A
01
08
00
FE
07
01
F8
06
0D
0B
01
FB
01
FA
04
FD
0C
07
01
05
07
FC
FF
07
FF
02
F8
F7
F1
01
FA
00
05
00
FE
FA
01
FD
07
00
00
F3
FE
02
F9
0A
FD
08
FA
07
FD
FD
08
03
14
EF
FE
FD
06
FF
01
05
0B
FE
FF
03
0D
F9
FE
E4
F8
07
00
04
F8
07
FA
00
04
04
FE
F8
01
05
04
FF
FB
0F
FC
FD
02
06
04
01
01
FE
0A
FB
0C
10
FE
FF
04
0C
01
03
03
FE
04
F9
FD
FF
04
02
03
FC
05
FD
FA
FD
FD
02
FD
00
00
05
08
04
01
FD
FE
E2
02
F9
00
05
06
00
01
04
07
03
04
01
F4
FA
FC
FF
05
07
0A
03
06
F0
00
02
FF
0B
03
02
FF
05
00
02
00
F9
FB
0E
04
00
09
05
FA
FE
FC
FF
05
08
05
05
02
FF
02
00
FD
FB
FF
01
FF
01
06
05
11
00
FF
01
03
FE
00
0E
FE
FE
FE
08
F6
FA
08
FF
FD
06
00
FF
00
F8
01
F8
02
