08
09
06
06
00
1E
12
7E
6A
02
61
5D
0C
5D
7F
7D
0B
01
13
7B
63
0C
55
63
77
09
7C
6C
10
60
5F
6B
6D
29
74
78
7C
05
1D
67
67
15
0C
79
08
00
03
79
7B
6F
7E
00
63
74
05
08
7A
6A
1E
19
06
7C
68
10
30
15
7B
12
6A
07
7B
72
72
79
04
7F
47
00
77
7A
09
0C
6F
18
0C
75
14
72
0C
0B
59
6A
59
1E
76
73
04
7F
0F
6D
1C
1B
06
72
19
06
74
7C
60
79
0E
76
26
1B
71
01
7D
48
74
6C
05
79
1B
64
6E
70
7A
7B
