00
0A
04
78
7C
76
04
7E
0F
7F
00
60
72
7F
27
14
78
7C
02
72
74
7E
6B
0E
00
0D
05
74
6E
07
7B
00
79
17
0B
69
11
0A
0D
5F
01
00
05
20
1F
13
7F
01
0A
0F
7F
77
7C
0B
0A
79
65
66
13
04
7E
7F
13
23
74
0E
7E
00
01
6E
77
14
0D
7D
06
0B
55
70
02
1F
72
05
08
6C
76
13
74
7E
13
68
0C
08
7C
07
05
7F
0E
01
7D
03
71
08
0F
74
14
7E
7C
12
19
67
6F
02
17
72
08
6D
5B
0F
0C
05
00
0C
2D
04
01
7D
08
15
