75
12
7B
7F
52
07
08
56
76
0F
0E
68
68
59
0D
7F
71
5F
12
01
13
6E
7C
05
00
70
7A
03
58
07
17
09
02
63
13
75
72
71
0A
6D
6E
07
5D
06
72
79
07
09
79
15
1D
6B
65
77
20
00
78
0F
1E
17
69
00
0A
1A
7E
03
70
12
07
15
65
66
5C
01
01
75
7B
0E
06
02
07
09
6B
7B
60
17
71
12
0C
7F
0B
78
7F
0F
02
77
79
24
02
03
74
68
25
7F
00
01
21
2F
7E
00
57
6B
02
6D
04
02
6D
79
05
0E
65
7A
7B
0E
68
01
79
57
