F9
1C
FD
11
0E
0C
01
1E
EC
06
F4
E2
F3
0D
FB
FE
18
FD
11
F0
09
0D
F4
FD
01
05
E8
0C
04
FE
09
06
F1
23
FC
0E
04
FB
12
05
F5
F4
09
11
F5
F4
05
F4
1A
FF
ED
13
15
FB
F4
13
0B
DC
F9
01
FF
0E
F2
F3
02
2E
00
0D
FF
F9
2E
0E
C7
FE
A8
C9
F2
FC
0C
E6
39
24
DA
FC
F2
F0
13
F2
F3
06
05
F8
1B
F6
FF
E7
D4
EA
FF
F0
1A
0C
E8
15
31
18
E2
F7
EE
2F
FB
21
24
0D
E3
0E
E0
E1
04
D9
EF
07
21
03
15
F0
04
1B
