04
3B
3A
00
00
3D
01
04
3B
04
03
32
00
01
04
3D
02
3C
05
3F
37
3F
3A
3F
3F
3F
3E
35
03
02
04
3F
3F
05
02
3F
02
02
03
01
0D
00
00
03
06
05
07
02
3D
02
0E
3A
35
02
04
22
3B
3E
01
03
3C
00
38
07
02
39
06
05
2C
33
3C
0D
27
0A
3F
32
39
37
0E
08
05
07
3A
23
01
08
34
38
04
0A
06
08
3F
37
38
31
3A
3E
3A
02
1D
08
01
03
09
3C
2C
0F
07
05
37
3B
3B
32
0B
25
04
3F
06
05
01
29
0B
08
35
34
2D
02
