F1
F9
1C
00
F9
1B
22
13
01
0E
0C
EA
EB
0D
F7
F5
EC
0D
00
DF
0A
0C
F3
F0
09
F5
F3
32
F0
F2
2B
E5
D7
CF
E4
0B
F7
E7
FF
0E
01
12
45
12
F7
DD
EF
08
EC
FB
24
05
DF
25
19
F3
07
E2
17
1F
FC
01
E7
08
01
02
FC
06
02
00
0C
00
FA
07
FD
01
FA
00
FC
11
0B
14
F1
FB
F7
00
02
F3
09
FC
08
FE
02
F1
17
F8
FE
12
04
FE
08
03
F6
0C
07
04
07
01
04
FF
00
09
16
0B
05
E5
02
F3
05
05
EB
F8
E6
02
EE
09
05
03
