03
7B
74
0B
00
7A
06
79
75
7E
7C
71
6F
5F
73
7C
04
0E
0B
02
03
7F
05
77
09
5A
7C
12
10
63
70
76
0A
10
7C
05
7E
05
7E
01
08
78
06
7F
04
07
79
04
10
0F
05
62
7D
7D
0A
16
66
78
24
09
78
04
76
7F
09
02
04
6F
00
69
13
0C
05
73
7B
76
0E
73
70
73
02
6F
00
6E
0E
72
09
7C
7B
07
0C
01
17
6A
04
01
09
77
08
00
02
7C
7E
08
0F
17
75
75
7B
0B
67
03
65
7A
65
02
78
6A
07
0F
58
70
07
00
75
00
74
07
