76
01
74
06
7D
72
70
0B
1C
7B
7F
0B
02
74
01
0F
7E
17
02
7D
08
7F
00
05
0A
7E
7A
7E
79
75
75
71
12
22
6F
0A
0F
0E
7B
7C
05
11
6D
70
0F
74
08
6F
6D
7D
73
72
79
70
09
73
68
7F
07
78
02
78
77
11
79
05
09
02
78
7F
78
02
70
7C
7A
70
76
6A
7F
03
7F
03
77
76
07
7B
7E
0C
05
7B
04
03
76
02
03
05
7A
02
77
7C
00
05
7D
7C
04
7C
04
05
0B
01
01
79
77
7D
01
72
7D
07
09
7B
7E
6E
18
78
79
04
00
0B
