03
3D
01
3A
03
38
08
3D
33
00
03
39
3C
3D
0E
0A
02
39
3D
34
01
35
3E
3E
18
36
00
3D
00
36
07
02
3D
08
3C
06
07
3D
09
3E
09
07
03
05
0A
04
39
3E
3A
3E
04
21
10
09
05
06
36
3D
3F
3A
3D
02
00
3E
10
00
00
35
03
38
01
03
3A
0A
3A
32
3F
1A
13
3F
3F
04
2F
2A
2C
31
3D
39
38
2B
3F
3B
09
00
32
34
3A
11
06
00
3E
00
0A
3A
37
39
33
1A
10
07
3C
05
01
38
3C
04
3C
04
04
2E
0D
30
3F
08
00
36
3E
00
