7C
77
04
72
04
6F
05
0D
72
7B
7A
7A
65
73
06
00
7F
7A
01
7F
76
72
00
19
12
04
7A
7F
06
27
18
70
7D
03
72
03
7D
18
0C
78
03
27
76
10
7A
0B
01
7A
70
0D
7C
00
08
6B
78
1D
17
0A
36
76
6F
04
66
12
6C
03
07
21
63
72
03
73
7D
05
78
6A
10
7A
06
08
7D
02
05
73
71
07
71
04
7B
03
07
01
0A
79
7B
7C
7E
1A
7E
70
17
7C
0C
08
7C
01
02
77
1C
06
16
7A
20
03
28
74
7E
79
03
12
6D
66
11
03
6A
10
00
0A
