75
7B
7E
74
03
78
7D
79
78
07
75
0E
73
7C
13
0D
7B
01
7F
00
7E
7C
7C
04
00
02
0A
04
0A
06
68
76
7F
00
08
71
01
7D
05
79
0F
00
07
6D
72
7C
7D
7F
1E
06
00
07
75
02
0E
04
70
7F
27
7D
02
0E
75
16
00
03
01
7E
04
01
7F
7F
7D
01
7B
02
7F
7B
04
7C
01
02
7E
7D
01
7F
7F
01
06
7D
03
7E
03
02
7D
01
7F
02
04
7C
7E
7D
7C
7E
7F
01
02
02
7F
00
7E
01
7F
00
04
74
01
04
03
7C
7F
7E
7D
7F
06
03
01
01
