F9
03
18
E5
E8
D7
07
06
10
04
FC
06
10
E0
F1
0C
FF
EB
D1
D4
F7
EB
0A
04
10
FC
1C
1F
27
F1
04
09
F3
17
12
FD
F3
12
FA
F6
15
01
D9
DD
0E
0F
F0
05
98
FC
1B
72
F5
F7
EC
FF
D8
02
00
13
09
EC
07
0A
FA
F7
05
11
03
0B
FF
01
F9
06
F9
FC
E3
0D
F7
FD
FE
02
00
EF
F2
05
FB
F8
05
FD
F9
09
05
FA
10
F8
F9
FD
FE
09
0C
05
03
F7
0C
0A
02
00
1B
06
0B
03
2B
0C
FF
F0
FD
F9
F2
F9
EF
E5
FD
F5
F4
00
FE
02
