7A
07
7B
72
0E
00
7C
7A
0B
07
72
70
71
04
02
75
06
05
77
05
0A
03
03
7E
09
79
7D
1B
07
7B
0D
02
02
11
06
72
7E
7E
09
7E
01
04
06
11
06
00
7E
07
77
12
77
67
7C
64
64
0C
6F
73
73
02
74
01
7D
08
01
23
75
72
12
09
7E
01
73
7B
06
6B
0C
6B
0D
04
00
07
0D
00
7F
0F
7F
78
07
16
78
7E
13
72
6E
63
76
15
02
7E
7B
7F
07
7A
6D
06
7B
6F
01
7E
7F
08
1B
19
71
75
04
70
7F
77
76
6F
15
7F
7F
72
0B
75
