00
07
70
6E
6F
75
65
08
64
7E
7B
7E
04
0D
06
14
7B
03
7C
71
00
09
09
06
7D
04
79
0C
10
75
09
01
71
03
00
7D
01
78
08
04
06
74
66
02
16
17
76
0D
7B
09
03
15
74
0F
0C
04
60
7F
2C
09
7F
6C
03
16
5E
0B
05
18
0D
6A
04
62
54
7F
6B
66
7E
7D
21
7A
17
7F
1A
70
0E
10
09
74
7F
76
73
06
6F
00
15
6C
0D
79
0A
67
05
70
7F
05
19
7D
01
07
00
04
05
1D
73
01
7B
01
0C
11
01
21
74
73
06
74
6F
09
70
0B
