7C
1A
6F
04
10
0C
78
10
77
08
77
73
0B
5A
00
7B
7B
0F
78
71
75
0D
7C
18
72
7C
6F
79
7C
5D
76
6A
02
11
7A
7E
0C
10
73
0B
7A
6F
1B
02
70
03
77
7B
7D
73
11
62
74
73
17
6D
63
7B
0A
0D
01
69
77
10
03
00
0A
6E
7F
75
01
74
0B
7C
7D
7E
72
71
01
7D
71
04
03
6B
11
7B
75
05
1C
13
02
05
14
11
00
74
01
0C
7E
00
03
06
07
75
7F
04
6D
0D
07
0B
7B
7B
18
1F
7F
77
05
6E
0E
01
75
76
15
7D
75
74
72
02
