0A
00
7B
7C
08
77
7E
7A
75
00
03
72
0B
7E
6A
08
7F
07
04
7B
75
74
77
05
79
7C
01
06
6F
78
79
79
06
10
7B
7C
01
7E
04
0B
01
7F
01
7C
0D
7E
7E
7F
0C
06
7C
66
7D
09
09
05
7A
03
66
05
7D
0A
7B
05
04
7C
61
15
7F
7C
0A
01
01
0F
02
66
17
04
6C
0B
04
06
07
19
7C
08
71
30
76
0A
22
6A
23
08
12
72
04
04
78
7D
0C
7D
7A
10
11
0F
20
0E
04
02
6C
75
61
03
0B
0C
06
01
07
73
7E
7C
15
08
74
1D
17
1B
