79
78
77
71
6B
02
16
18
74
72
0E
5F
09
4E
6D
03
6D
7A
76
0B
59
0A
11
78
79
1C
72
28
22
78
61
73
6F
6A
08
06
11
60
08
72
0F
1A
7B
03
10
04
64
7D
0D
10
1E
73
79
00
7B
0C
71
03
1B
10
76
66
03
18
7F
7C
7D
0C
05
04
7F
70
74
7D
04
6F
1B
65
73
7A
0B
01
6A
06
01
7A
02
74
19
02
05
09
07
76
77
17
0A
59
14
01
73
02
03
05
14
02
13
7A
01
07
74
7E
09
04
0D
72
7F
03
79
1D
5A
02
35
7A
7A
07
7F
0B
