FB
0A
00
FB
FF
03
02
F9
FD
01
F8
04
0B
02
FD
FD
06
05
F9
06
01
07
01
04
02
FF
F7
FE
FF
F9
FE
FE
FF
16
01
FE
06
05
04
FB
FB
00
F7
01
09
01
01
07
05
FC
F3
EA
0C
F7
0B
05
F4
FE
13
FC
FA
FF
FB
08
03
00
B5
08
EA
04
E5
01
02
0F
DE
EC
03
16
17
16
FF
06
01
D9
F1
0C
02
F9
05
2F
FF
DC
FD
08
EC
E2
0D
26
23
06
14
FF
0E
DA
F9
02
FF
F0
EF
14
ED
EE
E9
EF
23
FF
E7
1E
05
CB
08
DC
F0
14
FB
FB
FC
20
