7F
17
03
08
01
02
79
79
64
04
79
7D
7C
73
02
02
05
39
78
6D
74
0D
7F
15
76
7E
10
13
13
09
69
6D
7B
11
7D
6C
7A
7D
18
03
7F
7B
10
04
1D
04
6D
10
09
0F
7F
7C
77
0F
2D
7D
08
79
16
14
02
7A
46
0A
73
07
76
08
0E
14
15
0F
01
78
0C
74
05
70
0A
08
19
03
7F
68
18
15
02
0A
04
6B
6D
0B
09
76
7A
70
03
08
7F
74
0B
7F
75
01
0B
09
72
75
74
04
07
07
7B
7F
79
5F
08
6A
7F
1A
74
65
00
11
01
7B
12
76
