79
7F
7D
7C
0F
00
7B
00
7C
7C
70
7D
00
79
0D
03
03
02
03
6B
05
74
79
04
77
70
7E
00
7D
78
7F
09
07
7C
78
14
79
05
01
07
0B
0C
06
0D
1B
7A
7A
02
23
7F
79
56
04
08
0D
03
67
69
11
05
7C
7E
7D
05
7F
04
04
02
07
7C
7A
00
7B
03
78
7E
78
7E
0A
78
04
07
00
76
6E
7F
76
01
07
7C
79
0D
73
65
75
7E
7B
04
03
03
04
08
05
79
0C
05
07
00
0B
0A
7A
0E
14
12
78
6B
05
7A
7C
15
72
75
7D
7C
76
00
02
09
