5C
76
02
06
0A
05
12
74
7E
7F
71
5A
78
12
22
15
07
00
04
6E
08
06
77
7E
07
1A
72
18
1A
55
6B
7E
6B
1E
02
5D
1E
68
09
03
02
09
24
79
0E
14
02
07
1A
11
17
6A
74
0C
78
23
43
4B
30
5C
64
05
68
11
0A
0B
69
6C
7A
03
00
77
6A
1D
78
62
07
7E
19
00
7B
0A
74
0E
0C
05
0B
0C
00
77
76
7C
7E
60
0D
6C
03
06
79
7A
14
00
08
00
71
73
65
7B
1F
15
70
15
13
0B
10
00
6D
65
07
24
02
66
07
6A
75
1F
76
6D
