0F
77
19
6E
76
57
7A
78
05
5F
06
71
66
7D
6F
68
16
07
78
18
07
6B
79
07
75
69
1E
16
1D
52
01
03
04
09
7A
69
62
7F
60
6F
64
0A
75
0B
5A
71
69
10
0E
11
7F
15
73
6F
06
5B
6F
02
77
06
7C
66
76
09
7C
7E
02
7D
03
05
7F
04
76
01
7A
6B
7C
00
01
7F
7D
7E
7C
7B
78
7A
7A
01
05
09
06
7E
7B
13
79
05
01
02
7E
07
07
7F
00
00
04
03
7F
05
06
7C
02
7A
07
72
04
74
06
79
08
75
77
75
0F
01
72
01
05
02
