02
14
F8
DB
0C
03
FD
F8
F5
EA
04
F2
F6
F0
03
10
00
00
F9
01
06
0B
00
FD
FE
00
03
FB
01
FF
F1
F3
FE
FC
03
F5
0A
0A
07
FE
0F
08
04
00
14
F5
04
01
FD
06
F7
E9
06
EF
FD
05
F3
F9
13
09
05
F7
FA
03
2E
1E
FB
02
1C
F0
D4
F1
B8
E1
08
B9
50
26
C8
F2
08
25
13
D5
F8
01
F6
04
ED
1E
2C
F3
FD
F0
ED
D2
F2
42
EC
E6
17
F1
E9
EB
05
0F
DF
20
F0
E5
FB
FE
FE
DD
14
07
C5
3E
30
2F
FC
D5
17
F0
E1
2E
28
FE
