7D
7A
7C
6D
7E
7A
01
7E
7D
7C
78
75
73
7D
15
00
01
03
01
79
05
01
7C
7D
04
03
00
76
06
74
78
7D
7D
11
79
73
1A
0E
07
77
0A
02
20
02
17
04
01
7B
1A
79
0F
07
16
7D
19
17
63
64
1E
76
78
0C
67
0A
75
76
7E
0E
00
7F
77
7E
04
76
77
6E
7A
6E
03
10
01
0C
07
70
73
07
74
7A
7C
6E
13
14
09
04
79
00
01
15
05
02
06
09
01
74
11
0A
0A
5F
60
7B
00
76
08
6E
78
11
06
72
03
08
72
5E
1F
06
05
05
02
16
