7E
72
75
7C
67
7A
04
76
03
7C
12
15
1B
14
0D
04
01
69
07
04
72
07
7D
7F
6E
7A
7B
7A
13
1D
73
7C
0A
68
1C
01
02
0E
7A
05
0D
7F
19
6C
79
78
06
0B
05
79
7D
75
02
62
72
7E
0D
0E
0A
67
05
71
72
11
70
75
5F
0C
02
10
0F
78
63
6E
7E
77
68
00
0B
1A
0F
72
18
32
02
7F
00
76
12
09
17
0A
23
68
06
5E
68
08
6D
15
6A
0E
03
00
74
0A
73
0D
77
01
74
7D
0A
0C
1A
5C
01
60
1A
0C
7D
6F
0E
2A
18
0C
7B
72
