74
02
03
00
65
73
0F
78
05
7E
16
6B
6D
65
28
17
06
11
07
62
77
76
6E
18
77
65
79
6C
71
04
77
09
08
72
0D
79
14
1C
0C
11
5B
0E
2B
7B
73
16
00
0D
66
11
79
78
02
7C
07
08
57
5F
00
00
7A
7B
6F
06
79
6F
7B
77
00
02
15
03
02
06
6C
63
7E
33
72
7C
22
0F
02
73
6F
7B
69
76
70
76
7F
07
24
7B
05
09
04
0F
7E
0D
19
1A
02
01
0B
1C
17
6D
60
07
0B
0E
7A
12
7B
77
0A
03
6F
62
08
72
72
6B
6F
04
72
76
