09
0F
06
2A
06
3E
3A
38
30
0A
08
33
37
3D
3A
05
36
0C
2D
36
39
03
05
3D
01
07
11
17
34
04
02
36
08
07
2A
33
04
05
32
31
2C
0C
04
07
05
28
31
04
2B
3A
37
38
3A
3E
3E
3A
32
3E
15
00
36
37
32
13
10
3A
31
33
08
30
17
3D
3C
0B
02
35
10
0B
35
3C
0E
24
0A
2D
00
38
3D
12
3D
1C
2C
3E
00
01
2C
29
04
3D
38
10
35
06
0A
04
3A
2C
01
3C
04
07
07
3C
1D
38
2A
33
3D
3F
02
31
3C
32
18
06
02
32
3A
36
