7B
04
05
6A
08
0D
05
16
05
73
7F
5E
73
6F
76
6B
03
06
7E
77
76
70
0D
79
0C
08
0B
7D
09
0A
7F
7A
70
05
0C
71
7C
7B
03
6F
18
7E
09
7C
0E
04
05
6E
14
05
72
67
6F
63
12
78
71
6D
10
77
07
78
04
04
74
7D
04
0F
03
03
03
6A
10
76
0A
72
06
1B
77
10
7C
72
09
0D
12
01
74
1B
09
0B
73
23
64
7D
6C
0F
03
02
04
7E
15
7E
7B
73
0F
03
05
05
1D
7C
05
09
0E
0F
23
78
03
7D
78
05
09
7A
0E
74
14
77
04
07
