07
09
0A
01
67
72
7E
7E
74
09
69
6D
51
02
7C
0E
7F
70
63
0B
78
76
0A
71
6E
6B
17
53
75
0E
7D
01
02
7A
07
2C
0E
02
0E
1C
01
20
0F
11
00
17
73
08
0A
1A
1F
67
78
7C
26
6D
76
08
16
77
01
71
02
7C
7B
08
77
75
12
04
76
07
6D
63
72
62
13
62
72
0D
74
70
05
72
0A
71
77
6E
1A
73
12
7D
09
03
74
17
0C
17
7C
10
76
04
03
7D
78
1B
04
06
7F
7C
6D
7F
7C
0C
6E
69
6F
7D
0A
0C
6C
71
15
0F
7B
0C
7B
06
