11
6E
7C
7C
00
7C
19
09
77
6C
0C
6D
6F
7C
78
0F
01
74
73
08
07
7D
75
74
01
13
7D
7E
0C
70
65
02
7E
76
78
7E
01
6A
08
6B
02
06
05
0A
61
20
01
03
62
71
07
0E
03
5E
03
01
64
76
10
6E
71
6D
5B
10
02
75
7B
0A
72
03
7B
7A
05
7A
77
7C
79
0A
7E
06
06
10
01
76
7F
06
7F
00
05
7F
04
77
10
02
11
02
02
01
71
00
0B
77
7A
06
7A
0E
08
0D
0D
04
06
7E
2A
01
6D
56
7B
09
7E
7C
5D
07
08
7F
78
7C
79
7B
