08
09
0C
7E
01
06
7F
78
04
0B
07
0F
7C
0A
79
7D
04
02
06
7F
7E
09
03
75
7F
7F
7D
7E
79
6C
7F
7F
7C
05
0D
02
78
77
0E
05
76
6B
03
7A
0C
7C
79
01
0B
73
6F
78
09
6F
0F
01
76
77
73
72
08
06
7E
0A
72
01
7A
64
75
17
6F
02
72
02
0E
0C
09
7A
6F
0E
04
78
74
6E
5F
7A
01
74
0A
6B
07
74
06
7A
01
6D
08
14
7B
17
14
16
7D
0B
6A
77
72
0C
7D
08
04
6C
68
7C
04
65
7D
7B
03
7C
79
79
22
04
75
02
74
79
