7E
7E
07
03
7C
07
00
06
74
7E
00
79
04
7C
0D
05
0B
77
02
74
79
6E
68
0E
08
01
01
78
04
70
76
03
01
11
03
76
03
03
04
7E
7D
72
15
0C
0D
0E
7C
7F
30
03
7C
7E
01
7F
12
02
5D
6C
09
73
10
7B
70
7F
7E
0A
6F
0B
05
7A
7E
09
74
0C
7B
68
79
17
0D
02
7F
72
70
62
77
7C
72
71
0C
7F
19
7B
09
03
67
79
01
18
6F
6E
0F
03
06
78
76
6B
7E
15
71
0B
79
01
28
6F
7B
7A
75
7E
76
15
75
47
73
02
6B
0A
04
07
