7F
12
7C
73
7B
00
0E
0B
7F
78
06
73
6D
02
69
07
03
7B
09
76
13
01
7D
7B
08
75
03
13
01
75
75
01
08
06
0B
77
7F
7F
0D
07
0D
09
7A
0A
74
7A
7D
7A
04
0C
01
7D
01
05
1D
20
00
02
1D
7A
7A
76
67
77
0F
0A
01
7E
0A
05
76
76
5F
78
6A
68
7D
70
7D
09
03
08
0E
63
74
73
63
05
1E
77
05
03
0C
77
5F
65
7E
78
7F
06
03
05
0F
7E
05
0B
0C
25
2B
7D
7E
06
2E
17
7E
71
02
02
0F
7C
5D
63
30
0C
04
79
0F
7F
