05
15
7B
0D
08
77
08
7C
74
07
7E
7B
07
69
7E
03
76
03
7F
06
01
75
07
04
0E
07
75
1D
78
0C
7F
79
78
79
10
05
01
74
06
7C
03
77
7C
7D
77
78
01
7D
00
04
7D
7A
01
04
7E
0A
78
78
17
7A
6F
7B
11
0E
01
03
01
6E
02
78
04
73
73
7A
01
6B
02
68
01
7D
7A
00
78
77
04
73
7B
7C
0E
0A
07
00
04
01
01
7D
04
07
15
6B
1C
75
0E
7D
6F
09
7D
13
08
06
00
08
09
16
73
4B
77
6B
0B
2B
69
67
12
77
6D
7B
77
02
