00
00
00
00
00
00
00
00
FE
FF
00
01
01
00
FF
01
00
01
00
01
01
00
00
01
00
00
01
FF
00
01
00
00
00
02
00
00
00
00
00
00
01
01
FF
00
00
00
00
00
02
00
00
FF
00
01
FF
00
02
00
F4
FF
00
00
00
00
00
FF
00
FF
FF
01
01
02
00
01
01
00
01
FF
FF
FF
01
00
FF
00
01
00
01
00
00
01
00
FF
00
00
00
01
00
FF
FF
00
01
01
00
FF
00
01
FE
00
01
00
00
00
03
FF
00
FF
01
01
00
01
FF
01
01
00
00
00
FF
FF
01
01
00
FF
FF
00
01
01
01
01
01
00
02
00
FE
01
FF
FF
FE
00
01
FF
00
00
FF
01
00
00
FF
01
01
01
00
FF
00
00
01
00
01
00
01
00
FD
FF
02
01
FF
00
01
01
00
FE
00
00
00
00
FE
00
04
01
01
01
FF
00
FF
00
00
00
00
00
00
00
00
FF
00
00
00
FF
01
00
01
00
00
00
FF
00
00
01
01
FE
01
FF
02
FF
01
00
00
00
00
FE
00
02
FF
00
00
00
00
01
00
00
00
00
03
FF
01
00
00
01
00
01
00
02
01
FF
FF
FF
00
FF
00
02
FE
FF
FF
FF
FF
FE
03
01
FF
FF
02
00
FC
02
00
FC
FE
FF
01
00
FE
01
00
01
00
FF
FD
01
02
02
01
06
02
00
01
02
02
00
02
FE
F9
FF
00
01
FE
00
FF
02
01
FA
FF
01
00
F7
FF
FC
FE
02
00
00
FE
01
01
01
00
FE
00
00
01
00
00
02
00
00
00
FF
FF
01
FF
00
FF
00
01
00
00
00
00
01
00
00
00
00
00
00
00
00
00
FF
01
00
01
00
00
00
FD
00
02
00
FF
00
00
01
00
FF
01
00
01
01
00
00
02
00
00
00
FF
00
FF
FF
00
01
FF
00
01
03
02
FE
02
FF
03
00
FF
00
00
FE
FE
02
01
FF
FF
00
FF
00
01
FE
00
FF
03
03
00
FD
01
00
00
02
00
00
01
FF
02
01
00
00
FF
FF
03
FE
01
FF
01
01
FE
01
FC
02
03
00
FF
00
01
FF
02
03
FF
01
FF
00
02
02
02
01
02
FD
03
FF
FC
00
FE
FB
FE
00
00
00
00
00
FC
00
00
FF
03
02
00
FE
FF
FD
01
03
01
05
00
00
00
FE
FE
FF
00
FD
FF
01
FD
00
00
F9
FF
01
FB
FC
F7
FD
02
01
00
00
FF
FF
00
FB
00
03
FF
FD
04
06
F8
FF
05
02
01
01
F9
FF
02
03
00
FF
FF
01
01
01
02
03
01
FE
04
02
03
FD
00
05
FF
02
02
FF
01
02
06
03
FB
FF
0A
03
00
FE
02
00
02
01
07
03
FB
08
09
0D
EC
FE
02
FE
00
FE
FD
00
01
06
03
00
FA
FB
F8
FB
01
01
FC
01
04
FE
01
01
04
05
FE
02
00
FF
FD
FD
01
00
FA
FD
02
FE
01
F7
FF
FE
FB
01
FE
02
FC
00
09
01
FD
01
00
FF
0C
FF
00
ED
01
FD
04
FF
1A
02
02
FE
00
02
02
00
0B
06
FF
0B
FE
00
00
04
F5
E9
03
04
EA
21
E2
FC
FD
F8
0E
0A
E1
01
08
05
F9
02
FF
13
0A
03
FB
00
02
1D
01
01
12
0A
FD
02
0B
F8
00
E8
21
00
02
FF
04
0B
12
FD
0E
0F
09
0D
0A
0D
05
FE
FB
0C
0D
F9
1C
09
FD
07
F7
08
FB
05
F5
DE
05
08
F6
21
E4
06
FB
0B
11
1B
DD
FD
06
04
EC
E7
FE
13
12
FD
F6
F9
03
24
02
EB
19
0F
FA
FA
12
02
0C
DC
16
FE
08
FC
08
F5
14
0A
09
01
12
F5
15
FA
03
F3
F4
12
1A
FC
D6
F6
05
04
0A
FA
FF
02
F0
00
FA
0C
08
FB
07
F9
03
E1
05
DC
0F
0A
03
06
16
3D
0B
EA
F6
0B
04
18
FF
0B
FC
20
F5
FC
FB
08
F2
07
FA
09
07
FE
FD
0B
F6
18
FF
F5
F7
1D
F7
11
08
09
09
15
0F
FD
E8
07
06
FD
CF
E7
E1
E7
2A
EB
FE
F9
07
F7
F6
05
EB
05
04
EA
05
12
FA
DD
FF
11
FD
F2
D2
08
12
03
FE
09
CC
FD
14
E8
E9
10
FD
03
E2
07
E8
06
06
01
24
EC
04
00
F1
07
E5
0C
F7
F4
F8
05
ED
2F
D5
1A
09
32
04
08
02
0C
05
00
FE
FE
EE
DD
06
0F
F2
30
E3
FF
FB
FD
15
10
E1
FF
09
FE
EB
FF
FE
08
F0
FF
F3
0B
01
27
01
E8
09
07
FC
FB
0C
02
0B
E7
1C
FF
04
FF
F9
F9
26
FD
FE
06
08
08
EE
03
FA
FF
F3
0F
1C
FC
0D
FB
02
00
FB
0D
01
0D
DE
11
FD
EF
10
E1
F7
05
FD
06
F7
FC
20
0B
F5
15
13
08
08
12
31
05
10
DD
01
EA
06
1C
06
FC
F9
06
F4
FD
FD
FD
FA
01
07
FF
0A
16
E1
04
12
1E
13
F7
01
0E
16
FC
0C
02
E8
FF
01
1C
03
F1
EF
EA
10
E6
FC
12
CF
E9
03
09
FC
0B
41
ED
EC
04
00
F8
22
DE
F4
01
12
06
F1
21
E4
F6
F3
FF
29
FF
10
1E
CF
2C
FC
13
EC
FC
FB
32
0F
26
01
EB
00
10
EE
06
F0
F7
01
1F
0E
01
02
E3
10
F5
