06
04
36
34
3F
3F
03
05
01
39
07
38
0C
3F
02
3D
08
35
00
2F
31
00
3E
3A
3F
3D
3E
36
08
00
36
3A
07
08
0A
3E
3F
08
0C
01
0E
03
02
00
09
06
01
03
04
3E
3C
25
09
0A
09
0F
3B
37
0C
00
01
3E
08
3F
00
01
3D
37
0B
09
3B
00
39
38
09
33
3F
31
0C
0A
02
04
3D
08
0D
08
3D
34
07
02
3E
0C
07
31
04
34
3A
0C
03
3C
0F
3F
06
05
05
09
07
3D
1A
0A
02
07
03
06
35
39
06
2C
0B
1F
25
2C
1A
08
38
3F
3B
0F
