06
07
03
3E
36
3E
08
04
3B
04
3F
00
02
07
02
0B
04
02
3A
3C
3E
3C
34
3B
3E
36
3F
00
3C
36
00
3D
01
04
03
3C
3D
08
05
0B
0A
0A
03
02
37
03
35
07
06
3B
3A
3C
04
01
01
0C
05
3E
35
34
07
38
0A
0B
14
29
03
3E
2B
37
01
06
01
05
0E
39
2D
39
06
31
3D
0F
02
05
3B
33
37
3D
35
37
0C
0C
07
3D
2D
09
01
26
39
06
37
22
34
06
15
05
2D
03
33
03
05
0C
3A
18
0A
01
16
00
01
27
34
3A
1B
0B
10
3A
3D
0D
