69
0B
79
76
00
79
0D
7F
5B
13
02
70
2B
07
0E
1E
00
6D
00
77
0A
77
0C
12
7B
0B
7D
20
08
05
26
69
7D
0B
75
03
78
0C
11
10
0B
16
01
7C
72
6E
7D
62
7D
10
15
5C
73
6F
56
21
09
68
1D
73
06
04
6C
0E
7F
74
04
77
68
7C
79
07
6D
64
64
7C
02
7B
05
17
00
7A
6D
6D
14
0E
73
7C
02
0F
02
7D
7E
0D
7C
02
72
79
64
73
27
05
07
75
00
73
1A
10
18
75
64
6B
0C
6E
05
7E
71
0F
14
76
5B
5A
25
0B
74
12
11
23
