70
6F
7A
1F
58
0E
03
05
08
15
0E
6F
0A
5E
10
7E
03
01
76
00
6D
10
7A
72
0C
18
64
10
04
02
7F
6F
04
66
71
75
04
09
6B
7D
03
0D
02
7C
01
75
0D
14
6D
01
0C
6A
6F
6A
05
13
70
76
0D
07
03
6C
70
00
74
1C
78
23
01
7C
78
03
05
01
07
6A
17
0F
01
11
06
10
66
75
00
0A
10
1E
08
77
79
05
15
09
0F
7E
7A
08
70
0E
64
1B
76
18
7C
0B
7E
02
07
6A
56
14
6F
7F
00
61
05
54
76
73
7D
69
0A
03
7C
71
0D
00
