FD
06
FF
FD
13
01
F8
10
F0
F0
06
FF
06
24
03
E4
07
18
FE
F8
F7
07
FB
F5
0B
FC
FB
FC
17
EA
FA
0A
FE
F9
FE
0C
0B
0D
F9
F9
0E
09
04
18
24
04
04
F8
0C
FA
08
0A
1D
F1
07
E9
FD
CE
0D
02
FC
0F
F3
F1
20
F8
0F
0A
00
00
13
0E
EC
CA
02
E0
D3
E3
1D
1E
04
0E
31
DC
FE
03
FC
07
F1
0E
E7
1C
06
1B
FA
F0
02
F7
04
EE
23
ED
FD
F4
25
01
EE
0F
56
09
FD
F0
28
F1
06
16
F0
05
17
1C
F5
E5
2C
F3
E5
EE
F2
14
