7D
04
03
77
00
04
05
01
01
06
7F
75
74
75
11
04
7F
7F
73
6C
76
03
7F
7F
02
04
7D
06
07
73
7E
07
00
05
7B
7A
0D
01
01
06
04
05
0B
7F
00
07
7E
05
02
03
03
6F
7F
7D
15
1D
7A
66
76
74
7D
02
06
06
0D
7F
0B
0D
06
08
7B
7F
55
00
76
6B
09
6A
12
0C
0C
0B
61
7A
01
02
7B
67
76
70
0E
00
16
70
05
7E
02
02
02
60
10
7D
0B
06
7E
03
25
09
0E
03
79
0D
05
79
14
7C
71
08
21
00
65
64
7F
06
7F
7E
13
17
