65
12
7C
58
04
75
7B
7D
77
73
7C
74
7E
5D
05
76
05
72
73
6B
75
08
01
08
0F
76
0D
71
71
78
70
65
04
04
7A
02
0A
09
00
75
0D
00
09
00
20
14
7C
00
08
01
76
04
01
71
05
12
75
49
09
54
77
05
6C
7F
7A
70
1A
79
5A
6D
16
04
0C
7B
0E
75
66
7C
05
18
01
02
79
11
72
12
77
04
05
1D
78
6E
07
78
70
1B
75
7B
0C
7F
1E
02
02
72
78
17
16
04
56
01
70
0E
07
19
03
02
10
74
0C
07
05
65
79
10
77
7C
7B
00
