21
0C
11
16
62
6E
6E
6E
0A
42
53
79
47
0E
1D
1B
08
12
0F
04
7C
78
68
03
03
19
10
67
79
0F
13
5F
12
36
11
78
15
52
71
7E
78
35
30
07
75
0C
7D
14
17
55
7B
78
09
74
33
07
76
60
3A
10
72
0B
0A
79
07
0B
7B
73
20
76
7F
11
65
6E
78
76
7A
01
06
6F
7F
7F
00
78
08
0B
7C
7C
7C
01
00
7B
08
6E
73
6F
05
7C
79
75
72
7F
01
78
7C
00
10
01
7C
7F
79
76
5A
7F
06
05
78
0C
19
7F
7D
79
6E
0B
73
07
04
73
