76
02
7A
06
7C
06
02
0A
07
0C
02
78
04
7F
0F
7C
0C
08
78
79
01
09
7E
01
77
01
7B
0E
08
72
02
04
03
7D
7E
79
02
0A
7F
06
03
7D
02
00
11
00
77
00
01
03
7B
0A
08
05
7E
08
7F
79
10
05
08
01
75
00
17
77
0F
7F
7E
73
02
7A
15
6D
18
7F
6F
74
77
02
27
73
7F
0A
76
7A
7E
18
0D
11
08
04
04
16
0C
77
0C
7C
02
1C
1D
07
73
7F
24
12
67
6D
63
01
63
00
71
1E
18
64
6C
68
59
10
77
00
75
66
07
7E
0D
0F
