73
23
10
6B
75
66
7A
78
74
74
04
0E
55
6A
68
6D
73
07
57
12
6D
7E
10
7B
08
11
03
7F
08
6E
1D
66
7A
12
01
0C
02
75
6D
1D
15
08
0A
12
6F
11
6D
07
6C
06
7D
74
5E
0C
01
7C
7D
62
2D
05
09
6E
05
07
0D
15
03
7A
6E
74
20
17
6F
76
7A
79
11
11
78
79
7B
78
73
67
70
21
7B
7B
64
73
5C
69
11
59
6A
73
78
15
77
7B
7E
16
26
03
79
7F
13
2D
6D
08
63
04
07
03
75
78
1D
0B
0D
71
7B
42
04
02
6F
70
79
5A
