16
08
05
75
7C
7F
7E
74
78
71
0D
5D
66
03
06
07
0A
05
79
6A
7D
08
77
00
7E
79
08
79
0A
01
6A
16
75
1B
65
7A
1F
07
7A
79
7C
6D
5B
0E
0B
7C
00
07
7E
14
78
55
64
71
0A
7F
74
65
12
71
74
04
76
0B
06
04
02
76
76
03
04
7B
7E
7C
09
73
05
6B
76
06
7C
7E
02
7A
06
03
01
7C
7E
01
01
7F
7D
75
77
7D
7D
0D
79
7B
16
00
00
01
7F
00
08
7F
6E
02
75
7E
04
0D
06
76
7F
75
7F
07
06
00
15
03
01
7E
7F
03
