11
19
74
02
09
70
77
10
76
01
6B
08
04
0D
1F
5F
12
05
04
6C
02
07
09
0D
08
7C
70
7D
79
61
0D
17
02
7A
08
08
79
05
77
0B
0E
0D
7E
04
7C
67
7B
11
05
1A
05
0C
04
7D
10
71
7C
7B
0B
5C
06
77
27
08
7B
0A
02
71
77
02
79
6F
7B
01
7C
74
03
79
08
7F
78
00
7C
01
7D
79
7D
02
0B
03
7E
04
7A
76
01
0F
7F
7A
01
7D
02
09
02
78
14
07
0C
7E
06
7F
08
01
0C
0D
0B
66
01
03
7F
0B
79
70
09
7F
7C
01
0A
04
