03
00
01
01
01
7E
7F
7E
00
7E
00
01
7A
07
7F
7E
7E
03
03
7E
7E
7F
7F
7F
04
7B
02
02
01
7E
01
7C
00
06
7F
7C
00
00
7F
00
7D
01
00
06
07
7E
7E
00
05
00
01
01
03
06
7B
02
06
01
11
7F
01
7E
02
7E
7D
07
6A
08
74
02
1A
7F
10
14
0B
7E
74
00
79
71
6E
0E
69
64
7A
77
01
7C
75
6F
75
7E
2B
73
02
71
7E
75
71
72
0D
6F
23
73
0A
71
7F
0C
79
10
0B
68
73
5C
6F
7B
7B
09
13
13
73
6C
12
7D
79
6D
08
0E
