FF
0F
FD
02
F2
F1
05
04
1A
0F
B8
F0
DF
FF
25
FE
11
02
FA
0E
EC
04
27
05
F4
12
FD
DB
F5
0B
17
FA
F5
14
01
FC
0C
29
E5
1F
26
2A
F9
EC
F5
12
E2
12
1F
03
1A
F1
07
DC
11
C9
EE
1B
35
ED
E5
EC
F1
02
F8
13
F5
EF
0D
F6
0B
F9
F7
08
14
FF
FB
F5
12
03
04
FF
02
02
F9
EB
F7
06
03
0B
05
0C
13
0D
0A
E8
17
FA
EF
F6
17
FE
EB
03
06
F7
17
03
F4
09
F2
EB
EB
20
F0
03
06
0B
29
1D
F7
D8
F7
11
EB
11
DE
23
