08
06
77
72
04
07
76
04
05
73
7A
69
09
6F
0D
0E
7C
7B
78
10
78
7B
03
7E
12
05
01
6C
14
7B
7C
0F
01
00
02
7B
02
7A
06
08
74
77
0E
05
14
04
05
7C
12
0F
06
01
7E
7F
0A
1D
05
09
11
0A
01
7D
1B
11
6C
02
7B
74
7D
0C
72
00
05
02
02
7D
11
7D
74
7C
7C
00
75
77
00
01
75
7E
75
7A
04
00
76
6E
6F
75
06
0E
74
0D
00
0E
0E
00
0D
0A
14
7B
7A
0C
04
00
02
01
78
5B
00
72
0D
7E
74
63
7D
00
70
05
13
0C
