00
03
01
FD
01
01
FD
00
00
02
FC
FE
F9
03
03
FD
FE
02
03
03
01
00
01
00
FD
FF
FE
02
00
09
FC
FD
F6
02
FC
04
00
FD
00
02
FB
FD
00
02
01
02
FE
05
F3
FF
F6
03
F7
FF
02
F4
01
FE
05
01
F5
02
FF
FD
00
02
F6
0C
01
FA
03
02
FE
FE
FD
FC
FE
05
01
04
FF
00
03
F5
FF
00
FF
FA
FF
FB
FE
06
00
F1
05
00
FD
01
00
FB
06
01
FF
FF
03
03
03
03
01
03
07
07
FE
05
00
09
02
02
FE
FF
00
01
FC
FD
FE
02
FC
FF
FE
01
00
FD
01
01
F6
07
FF
00
FF
FF
FC
06
00
01
05
FE
00
03
00
FF
02
F9
04
FF
08
00
FA
02
F8
01
FF
0F
02
FB
FE
04
07
FB
FE
FD
FB
FE
03
04
00
FE
FF
05
02
FD
02
FE
FD
FF
FB
02
02
02
02
00
01
FC
B7
FF
02
06
04
07
02
FF
01
00
01
FE
00
FE
05
F7
FD
00
F9
F9
02
02
01
02
FF
01
FF
02
FB
FB
00
FD
00
04
FF
FF
00
FF
00
00
09
00
03
FC
00
00
FD
00
00
F9
F6
FC
FC
01
FC
00
04
00
01
EA
02
07
00
F5
02
0F
02
08
FF
06
02
FE
02
FF
F4
FD
05
03
09
02
00
FB
FE
04
00
02
FF
03
08
FE
FF
01
02
FA
06
08
02
FB
0B
F9
02
FE
FD
02
01
06
01
FB
FC
00
01
03
FE
FD
0B
03
F9
00
F7
03
F8
FE
00
F6
FD
FF
00
F0
02
FD
FC
FE
01
F9
0A
F2
00
FA
02
FF
F8
06
04
06
00
02
08
FD
FF
04
FB
01
03
FC
FD
05
00
FD
02
01
FE
F9
01
00
08
04
0D
02
01
04
03
FA
FA
FF
03
06
03
FF
01
04
06
04
0A
FB
F9
FB
FD
05
09
00
F8
09
08
01
00
16
FF
03
FE
0C
FE
00
01
FF
FD
01
02
FF
00
FE
07
FF
FF
00
02
03
FE
FF
00
00
FA
04
FF
02
F8
02
FA
01
F9
FE
02
01
01
02
F9
0B
03
FA
FF
00
00
FF
FC
EA
04
00
F8
FD
FD
02
00
06
F9
FF
04
F7
00
F0
FD
00
01
FF
00
00
03
02
FA
FC
00
FA
FD
FC
FB
00
03
FC
01
01
08
F9
02
05
FF
02
FF
00
0B
FB
FD
FF
03
00
01
00
02
FD
FE
02
FA
FC
02
01
02
01
02
F8
02
FD
FC
01
01
03
0A
02
FD
F9
04
01
F8
FF
F6
F9
EE
08
F8
09
FE
02
E7
0A
DF
00
FB
F9
FF
F6
07
F4
F5
FC
20
FE
08
FB
F2
D5
FC
01
03
F5
F2
FE
E2
0F
02
E4
09
06
F9
0A
EC
FD
01
03
FF
F1
01
02
FB
01
0A
03
00
F4
F7
FF
06
FD
2B
F0
F4
05
00
FA
F4
0A
FF
D1
FE
FD
05
F9
FD
FC
08
12
0F
00
08
F0
E5
EB
04
0F
FD
08
03
EC
FF
FC
0E
FE
FF
EF
1B
07
06
F0
04
26
0B
F7
F6
05
06
08
02
FD
F7
07
0D
FD
06
F8
0A
01
F9
03
14
06
F5
09
FB
01
00
EF
07
08
F5
01
01
07
E6
FF
02
00
06
F8
D5
02
07
FE
02
FC
05
04
05
FF
08
D5
F8
03
F9
F2
FB
07
01
01
06
EF
F0
09
08
FD
FA
EE
FE
FF
19
E2
13
FD
07
08
F2
02
02
0A
19
E6
09
FD
FA
00
FF
F8
0C
04
09
F7
FD
15
02
F8
E5
05
02
0C
04
14
F8
03
07
FE
04
00
F7
FE
04
F0
04
F2
FE
E7
E6
00
0B
0B
01
FC
F8
04
F8
FD
FA
FC
FD
FB
FF
01
FD
09
FB
0F
F7
EB
FC
08
FF
03
03
02
1C
11
04
EE
05
0E
06
02
0F
FD
0E
F9
0A
F3
FB
FF
02
09
1B
01
04
18
00
2E
08
04
01
06
FD
FC
00
06
00
F0
17
09
04
05
FE
03
FB
02
0A
09
06
02
07
00
06
FC
0A
FF
01
FD
0E
02
EE
07
DD
0F
F8
FB
00
02
00
00
01
08
0B
00
00
10
0A
08
FF
FD
00
FD
FE
10
06
06
00
F2
F2
05
01
0A
11
08
01
FF
05
01
00
FA
FC
05
02
15
05
FE
FC
01
04
01
F7
01
06
04
16
06
EB
08
FD
01
02
FC
04
04
0C
01
FF
01
03
01
09
FE
04
02
01
FA
03
FA
FD
04
0C
04
FE
01
EB
FF
11
F1
F6
00
00
06
10
05
FE
FE
01
EF
05
02
F2
FA
F8
01
01
06
FF
FE
FC
FB
0B
0F
04
02
05
FC
03
EC
02
08
06
F5
05
04
01
FC
16
FA
06
FE
04
08
F9
08
E5
FA
09
01
EA
04
FD
FB
08
03
F7
08
01
00
E5
0C
03
06
01
08
FB
0A
F1
09
F4
F5
02
01
0B
FE
FA
01
09
05
0D
06
0B
F7
FF
04
09
F5
F6
04
F4
F3
00
07
06
0C
E9
05
E6
FE
02
FB
01
F6
FE
07
1A
F2
01
FC
03
10
07
0F
06
03
0C
09
06
DC
F6
04
02
FC
0A
FC
FD
F3
E1
00
03
E8
FF
FB
08
04
19
02
03
FE
02
11
06
EB
0C
01
0D
FD
05
FF
16
EF
F4
F8
FB
00
FF
00
05
0B
09
F9
0C
F5
FC
08
06
09
FB
03
00
12
F7
F7
FD
FD
FD
06
05
09
FE
F5
04
00
1A
0C
FC
EE
FE
FD
FE
FF
0E
15
FC
E4
05
EE
FF
05
FE
10
0B
08
17
1F
F7
03
FF
04
F6
0B
FF
08
EF
FE
03
FF
F8
0A
F2
00
FC
FE
FB
08
04
06
FE
08
01
02
F5
FC
01
F4
04
0B
06
05
FE
FD
1A
0E
F4
FE
F7
FB
07
FD
05
03
FE
F9
02
FB
FB
18
F1
09
0B
FA
FB
FB
FF
FF
04
F9
07
FC
F1
FE
0B
00
F9
06
1E
FD
EF
0A
04
F8
FE
04
0A
00
0A
0B
F3
01
08
F8
06
FD
FE
15
F7
0B
FF
12
07
F8
FC
02
08
FA
09
FA
FB
FA
00
F9
02
04
FC
03
02
07
00
04
02
FE
F9
FE
FE
09
F7
FD
FF
F9
07
F3
FA
F3
FF
FA
05
09
FE
FE
F5
07
00
08
F2
FC
FB
FF
03
01
01
09
01
01
04
F6
FA
03
0F
00
04
03
02
FF
FC
F3
FB
FE
0D
08
05
FB
0E
FC
FA
F7
06
00
FC
02
01
06
EF
01
FD
FD
FF
FC
FC
FF
FC
01
02
03
FC
FB
FE
FF
06
F8
F1
01
00
F9
04
F1
0A
FD
F1
06
01
FD
03
09
FF
03
01
05
FF
00
00
FC
F6
02
FA
01
03
FF
EE
F3
02
03
02
FE
00
04
03
FB
FF
06
08
FF
FE
EF
FC
FD
01
FE
00
F6
F8
0B
06
06
04
FD
02
01
00
00
FE
FD
FB
03
03
00
EF
F1
02
FA
FD
04
03
F2
F8
F1
FF
00
02
03
FE
FF
05
FC
00
FE
FE
F6
04
FE
02
F6
FC
F5
01
FE
FB
FE
03
05
FF
03
FF
08
FE
FD
FF
FF
FD
00
00
F5
FD
FC
FA
05
FD
01
01
F9
02
FF
03
FE
04
0D
EE
08
02
FF
02
02
00
FF
07
02
F2
02
FE
FF
01
01
04
05
F8
06
F9
01
06
09
FF
00
FA
01
FE
06
F8
FD
00
FF
01
FD
FF
FA
FE
02
03
FD
FB
F4
FB
FA
FB
FF
0F
FF
F3
02
FE
04
03
01
F8
F8
10
F8
04
00
FF
FF
03
F3
02
FF
FB
07
FF
00
FD
05
EC
00
01
F5
00
07
F2
09
01
EE
01
FC
FC
02
06
FD
FD
F8
FC
FD
F2
F5
FC
FD
FF
01
03
FA
FF
01
F5
0B
01
FE
FF
00
02
FB
03
05
FC
F9
0E
07
0D
08
04
F9
24
00
06
F9
03
00
0E
08
07
0B
F5
07
0A
15
05
FD
F0
FE
02
FC
FB
08
00
FC
F7
00
F8
FC
FF
FB
E5
08
13
05
0B
EF
08
03
FD
F5
FF
FC
F7
09
FE
01
FF
FA
FD
FB
0E
0A
FD
FC
FF
FD
EF
F2
05
02
04
F8
13
07
F1
F5
09
FC
0E
03
02
03
0F
F7
07
DD
E5
FA
02
04
02
03
EA
03
0D
00
02
FE
23
F1
0C
FF
04
F9
F9
DD
0E
FF
FA
03
FB
09
FD
06
00
02
04
05
17
04
01
0A
E9
01
02
FB
FF
08
02
1A
05
01
05
1E
EB
04
FB
00
00
0D
F0
06
FA
0C
05
FC
01
0C
02
09
F9
E7
08
F0
FE
FD
0A
03
F9
0D
FE
05
04
12
F8
00
0A
08
FD
01
F7
02
FC
FE
02
08
12
FC
FE
01
FE
06
0F
00
FD
F6
0F
15
05
EC
15
11
0F
FC
F9
EF
E9
03
07
F5
09
F0
03
03
F9
03
01
F9
F0
00
FA
01
F5
0A
01
FB
03
02
0B
05
FD
06
04
FC
06
F3
00
08
04
FB
03
F1
FF
06
0B
FB
EB
09
02
FC
04
D8
EE
FD
FF
05
0B
0A
02
FF
06
04
FE
08
01
FF
01
FF
F9
01
07
FE
FE
03
03
00
13
01
0B
02
01
FC
04
06
F6
FC
FD
02
F9
03
FE
05
02
FC
02
FC
04
FE
01
05
FF
01
00
FE
00
FE
FD
00
01
00
FF
03
01
00
F8
01
FB
F3
0C
18
08
FA
F6
FD
F7
0D
04
01
FE
0B
01
FD
0B
10
FD
F6
F5
FD
04
FE
FC
08
F8
FD
01
F9
F5
01
04
0B
FF
FD
0E
01
02
FB
F8
EA
02
FD
08
07
06
02
00
00
FF
FE
FB
02
09
06
F9
07
0D
FA
FD
06
03
FF
FD
F6
01
05
FC
00
01
FB
05
FD
04
05
FB
FE
FE
01
FF
0D
FD
00
03
FE
08
02
FC
04
03
00
03
FE
FD
06
01
08
FF
02
FC
0C
F7
05
03
00
02
FE
00
01
03
06
FD
01
F7
FC
FB
02
00
FE
FA
05
01
FF
FF
FE
00
15
00
12
FE
FB
11
07
FF
06
FD
FF
0A
02
02
FE
03
01
00
00
FF
00
00
02
10
02
FB
FE
06
01
F8
FD
0F
02
06
0B
00
FF
FA
00
FA
05
01
FE
05
02
01
FD
FE
FB
00
FF
01
FF
FE
09
01
00
FF
05
FB
00
01
00
03
FB
05
03
06
00
01
00
04
FF
00
FD
07
03
09
04
FE
09
08
FB
06
05
03
04
09
00
FE
04
06
05
FF
03
00
FF
03
18
00
FB
FE
F6
0D
FA
01
FE
FF
FE
FA
01
FC
05
05
05
02
FF
03
02
03
06
01
FC
FB
00
01
00
F6
01
F8
04
FE
FC
00
00
FD
03
0D
0F
05
FF
FD
F7
FF
01
00
FE
01
FB
F3
FC
FF
04
00
08
00
FC
01
02
FB
FC
01
02
04
FF
FC
FA
06
0B
FA
FF
02
07
02
FE
01
0B
FF
01
0D
FC
FA
FF
02
FB
01
00
FE
FC
FE
0F
00
FF
F7
F9
0A
02
07
FF
FD
01
00
FC
FE
03
05
02
01
00
FC
FE
01
07
01
F1
FF
FD
00
FE
04
02
FE
02
FA
01
07
01
01
01
02
FF
FF
00
FA
04
FB
00
FD
02
04
FB
FE
05
02
04
02
FA
02
01
FC
00
FA
09
FA
FC
00
02
FD
F2
0B
01
05
05
02
01
10
04
00
01
07
FF
0D
00
02
05
03
EF
FA
FC
02
FF
FE
01
02
FF
FC
FF
FA
F0
FC
01
FF
03
F0
F7
FD
FD
01
FB
02
01
F9
FF
FB
0D
06
FF
01
FD
FB
01
FB
00
02
FE
00
00
F6
FF
00
01
01
02
F8
F9
FF
FC
F9
FD
01
FD
FF
00
05
02
01
05
02
01
FC
04
24
08
0C
FD
FC
02
05
02
00
04
FC
FC
05
FF
FE
FF
0B
07
08
FF
FE
01
F8
07
03
00
01
FB
04
FB
00
FF
0E
00
0B
FE
02
FE
02
08
01
FE
04
FC
02
FF
0E
FF
F4
0D
F9
00
00
02
03
01
0B
FF
02
01
05
00
10
10
00
FF
05
2A
F9
01
09
F8
F5
00
FB
03
02
0F
FC
FE
F6
05
F7
FE
F9
09
05
00
F6
07
FE
04
00
02
FF
F9
06
03
00
01
FF
FD
16
FC
01
04
FE
FB
17
FC
FE
F9
FE
FC
05
0B
01
FA
FF
FC
F8
0A
00
02
FC
06
00
01
FF
F7
FC
FF
04
FA
06
07
06
FE
FC
03
00
FD
FA
02
00
01
00
FF
FD
06
FF
FB
04
03
03
FB
0D
01
FE
F8
00
03
FE
FE
17
FF
FF
FD
05
04
01
FD
FF
03
FE
00
01
FB
03
FD
FF
00
04
FE
02
FD
16
07
FB
07
04
F7
00
FF
0A
05
03
15
FF
FC
FD
01
0D
07
02
03
FB
04
03
FE
FE
02
03
10
00
07
02
0A
0A
FF
01
07
01
03
01
FF
03
00
F8
00
00
00
00
F4
01
07
02
FB
FA
0C
FE
F6
FD
08
FE
FC
F9
FB
FF
01
FB
09
00
0D
FE
FA
03
FD
0C
FE
02
00
FC
FD
FF
04
00
0B
F2
FE
FF
FF
F9
07
F0
07
03
FF
00
14
1F
FC
07
00
0B
05
00
05
01
06
FC
08
03
FF
FB
03
01
04
25
02
04
07
0B
06
07
17
03
FA
FB
02
06
FE
FF
0A
FC
FD
FF
05
06
09
0D
FE
E7
01
00
01
F8
09
FE
00
FC
01
02
02
FF
FA
1F
FF
01
04
FE
22
FE
11
06
FA
00
01
0D
02
0E
F1
F6
04
FF
F8
FB
19
0B
03
FD
0A
04
FD
03
FF
F6
FF
F1
01
FA
02
01
FD
05
F8
07
F4
FC
01
02
FD
05
04
FE
0E
0D
FD
03
F3
01
02
02
05
FE
FF
00
04
02
01
FF
04
01
FE
F6
0B
00
FB
02
FE
06
F9
01
0B
11
06
01
FA
FF
05
08
02
08
F8
FD
02
03
05
00
FB
01
F9
0A
16
01
03
01
FB
FD
0A
FF
02
02
0C
F5
01
04
FB
FE
FF
FF
04
09
FA
03
03
FF
07
F6
09
00
00
FD
FE
F8
29
F6
FF
01
FD
00
FE
21
00
FF
FE
0F
18
00
02
F6
04
FE
14
FE
0C
04
08
FF
FE
E2
FD
02
FE
12
FF
FD
FB
15
FF
00
0C
F8
0B
FC
06
02
00
05
FF
02
0B
04
FF
03
FF
FB
FE
FC
FF
01
FE
0F
02
09
11
01
F9
02
FD
0E
01
01
00
01
F7
FC
00
05
FB
F8
00
03
03
05
01
FF
FE
02
04
01
FD
FE
01
03
FD
F3
05
12
0B
03
09
07
06
FD
05
06
02
FD
01
FB
01
08
06
FE
03
12
F8
07
05
00
0C
FF
06
04
0F
01
03
03
04
00
00
02
00
03
FF
FF
03
FB
0B
FE
03
07
FD
00
02
02
FE
00
02
14
01
FD
08
0D
08
0C
F8
FF
FE
01
08
05
00
F3
00
03
06
01
FB
06
FD
04
09
FE
00
00
F9
09
FF
03
05
FE
02
01
FA
FF
06
FA
02
06
03
07
01
01
FC
01
F9
08
FE
01
0A
0A
FF
FC
FF
04
FE
03
14
02
06
FC
00
01
FF
07
0D
FE
02
FF
08
FF
02
02
0D
02
02
07
0C
FF
02
05
FE
FC
05
FC
FE
14
FF
10
FF
01
FB
FF
06
04
00
00
00
FA
05
06
02
03
03
01
FD
FF
00
01
FE
04
03
04
FE
10
07
00
FF
01
F9
03
0A
00
00
04
07
FF
00
FE
0C
FD
02
08
05
03
F8
FF
00
04
02
FB
06
07
00
FF
FF
FE
FF
05
04
00
FE
FB
02
00
02
FD
04
FF
02
08
02
FD
FB
FE
03
FE
04
01
FF
FE
05
01
FF
FD
02
FF
04
FF
F6
06
FE
FC
FE
06
09
00
03
00
FF
0B
FF
FF
08
02
02
01
00
01
FF
FB
0E
0B
07
01
FF
03
FA
FA
0D
FD
00
FE
FE
02
FF
FF
FF
FB
05
FC
F8
F8
FB
04
02
00
FA
03
FD
FF
05
00
03
FF
03
02
FE
02
03
00
FA
FF
00
09
FD
05
03
00
01
FA
FD
FC
00
00
05
FF
08
02
00
12
FD
FE
02
01
04
F7
FE
07
FA
FF
FF
05
01
FB
02
04
00
FD
00
02
FD
FD
FD
00
00
FF
FF
00
FF
00
FE
FA
01
03
06
00
07
01
FF
FD
FE
FE
00
02
00
00
FB
0B
01
05
10
00
FF
FE
02
FE
08
02
FF
FF
FE
00
FA
FF
01
FF
08
05
F9
00
FE
09
10
02
FE
02
00
00
FF
01
06
11
07
FF
FC
FE
F9
00
02
FD
01
FF
01
02
01
FD
00
05
01
0D
01
FF
0B
F9
FC
00
09
00
FF
FE
FF
04
00
00
FE
00
FC
FF
00
FC
FC
03
02
FC
02
00
00
00
01
02
FE
01
02
08
FE
00
00
01
02
05
FC
06
FC
09
03
F8
FE
FA
00
FE
E8
E0
01
F7
00
01
00
03
F6
FE
FF
FC
05
F4
01
FF
07
03
F6
03
FE
02
FE
03
FE
05
04
05
01
08
FB
04
FE
F6
00
FE
F1
FE
00
00
00
04
0A
F7
FE
09
09
FF
FE
FD
FF
FF
FC
03
FE
F8
05
02
FC
01
0E
01
04
04
00
FD
01
FE
FA
FF
FF
02
00
FC
00
03
06
01
FF
02
F2
FE
01
F4
FF
08
03
01
EB
07
0B
01
F8
00
00
FA
02
FF
0E
01
FD
1A
00
01
FB
0D
02
00
01
03
09
FF
FC
0B
01
FA
04
01
04
FF
FB
02
00
F8
00
02
EA
01
00
00
09
02
F5
0A
03
00
F8
03
01
09
09
05
0C
02
FB
04
00
00
00
FF
F5
01
02
00
FF
ED
03
01
FB
08
0C
0A
FF
02
04
FB
03
03
FE
F8
00
01
02
FF
F6
FE
04
FD
FE
FF
01
FE
0C
0A
FE
FF
06
ED
FF
05
00
06
FC
04
05
08
F7
F8
0D
FD
00
FC
07
05
FB
05
0C
FC
FF
02
09
06
10
08
01
00
F9
FE
09
05
01
06
0A
04
03
07
FD
F9
FD
06
19
02
FF
03
02
06
01
01
00
02
00
06
03
04
FF
FF
16
04
F9
15
04
E9
FF
F3
FD
06
03
F7
01
03
04
FC
03
06
FB
F9
FA
FE
08
03
F6
09
0A
F7
FE
04
FA
01
02
E3
FF
09
00
FE
0A
09
E2
FF
05
01
FB
FD
E5
00
10
FD
0A
03
04
FC
03
FE
FF
0D
F8
FE
F8
F8
10
F6
E2
FD
04
F2
01
FD
01
11
01
03
17
0F
F9
EA
FA
FD
06
07
03
F9
FD
DC
F5
03
13
00
02
03
00
00
FF
06
01
09
08
E1
FE
FF
00
FF
10
F0
FA
02
00
05
02
FA
F1
14
05
EF
08
06
F8
FF
FB
FD
05
EB
0D
E7
E1
FA
00
00
08
0D
08
FE
FF
06
03
FD
15
EF
FE
01
E4
00
0D
0E
00
02
FF
F8
F4
09
F6
01
F7
05
FE
F5
02
F6
FF
FC
F9
05
FB
1D
08
02
00
05
00
03
0D
F6
FD
02
07
F6
0D
FB
06
F8
01
05
F5
FC
F2
FB
F0
FF
01
FB
01
02
FF
05
1F
FC
05
01
F9
03
0E
FF
F8
FB
03
FE
F9
FD
FD
F2
01
00
03
F1
FA
05
F6
01
F3
FF
F9
03
FD
F9
F9
FF
FE
02
0C
FA
03
02
01
02
FD
00
02
FA
01
FC
FF
FB
FF
FB
06
0D
FE
04
F8
06
F6
F5
09
09
00
0F
FF
F9
FC
16
1A
01
03
F9
06
00
04
06
FA
FC
FF
FA
F7
08
FE
01
FD
F8
00
FF
05
03
F7
0A
FA
06
03
F8
F7
FD
FF
F8
FC
FF
FE
03
F8
02
FC
12
02
FE
FA
05
FC
03
FE
F8
F0
F4
03
FB
F6
01
F8
06
0E
02
05
02
06
FF
F9
FE
00
F7
01
03
07
00
FE
FE
FE
FF
03
08
01
0C
09
F7
04
02
F9
00
FD
01
07
09
FC
FA
F5
01
FD
EB
03
00
08
FF
F8
10
11
F8
00
F7
01
FE
FE
FE
0C
F4
01
00
03
08
F9
F8
F8
11
04
FA
0C
01
F0
06
00
02
09
FB
03
08
FA
01
FC
02
06
FD
19
FC
F7
F9
05
FB
FD
03
04
02
F2
00
01
FD
00
01
FF
08
FE
00
FE
FD
01
16
05
01
FF
F5
0C
00
FE
01
01
FB
F5
FF
0C
10
07
02
00
F9
FC
04
FD
04
FE
FD
FF
01
07
00
FF
0B
FD
0A
F0
08
F4
00
FD
02
00
F6
FD
FA
01
08
00
FD
FD
FD
07
02
FE
06
0A
1F
F8
FF
00
02
01
06
FF
08
F5
02
02
02
06
02
FE
04
F9
F9
01
03
0B
FD
00
F7
00
01
05
FC
FF
08
15
06
FD
22
01
FC
FB
F4
0E
04
04
00
FB
07
FB
FF
FC
01
FE
02
FF
03
FF
FB
FC
05
01
FF
07
FD
02
01
03
FE
FB
01
FC
FF
00
FF
F8
02
02
FC
01
FB
F7
FD
00
02
01
FC
FA
05
01
01
03
FE
02
FD
F5
FC
02
03
EF
FA
01
03
F4
F9
FF
01
01
FF
04
01
02
02
FF
FE
0A
FB
FA
FE
03
02
FA
FF
01
02
05
02
FF
02
04
FE
02
FF
05
00
02
02
04
FD
FF
FE
FD
FF
04
02
01
F9
02
03
FF
FC
00
02
ED
09
08
05
FE
FD
F9
01
06
FE
12
03
FF
F9
FA
FE
0E
F5
01
00
FA
FD
00
02
F2
03
02
FE
FA
04
00
01
00
00
02
FD
F4
FF
01
FA
FB
01
FF
01
FD
FF
FF
F5
02
FD
FA
FF
00
07
F5
02
03
FC
F6
FF
00
00
04
02
FA
03
00
FF
03
00
FF
FF
F5
06
00
FB
F6
02
00
03
FA
00
07
FA
FD
07
00
04
02
03
01
FD
01
05
00
01
05
F6
03
F9
05
F7
FE
01
01
FA
FF
FC
FB
05
00
04
FE
FC
00
EF
FF
FF
FF
01
FC
FF
FE
01
05
00
FF
FD
FC
01
00
F8
05
00
FD
02
FE
0F
FF
FC
FE
FC
FD
00
04
01
FB
FF
05
0D
EF
FD
04
FF
FD
08
02
01
0C
F6
01
00
EE
FD
E7
FF
FC
00
01
01
05
F8
05
F2
E8
06
FB
06
FD
08
FF
FF
01
12
F9
02
02
FB
FB
F5
FD
07
08
F5
00
00
FE
FB
09
F9
F3
02
F4
EF
F9
FE
F8
00
FB
F5
FA
FE
FC
F5
FB
ED
FB
F4
04
F1
04
F5
06
00
00
FA
02
E0
E5
FC
02
0B
01
04
FA
0F
FE
F5
FF
FB
FE
F1
FB
FF
02
FD
FA
FB
F9
FC
FD
F8
00
FF
0E
E8
FE
EE
F5
FB
E0
00
FF
FC
F0
EF
FD
F1
FC
02
F8
FC
FD
F9
EE
FD
F6
FE
FD
F9
F1
01
FC
0B
FF
1B
03
F4
F6
FA
F1
02
FB
FE
02
FE
02
02
01
03
FC
01
FB
02
0A
03
FC
FE
04
FF
F2
FD
0C
FE
FB
FE
04
00
01
03
02
FC
F9
03
F0
FF
04
03
02
08
FD
01
FA
FB
FB
F5
06
FF
EF
01
00
FA
FB
11
EF
13
00
FC
00
FA
01
17
09
FD
EF
08
06
FC
FA
02
DD
FE
FF
FA
FB
FF
00
05
FC
07
FB
F8
F9
FD
F9
01
00
FF
FE
FD
EF
F8
FF
FB
F2
FD
FE
FF
F7
0A
04
08
F8
F4
FF
FA
01
ED
07
00
FA
FE
F9
03
05
F3
FB
F9
FA
06
FD
03
FF
FE
FB
04
06
FF
FC
05
F5
FB
F2
F5
ED
FF
02
00
01
F9
F4
FF
FC
00
FA
FD
03
00
14
01
15
08
FF
03
05
0C
06
FF
FC
00
FA
01
01
0C
1B
FB
06
F7
F5
07
07
23
06
F9
FB
0B
00
0A
07
04
FF
FF
FE
05
F6
0A
0C
00
03
FF
FA
07
1A
00
FC
0A
03
09
11
02
05
F9
06
00
02
01
FF
F5
06
F8
FF
09
08
FE
05
02
11
10
F4
F6
00
06
04
09
01
0B
FD
0C
15
14
00
F2
FF
04
DF
FF
FA
06
FC
0A
F4
02
FD
1C
FF
01
14
02
00
07
04
02
0E
FF
01
FC
FB
00
04
FE
01
FA
FA
07
07
02
01
07
02
1D
FD
FC
09
FB
09
F2
17
03
03
05
06
FD
FD
FF
07
15
15
0A
F7
01
00
FC
F9
12
1A
04
08
F7
03
FD
FD
03
01
FF
09
07
EC
0D
08
02
F6
02
F9
FE
01
FA
FD
FC
08
01
04
09
04
F4
17
06
FF
0B
06
01
08
FC
15
00
07
FB
01
FD
0B
03
F7
07
F9
04
FE
01
06
07
01
02
F7
04
03
00
FA
07
07
05
06
0D
FD
03
FC
FD
F7
0B
0E
00
E0
FD
FD
05
FE
FF
08
FD
F9
FD
FC
02
01
F7
F7
F7
02
F8
EE
FF
07
12
F6
02
00
FD
FE
FE
FC
01
01
FF
0B
00
FE
F9
FF
0B
01
FE
03
FF
03
F4
03
01
00
FE
04
FF
FC
08
F3
03
0A
0A
F8
01
07
04
02
00
FE
01
FF
01
01
FE
FF
0A
06
03
0B
03
FE
FF
04
01
F7
01
07
01
03
00
02
02
07
FC
FF
F8
01
FF
06
04
07
03
00
F4
F8
FB
FE
01
04
FF
FF
01
03
01
03
02
FA
0B
FE
FE
07
02
FE
03
07
04
FD
06
FF
02
01
FB
FF
07
FE
FD
FF
01
00
03
01
05
03
FD
0A
FB
06
00
07
05
00
FC
FD
FF
FC
FF
0A
FE
01
00
FE
FB
02
06
03
FC
FD
FF
00
FF
06
01
00
05
07
FA
01
F4
02
FF
05
FD
05
01
02
01
FC
FD
08
FC
02
00
F8
FD
02
02
FE
FD
FD
FF
FE
FA
02
FD
01
01
FF
FF
08
FF
FE
03
FD
01
02
03
FC
0F
01
FA
EC
00
00
06
11
FE
03
00
FD
FE
FD
02
03
00
05
01
FC
FF
01
08
FE
04
00
05
FF
FD
01
0A
01
02
FC
03
FF
05
01
FF
02
02
FF
FE
FA
04
07
F3
FF
01
0B
F6
F2
FF
FF
0B
F5
12
03
00
00
00
01
FF
FA
00
07
00
0F
0A
04
04
09
14
F1
03
03
FE
00
0A
FD
06
02
FE
09
08
01
01
05
01
04
06
00
F7
07
0F
06
00
00
F9
FE
00
07
FD
F9
02
FF
0B
05
0C
FE
F8
00
0B
04
FF
FE
F8
01
02
09
04
06
02
04
FB
FC
0B
F4
FE
00
00
05
01
00
FE
FD
F1
05
FC
FB
07
08
0B
05
FE
00
05
00
01
00
06
01
02
01
FE
01
FC
06
00
02
00
F8
F9
06
07
01
03
03
06
FE
00
F9
06
01
02
06
00
0A
03
FE
04
0B
FC
FD
01
00
02
0D
05
FB
FF
01
03
0C
07
00
02
FE
07
06
01
08
FD
06
04
02
01
04
02
FF
FB
0E
FB
04
02
04
0A
01
FF
FF
00
03
05
06
01
00
02
F7
03
FC
02
05
04
FF
07
03
F9
06
06
03
00
FD
0C
F8
06
FF
04
05
0E
FF
01
0C
06
FB
FC
07
F9
FD
01
06
03
FF
FB
F3
FF
07
07
02
05
04
FB
FF
FB
06
04
F9
F8
05
FF
00
06
07
F7
FE
04
FE
00
03
02
02
03
06
01
01
0F
FC
F7
02
00
07
05
FF
0B
00
FF
03
FF
FE
0B
F2
03
0B
FB
09
01
01
FF
04
0A
FE
00
F5
E9
09
01
01
FB
FC
F8
02
FF
05
02
FD
00
0D
02
04
04
09
FE
02
FC
FE
01
00
00
03
09
06
0C
05
04
03
FE
FF
01
07
FE
FD
0A
FD
05
05
FE
FF
FE
FA
02
FD
01
FB
F6
FC
07
FD
01
FF
06
08
FE
06
FE
F0
02
14
FD
07
09
02
09
FE
02
04
01
00
0E
01
FE
04
07
F9
01
07
FD
00
01
FC
05
02
FF
00
01
FE
00
FA
00
01
FD
F1
FE
08
F5
06
01
01
00
02
04
04
00
F5
FF
0D
FF
01
F4
04
01
FC
04
01
FE
01
03
01
00
0A
FD
0B
04
01
FE
FF
09
01
FF
04
05
FF
FE
05
07
04
F7
00
02
FE
00
00
0B
00
01
09
FC
FF
09
09
FE
FE
00
01
0A
F7
FF
FC
0A
07
00
02
FF
00
FF
02
00
05
05
01
01
FF
05
ED
14
00
F6
FD
03
04
03
06
FA
FA
F7
02
06
07
FC
02
F4
FE
FD
04
FF
0C
FC
FE
F0
FF
00
00
00
FB
18
06
F5
FB
F9
03
FB
02
03
00
00
02
0B
0C
02
06
05
FF
FD
02
07
11
04
FF
FC
F9
10
00
00
F1
F5
05
05
F8
FE
FA
05
F2
FD
FE
F9
F9
00
04
03
EB
0F
02
FE
FE
1B
FE
FA
04
E6
E9
F2
FC
02
FF
06
F9
00
FD
01
02
00
FF
11
09
FD
FF
01
FF
E6
FB
01
FD
01
02
FF
F8
F4
FF
FC
04
FF
FD
02
FC
FE
01
04
FF
FC
06
F6
F8
05
F8
FB
04
FA
04
01
03
14
F7
FC
01
FE
00
F5
FD
FA
05
F9
FB
FA
07
F9
01
01
F4
FD
03
FE
F2
02
FF
FD
03
FF
F8
FF
FE
09
01
00
FE
00
01
00
03
09
FB
03
05
F5
FB
01
FF
03
05
07
09
FF
05
FE
12
FD
08
07
0A
04
00
00
0A
F6
FB
05
FF
FF
00
02
02
EC
02
FF
04
02
02
05
FD
03
00
FD
FB
FC
0B
00
FC
FC
00
01
F3
FE
FB
02
07
01
04
01
07
FF
00
FB
FD
FC
00
FE
F5
FF
FC
FD
08
02
06
05
00
F5
EF
FF
01
FA
05
FB
FC
FB
01
F9
00
FB
FD
09
01
01
02
F9
02
FF
F4
01
F9
F9
FF
FF
FC
03
02
08
F8
00
F7
01
02
01
F6
FD
07
02
02
F6
FB
FC
00
06
FB
01
04
FD
02
FA
FF
05
F8
FF
F2
F3
00
FC
04
FD
00
01
FF
06
00
FE
E9
01
07
F8
00
FA
FF
FD
04
FF
FD
04
EF
F0
FB
00
01
FC
03
FF
FC
00
FF
04
FE
02
03
F7
FC
FF
FD
00
00
01
FE
FF
FD
FE
02
FF
00
02
FD
03
FE
00
FF
F8
02
00
01
00
02
01
07
FC
04
03
01
FD
01
F4
F9
01
FF
02
FF
03
FC
02
FF
05
03
FF
01
04
00
03
FF
FD
FD
F8
FD
FE
01
FC
07
FF
FC
FF
00
03
FB
00
01
09
01
FF
FF
01
04
03
07
F2
00
E9
0F
00
01
03
03
02
01
F1
FF
FB
FD
01
02
03
00
04
F5
00
02
01
08
07
04
00
01
F8
03
FC
04
04
FE
FB
FD
01
F8
01
00
FD
01
FD
01
02
02
00
00
FE
FC
02
FF
FE
FF
01
F9
05
01
00
01
01
FA
04
01
FE
06
00
00
FF
FF
03
00
FB
04
04
15
01
FE
00
F9
FC
03
01
00
FE
FE
FC
01
02
04
00
03
FB
00
FE
F9
FE
00
05
FF
F6
FF
FD
00
FE
FD
00
00
01
FF
FF
02
00
FF
06
00
01
01
00
01
FF
00
02
FE
04
00
02
EA
FA
00
05
01
02
FD
FE
FD
F7
01
FE
FC
FC
00
01
FE
F8
02
FD
F7
0B
FF
FB
08
0B
FD
F8
FD
FE
10
DE
0D
FC
02
FC
06
F4
0C
FD
F4
0A
FB
05
FD
09
0B
0B
0F
02
FD
FF
07
F7
FE
0E
06
05
01
F9
06
FF
ED
FE
18
F4
0A
FA
EF
03
F9
02
FD
07
0D
01
00
01
FE
FE
FE
FB
00
02
FD
FD
05
08
FA
F9
FF
F7
FF
FC
F3
20
FB
FD
F8
06
FD
09
02
EE
02
FF
FA
F2
03
02
FD
FD
00
05
F6
F2
06
F8
FF
F5
15
04
01
08
01
00
01
06
0D
05
FA
00
F2
00
FF
FB
FB
F0
0C
02
FF
00
FF
07
06
03
06
FD
FD
0A
F9
F6
02
F9
09
FA
00
FD
FF
00
05
00
01
FA
FF
FF
FF
FE
FF
06
03
02
FA
FA
07
00
FD
F8
02
03
F8
07
FB
F8
F9
02
FB
FE
FB
00
02
F8
11
01
E4
05
02
F5
02
0C
FE
02
FE
02
FC
00
FB
0D
FA
00
FF
13
16
F4
11
F4
F6
03
FC
F8
00
04
00
FD
04
12
FC
FA
01
FC
01
02
03
0C
FE
00
FE
F9
07
F8
F9
FD
F5
FD
02
01
FF
FC
FD
FE
0E
FA
FA
02
FC
FB
FC
07
FD
FA
FA
00
08
08
07
04
00
01
FE
FA
01
11
FE
EC
F5
FF
FC
F3
03
FD
04
02
07
FD
02
07
FE
00
00
FF
FE
FC
E9
F3
FB
EE
FE
01
FB
00
07
F9
FA
FE
04
FF
F6
07
FD
06
03
09
14
FF
05
FC
FE
FC
F6
05
01
FB
EC
01
03
01
FD
00
F5
FF
FD
04
06
FD
FA
04
00
FF
00
01
08
05
02
FA
F6
FA
04
F6
02
F9
FD
FD
07
01
00
FD
E4
FE
FF
FA
F1
00
0A
EF
FE
FE
FF
03
04
03
FF
FF
02
FF
FC
F5
FA
FF
0B
FB
F8
03
02
01
FF
EF
FE
03
EE
02
02
00
05
FE
FC
00
07
F2
FE
06
01
04
00
13
08
03
05
01
F4
FF
04
02
04
07
F5
FF
FE
FD
FD
03
01
FF
00
FF
07
01
FF
01
F8
FB
02
03
F6
FC
FC
FD
02
E3
FA
FE
FB
00
00
00
03
FC
00
00
E2
FB
0D
FD
0B
00
FE
02
FC
05
FB
FF
03
01
F9
04
F7
03
F9
FF
03
1B
FF
E9
09
00
FD
FE
00
FA
F8
19
03
FE
02
00
02
F8
FD
03
06
0C
03
FD
01
FD
02
FF
FD
F5
EF
FC
01
00
15
00
03
FD
01
FE
FF
FD
F9
00
F6
05
F1
FB
05
FD
02
F6
FB
FD
FD
FE
FE
F8
0B
00
07
FB
EA
00
FF
E2
FF
03
06
0B
09
04
FD
FA
00
1F
00
0E
01
00
FB
0A
E4
FF
0F
07
00
02
FC
F1
F2
FE
FD
00
F4
0B
01
FA
0A
F4
F7
0D
01
11
00
FE
05
02
02
08
07
FE
04
02
0A
FA
FB
03
08
04
FD
01
ED
2B
07
FE
00
FD
FD
FE
00
03
D8
FD
F6
FF
F6
F2
00
FC
0C
FC
F4
FC
E0
F8
01
FF
10
FE
0A
09
FB
FF
02
FC
FD
FC
FD
16
03
05
08
FC
FF
FD
00
F8
04
FF
02
01
05
08
F9
17
FB
17
FB
FD
F7
00
09
FC
F9
F7
FD
02
FC
FF
00
FA
03
03
FD
FC
05
DD
08
09
F7
06
F2
06
0C
FC
00
15
F9
FB
03
27
08
FE
0D
0A
F8
EE
FD
FE
EF
09
FC
0C
FC
0C
FB
00
FE
00
F8
04
F8
03
05
F2
FA
FF
0A
FF
01
D5
FF
08
FC
0C
FF
F6
06
FE
F8
FA
FD
FB
D2
F8
FF
F8
FF
05
0A
03
E7
FD
05
02
06
1A
00
FB
F0
02
F3
F2
FF
12
F5
06
FB
FF
FE
F2
FF
FB
01
EF
05
F9
00
F9
05
EE
01
0F
FF
F9
17
02
E9
FE
00
00
EA
F9
FF
06
FB
0A
0C
08
EC
FE
01
EB
03
FF
07
FC
FB
00
07
02
06
05
FF
04
FA
FD
07
FE
01
F5
00
04
04
FF
01
FF
FC
F9
01
01
FA
01
05
04
05
FF
FC
08
FF
FE
08
FD
FE
02
0C
01
FE
06
FE
00
00
01
FF
01
02
FF
01
00
01
FC
02
00
00
00
FF
FF
FF
02
02
01
03
04
F9
FF
02
FD
00
02
08
FE
FD
FB
01
FF
00
02
F9
09
F8
00
02
FE
01
01
01
08
00
FF
02
04
FF
FD
FF
05
08
02
F8
00
00
00
04
04
FE
00
FE
FC
FF
FD
FD
F8
01
FF
03
05
04
FC
02
FC
FE
01
00
FE
FB
FF
01
04
FD
00
03
08
FF
04
07
FE
F9
FB
12
05
FC
00
02
03
02
06
FC
01
09
00
FD
00
FF
FD
00
09
FF
00
09
01
09
FD
01
04
00
FF
06
03
08
FE
FF
02
FD
FF
F9
05
FE
00
FF
01
00
02
03
00
00
FF
00
00
01
FF
01
12
02
06
FE
FD
FE
02
FA
09
01
00
FE
01
01
04
08
02
04
00
FE
09
03
02
04
FB
F6
06
03
01
0C
01
01
FC
FD
FD
FB
01
FF
01
FF
FA
01
04
01
01
FA
01
01
0C
FF
08
01
00
FF
FF
1D
00
FF
01
FD
00
02
00
FE
FE
FF
14
FA
06
FD
03
FD
04
FE
FF
02
F4
01
FF
04
02
FF
FF
FD
F7
00
00
07
00
06
00
FE
FE
00
FE
FD
09
FF
FD
03
FE
02
01
04
06
00
FC
08
00
00
04
FD
01
FF
FC
FF
F5
FC
FE
0B
FF
F9
FE
00
01
07
00
FE
00
FD
05
00
03
02
FC
F5
07
00
01
FE
02
01
08
05
FD
F9
F4
FC
F8
01
01
02
FF
FD
FF
04
F5
00
FF
01
10
01
FF
02
01
00
05
05
FA
F3
04
00
FE
FC
03
FE
0B
FE
FC
FE
FB
FC
07
F8
F8
08
00
F7
FF
F9
03
01
F4
FC
02
01
F6
F8
00
08
00
FF
04
05
01
04
01
FF
FE
02
F8
FF
00
05
01
06
FE
07
04
00
00
FD
FE
FB
01
02
FF
F5
F8
01
02
00
04
02
FF
00
F6
00
01
08
02
03
05
05
02
F9
03
FE
06
06
02
01
02
03
FE
FF
03
FF
FB
05
FD
00
FD
05
02
F7
FE
0A
04
02
00
FF
07
03
EF
02
FF
04
00
03
F5
FF
FF
00
FC
01
00
07
00
02
00
04
09
F9
01
00
FB
01
07
0B
FC
FF
FE
08
03
02
03
04
00
01
03
04
FF
FD
FB
02
02
00
02
02
01
FC
FD
05
05
00
F6
FC
01
09
04
FF
F7
07
0F
0E
06
F7
03
04
FD
28
F7
FF
FB
0F
19
F8
0B
FE
09
00
04
0B
F9
08
0A
FF
04
FA
F9
FB
03
F8
01
F3
08
F0
09
0A
10
17
F9
01
17
11
02
06
FD
16
05
EE
06
07
04
09
FB
01
EF
01
FD
FE
0D
FD
06
04
E0
00
08
FE
01
0A
03
13
0D
F8
FB
F4
05
02
04
E8
00
02
18
07
E7
FD
EB
11
04
ED
13
0C
06
04
FE
FF
FA
0D
0A
04
05
07
0B
F1
06
F2
06
FD
FD
FD
FE
FC
03
F8
07
FB
04
F8
F3
0F
0A
03
03
FD
FB
01
14
04
04
00
EE
01
01
05
06
F3
2E
FF
01
0B
07
09
04
00
FE
06
01
02
08
F4
05
01
FD
04
01
03
10
08
01
F7
08
08
07
0B
09
00
04
F9
E2
E9
02
06
06
00
F8
01
F4
03
04
FF
0F
26
ED
03
02
F5
13
02
0C
25
0A
05
04
FA
EE
00
01
FE
00
FE
0B
0C
E3
0B
03
FB
FA
16
04
F2
FE
00
03
01
06
FF
0D
13
18
00
05
FD
FD
F0
06
F1
F1
FC
01
01
00
F6
EE
02
FC
05
FF
01
FD
08
DE
F5
FC
0A
F9
FC
FC
03
0A
FB
03
08
FF
04
EA
04
F8
04
01
FE
06
06
00
FC
FE
0D
FE
FB
F8
FE
F3
FE
01
01
FC
FC
03
FD
02
00
02
04
02
04
EC
FB
05
05
FD
06
F8
04
00
04
02
FA
D7
04
08
05
FB
00
0E
F6
FB
F1
FC
F2
F8
05
FE
09
05
05
03
03
FB
07
06
06
00
06
02
FD
07
DE
02
01
FE
03
03
06
0B
FD
F2
00
01
EF
04
00
FF
01
FB
0F
F9
01
0D
F6
F6
FC
F9
08
FB
FB
05
F0
09
FF
01
FC
FC
F9
FA
FD
E9
05
07
FA
00
01
F7
FE
08
06
03
FF
F5
FD
FA
01
03
FB
06
F6
06
FD
00
FB
05
FC
03
F1
FB
02
FF
04
03
03
04
FF
E5
EB
00
F9
03
00
03
07
E6
02
0A
F7
FD
FC
FE
00
00
FE
04
F8
06
FF
F5
F9
01
0D
FA
F3
0A
F7
00
02
FD
FE
FF
FC
02
FE
FA
09
F6
00
05
F4
FE
EC
0A
08
06
FD
02
01
10
08
04
05
0A
FC
04
FB
EE
05
FE
FE
F6
01
FA
FF
F9
11
FC
04
F2
FB
FB
00
FE
01
F4
FF
FB
0A
00
FD
FF
EA
02
0B
02
01
FB
00
FA
04
F9
01
02
03
08
01
00
00
FF
03
02
02
0B
07
FE
04
0A
03
FB
FF
00
08
FA
04
02
F6
0E
FE
02
0B
1E
02
0B
FA
0B
FF
FE
FD
08
FF
05
03
03
01
FE
03
02
0B
01
FD
08
09
FF
04
FC
FB
F8
FF
0E
05
07
03
02
F7
06
FD
FA
07
06
FB
01
FE
04
09
03
F6
FC
00
02
FD
FE
04
FF
FF
01
FA
F9
07
F7
FE
01
02
0F
0A
FD
03
09
02
07
00
00
02
00
F8
0E
01
FE
08
02
02
01
04
01
01
03
02
01
02
14
02
FE
03
FD
00
FF
15
06
FB
03
05
FC
0C
FE
00
08
02
FF
FE
01
FF
FE
FF
0A
FC
F7
02
03
FC
05
05
09
00
03
03
00
07
11
00
FF
FE
0B
01
FF
FF
03
00
FF
00
02
FE
FF
0A
FF
FC
FF
FC
0F
0A
09
06
FE
FD
FF
FE
FF
00
02
00
FB
04
FF
04
03
0C
02
07
0C
FE
01
FF
06
03
13
04
FB
F8
00
FE
19
06
00
FE
FE
FF
08
12
FF
FF
FF
01
00
FE
F6
03
03
00
07
FE
07
06
00
01
02
03
FE
0A
FF
FC
EF
00
FE
FF
05
0B
FC
00
FD
FC
FD
03
FE
10
FF
FE
14
0A
FB
FE
FF
07
05
FF
11
06
0A
14
FF
03
FF
1C
FE
14
00
08
EB
1B
FE
FC
03
F8
03
F4
21
FC
07
F4
00
FC
F5
06
ED
07
18
F5
F8
FF
11
1F
FF
F3
FF
FD
21
FB
EE
FF
07
0E
02
03
F8
F6
D9
F2
F7
0C
01
06
0A
02
22
00
06
F8
FB
13
01
01
F6
29
03
DB
04
12
01
D3
02
F7
1B
04
F1
FC
FE
FC
02
00
FC
07
FF
09
06
F3
F3
09
13
00
0E
F2
07
06
17
EF
03
06
09
F2
00
02
0B
21
F5
02
0B
01
0F
12
FD
03
FD
EF
01
06
EC
1F
F4
05
07
F0
04
F8
14
F7
F5
FB
FC
00
00
0A
15
04
07
15
0C
F7
0C
F6
05
FE
0A
00
00
FA
04
06
01
FD
FE
09
0C
0A
0C
FF
08
07
04
16
05
03
FE
29
F7
02
1F
F9
FE
F0
F0
06
10
F7
00
FE
23
FF
06
01
FE
08
FE
16
02
F6
18
12
F8
F8
FB
04
1B
12
05
05
15
FD
0A
FE
08
04
F8
15
30
F2
F6
FC
0A
FA
FC
F7
FC
00
02
FE
FF
E5
FE
01
00
01
19
0C
00
F5
00
F8
07
FF
0B
00
09
0B
F0
00
13
01
14
09
08
1C
0A
0B
10
20
11
14
12
2D
EF
EC
0B
00
FF
00
02
01
FE
FF
FA
01
FE
FD
FE
02
FA
FE
00
00
00
FF
FC
01
00
00
03
03
00
FF
01
01
00
FC
FF
FE
00
00
03
FC
00
01
00
FF
FE
FF
FF
02
03
FC
01
FF
FF
03
00
02
01
02
FE
01
00
00
01
FC
FD
FE
00
04
FE
01
00
04
FE
F8
00
FE
F6
F4
00
FF
FE
FC
01
FD
FB
00
01
00
00
01
FD
FE
FD
F7
02
FF
FE
00
EB
FD
01
FF
00
00
FC
FE
FD
FF
FC
02
FE
FF
FF
FC
00
FF
01
FE
FE
FF
FF
08
FC
F8
FC
01
FF
FE
00
00
03
FD
03
00
FE
00
00
02
FE
05
FE
FE
00
01
F9
F7
FF
FE
FE
00
00
F5
00
00
00
FF
FD
FB
FB
01
03
FB
FC
01
F9
F8
FB
FF
01
00
00
FD
01
01
FE
01
FC
FB
00
01
00
03
01
FF
FF
FF
04
F6
00
FD
03
02
01
00
FE
00
F8
FE
FD
01
03
05
FE
02
FE
00
01
04
FE
FC
01
02
02
FF
FE
02
00
00
04
FF
02
01
FE
00
FF
01
01
00
00
F3
00
FE
00
01
00
00
FD
01
FF
FF
FF
00
03
00
FE
00
00
FE
FC
FF
FE
01
FF
FF
01
03
00
FF
02
03
FD
FD
08
05
01
1B
FE
01
08
00
10
01
09
02
F8
06
02
05
F8
FB
00
F8
FB
F9
F5
01
09
0B
05
09
0A
FF
00
00
01
0C
05
00
F8
03
04
08
FF
01
00
FF
03
FF
00
FC
04
F7
FB
FD
02
00
F5
0A
05
FC
FF
FF
FC
FB
04
FD
00
FE
02
06
F9
08
FC
FC
FE
F7
01
02
FF
F2
F9
FC
FD
FC
06
FC
10
FC
FE
02
00
01
FF
FD
EB
FF
FD
0B
02
00
FA
04
0A
F7
FD
F3
FE
07
FA
01
FE
F8
02
FA
F9
FE
02
0B
02
02
03
FB
01
06
F9
FC
06
03
02
05
09
09
02
03
00
FD
F7
FD
00
FE
01
00
06
0F
FE
F3
FD
0B
01
FB
03
01
0B
FF
15
FC
00
13
FF
FE
0B
0C
00
FE
04
09
00
0C
FD
01
00
08
00
FC
00
00
0D
F8
FE
16
07
F0
0D
0F
02
00
0E
FD
04
F8
02
01
F5
FF
08
FC
FD
05
FD
FC
03
01
03
FC
06
05
01
00
F9
FA
FB
FD
FD
00
04
02
09
FD
FF
03
08
F5
0F
02
FA
05
08
FE
F6
02
FF
00
05
04
01
00
FF
FE
02
FB
F6
FF
FE
00
EF
F7
FD
04
07
0F
FF
02
F8
FC
FE
03
FE
FF
F3
F9
FD
02
FF
FB
02
FF
00
FF
07
01
F8
E5
01
F9
00
FD
02
04
FF
06
FC
F5
01
FE
FE
01
F8
ED
01
04
07
09
FF
FA
F7
04
0A
04
FF
FF
FC
00
01
02
F6
00
F5
01
00
0A
03
F8
03
03
05
FA
FC
00
F4
08
FC
02
FD
02
FB
07
0D
FD
F7
FE
00
F9
F5
00
03
F6
FD
F5
02
01
02
F9
02
EF
01
0A
FA
FE
02
FD
F1
01
00
E7
00
01
05
FB
01
FF
FC
01
FC
FF
FB
07
FE
EB
00
05
F9
04
F8
04
01
13
F9
F3
FF
00
04
FF
06
FE
02
02
05
FE
01
05
FE
FC
03
FD
00
F8
02
FF
FE
FD
04
FF
03
EF
FF
F8
03
FB
F8
FD
FF
FF
FB
02
02
02
FD
00
00
FE
F7
04
F7
F5
FF
02
04
0C
FE
05
FE
02
FF
01
01
E6
FD
FC
04
02
FF
FF
FC
01
03
01
00
00
F6
FF
FD
06
01
F3
07
FF
00
FC
FB
FC
00
03
09
FF
FC
FE
FA
02
F6
FB
F8
F8
03
F9
FD
FC
01
FF
FC
FC
01
F5
FE
FC
F9
FF
FC
01
FF
EC
01
04
FF
FC
FD
FF
04
02
01
00
F8
F9
01
01
FE
05
FE
FF
FC
FE
FF
FD
08
07
05
08
01
FE
02
02
01
00
09
FE
01
FE
07
0A
02
F4
FD
12
00
05
01
FD
04
0F
FD
FD
FE
0A
01
09
01
FE
FF
FE
05
00
10
02
04
FE
02
01
FE
00
FF
FF
FF
06
FF
F9
FB
09
01
FD
05
FF
01
06
FE
03
01
04
02
04
FF
FC
0C
FE
04
00
FA
FF
00
FF
02
08
00
FE
03
02
FD
FD
FE
04
01
06
FD
FA
F2
07
FE
00
F7
FA
0A
FC
04
00
FC
00
03
00
04
0A
0B
07
FD
01
F8
03
00
01
02
FC
02
06
F5
03
01
05
00
FD
01
FF
03
F9
03
FE
FF
04
02
FE
01
01
05
07
02
03
00
FB
0C
FE
FB
03
11
FC
FA
06
03
03
FA
00
FC
01
FD
01
02
01
FF
FE
F9
00
F9
FF
04
FF
09
FE
02
02
FB
07
00
FE
01
07
05
F8
03
02
05
06
03
FD
FD
04
01
FF
FE
01
06
FF
01
FF
02
01
FF
01
00
15
02
02
FD
F9
09
F8
FF
01
09
0F
FD
FE
08
FB
01
05
08
00
FC
06
FE
01
0A
00
0A
04
07
FE
01
0A
01
0A
FD
FD
FD
09
00
FE
01
F6
FD
FD
06
FF
FC
FE
FA
FD
FE
F5
FC
FE
FE
07
10
19
F5
FA
00
FE
FC
FE
FD
FE
FD
03
03
03
00
01
FF
FA
07
F3
FE
0A
01
04
0A
06
04
02
FA
0C
FE
03
F4
04
FD
03
FC
FB
10
FA
FB
FB
02
FD
07
FC
02
04
01
06
0A
F4
F8
0A
FA
05
F6
F9
FD
01
03
FE
03
FC
01
F9
F9
FB
FB
10
02
FC
03
02
FF
FE
03
FD
04
02
00
04
09
FE
03
FB
FA
FD
0A
06
06
FF
01
F9
06
FF
FE
F4
06
FE
14
FC
01
04
FA
F9
FF
FD
F3
05
0C
0B
01
00
10
07
06
FA
F4
F7
05
02
00
FE
13
02
05
01
FD
FF
00
FD
10
F9
FF
00
04
01
02
04
03
0B
02
02
00
FA
FD
05
FD
06
01
02
04
01
02
F7
03
04
FC
02
00
F6
04
01
0B
0B
03
04
00
00
09
F5
03
04
00
06
FE
00
FF
F1
06
03
02
FB
05
FA
00
03
00
FB
0D
05
06
F8
ED
FD
03
01
0E
FF
01
FE
FB
FA
F9
13
FE
08
04
08
07
FF
0D
04
FE
FF
FF
02
06
00
03
F6
07
FC
02
FC
F7
F8
08
01
04
FD
FD
FC
FD
FE
FD
F7
FF
00
08
F5
FC
02
EE
07
02
F8
06
06
01
FE
FE
08
01
FB
FF
F6
0A
03
04
0C
00
F9
0B
01
FE
03
FE
F9
FE
00
01
04
13
F9
01
FE
03
FF
F2
03
FF
00
02
F7
FE
02
03
05
FF
FF
FB
FD
00
04
FC
02
06
00
FE
00
04
FF
FD
F6
01
00
FE
F7
FB
06
00
F5
F9
F3
06
03
FE
09
FC
03
FE
02
03
01
F9
03
FE
02
00
05
FD
FE
02
FC
FA
FD
F8
FE
FC
01
FF
FF
00
01
FC
05
02
10
F4
06
01
0D
00
FF
00
FA
F0
FA
08
FE
03
FC
FC
02
FF
F7
FB
FB
00
00
F8
08
FF
FE
03
03
FD
0A
F5
FC
05
01
F9
02
02
F3
FF
FE
01
06
FD
FF
03
FA
FE
0D
07
05
00
FA
E1
FB
00
00
03
00
F9
01
FE
FF
01
F8
02
02
F7
16
00
08
FE
F4
FF
09
FF
02
03
EC
01
FE
00
03
01
FE
00
04
05
02
FD
F7
06
00
00
FC
02
01
FF
FD
01
F8
02
04
04
06
FE
F8
0A
00
FE
03
02
02
F7
03
FA
03
01
01
00
FD
F4
F9
07
FE
01
01
02
FD
EE
FB
00
03
00
01
FB
06
FE
07
03
FB
04
FF
04
FE
F9
04
F7
00
01
FF
F4
00
FF
FA
FC
FF
00
05
00
FC
01
01
02
0F
04
FE
03
F9
F9
00
01
00
00
03
FE
FA
FB
00
06
F0
05
FC
00
FA
02
04
04
06
F6
FD
02
F3
03
FE
05
02
03
01
02
01
F8
01
03
15
00
02
FE
01
FC
FB
FD
0A
03
01
09
05
FF
F2
F8
0D
03
FC
01
FE
FD
FC
F8
FF
07
06
FE
0A
FF
FE
03
00
FF
01
04
FF
06
F9
04
00
02
03
F3
00
FB
00
F8
00
F4
F6
00
02
EB
02
FF
FF
01
04
0A
FD
00
FC
0B
FD
FB
02
09
F7
FD
0E
04
FF
FB
F9
08
00
02
06
05
00
00
FB
0F
FA
06
FA
FF
01
FE
17
FA
01
00
FB
03
05
FF
FF
00
FD
FE
05
F7
FB
03
F0
FD
FD
03
04
07
00
07
00
09
03
02
FC
08
02
F9
01
F9
04
FE
00
FD
05
FF
04
FD
FF
FF
F9
00
FA
02
0A
FC
F1
FF
03
FD
07
00
03
F7
FE
02
01
04
04
02
FB
FD
FE
01
08
F8
FE
FD
FE
01
00
ED
FE
03
03
07
00
03
FF
F6
FC
00
FE
FB
01
FC
03
11
FF
04
01
01
04
FF
FF
F6
FF
00
01
FD
FE
FF
01
02
00
08
0B
FF
FF
FB
03
FC
FE
08
FD
03
FD
FD
FD
FC
04
00
FF
F8
FE
00
01
02
F8
FC
FF
02
01
01
FE
FF
09
FE
FE
FB
03
FE
FE
FD
05
FE
0C
03
00
FF
F4
01
02
FF
FB
F5
FC
00
03
02
01
04
FD
FD
00
02
06
FC
01
02
F7
0A
04
FD
00
00
03
00
FE
00
04
FD
FA
FF
0B
FE
03
FD
F0
F8
F0
FE
FD
F5
FB
02
FF
F6
FE
F6
02
F8
02
03
FA
01
00
FD
FF
FB
F5
06
04
FE
FB
04
FE
01
03
FF
FF
03
F6
F4
00
FF
01
FC
05
FC
01
FB
02
FF
FF
01
03
FD
FF
FB
FE
EB
FF
01
02
01
02
10
E7
FE
FD
F9
FF
F1
04
02
0D
01
00
FB
FB
F9
E9
01
FE
F2
01
00
FF
00
03
03
FE
FB
01
04
01
00
F5
04
01
06
FF
02
FD
FB
FC
01
06
00
01
04
02
04
02
FF
FB
00
00
01
01
00
FF
08
01
F9
F8
FE
F6
02
FC
02
FF
00
FF
05
F6
FE
0A
FE
FE
08
00
FF
05
FC
ED
02
FF
F9
FA
02
FE
FE
FE
09
00
02
04
FC
FE
03
FD
00
FD
FE
FA
00
04
02
FF
06
F0
09
01
FC
00
FD
01
03
FA
FF
FE
FE
FC
04
00
F7
F9
F9
00
00
00
0B
FC
00
02
05
00
FB
00
00
04
FD
FE
03
FE
07
F6
FB
F9
06
FB
F7
FE
FB
F8
2B
FD
0A
F9
11
FB
F7
FD
01
F8
05
0F
FD
FC
01
F9
00
FE
04
F6
FF
24
F8
05
1A
FB
08
FC
00
FB
15
FB
00
FE
F9
03
03
0D
01
FC
18
13
02
04
FE
10
FB
00
07
02
00
00
02
FB
03
FF
07
02
0C
03
00
FA
00
FF
00
F2
FF
0C
02
FB
FB
04
FA
FE
03
0B
01
FE
0B
FB
F8
02
F2
F0
FB
FA
02
FA
01
01
04
04
FD
09
03
07
FB
09
09
03
04
01
FC
0A
FF
FC
05
06
FC
0B
09
04
01
FD
03
04
FA
00
F6
FC
FD
0D
FA
07
04
05
FD
FD
00
F9
02
EA
04
FF
07
EC
12
F5
FB
12
FD
FD
08
FA
00
03
FE
10
FD
FF
FC
FC
00
06
03
0E
0B
FE
03
01
F3
FE
FC
FB
00
F7
AA
FC
02
06
FB
02
03
FB
0C
E3
F7
00
03
F3
05
F7
F7
04
FB
06
03
03
01
FB
F9
07
FD
0F
06
FB
F8
F6
F9
00
09
01
06
FF
08
00
01
FA
03
01
06
05
00
FC
04
01
F5
15
02
05
03
F9
00
02
FA
07
0A
06
06
0A
02
FE
FE
06
01
00
02
00
0B
01
F9
FF
F6
FD
FF
FE
FF
00
F0
F7
00
FE
FE
01
FD
FD
00
00
FB
F8
FF
02
F8
FC
02
FF
01
04
02
F9
FD
05
02
01
00
01
00
F7
FE
02
00
FF
F9
01
06
FE
08
FD
02
FD
05
01
FE
FF
F5
FB
07
04
02
F6
02
FF
01
00
02
FF
02
E7
FD
FB
00
FB
08
FD
F6
08
01
FC
01
01
FB
03
00
05
FE
FA
04
0A
FC
FF
07
02
00
01
01
01
F8
FD
00
FA
F9
FD
02
00
03
04
FF
04
FA
FD
01
0B
05
01
00
FE
F7
00
FF
03
01
02
FE
FF
00
FE
02
F9
FE
02
F1
01
02
01
FF
00
FF
04
FD
0B
02
F6
F6
FF
FF
00
FC
F9
FA
00
03
00
02
F8
02
F7
FA
05
03
FF
06
01
FE
F4
F6
02
03
FD
FF
02
00
FB
00
F4
F9
03
F1
01
F5
F9
FA
01
FE
FE
FE
01
F3
01
FB
01
FD
01
FD
02
F8
02
02
00
00
FD
FE
04
F1
06
01
FF
FD
FD
F9
F6
FC
06
06
04
02
FF
FE
02
00
05
01
00
01
02
00
FA
FE
FE
00
01
FD
02
FE
01
00
04
03
01
00
FF
08
00
FC
02
04
F6
00
08
FC
02
F5
FD
F9
F9
F7
07
03
07
F7
02
07
0D
02
FE
FD
F6
00
04
04
26
02
FF
FE
FE
06
F9
00
F4
FD
00
01
09
04
FC
02
09
0B
00
00
00
FA
07
FE
FD
FF
07
02
04
00
00
FB
0F
05
FB
03
FA
03
FA
08
01
04
FD
00
FF
F6
00
FD
FF
01
03
04
F5
FE
F9
09
F8
0A
FF
FD
FE
05
01
F9
FF
FE
01
FC
00
08
01
01
07
04
FD
00
00
F1
FE
06
06
00
0D
FF
FF
FF
05
F6
FD
FF
01
07
03
10
05
04
FD
FB
03
06
04
FD
F6
FA
FE
FA
02
FE
FD
03
FC
08
01
FF
FF
03
FF
FE
FB
0F
01
FD
07
05
00
FD
FD
02
02
01
FA
0B
F9
02
FD
F7
F9
FC
02
FB
FC
F5
00
FC
04
00
01
FE
FF
01
02
01
01
FF
02
FE
FB
F8
FB
FF
FE
02
00
00
F4
FB
FE
FC
0E
04
00
F6
00
00
05
ED
01
04
FB
FB
F5
FF
FF
05
FF
02
FA
03
02
FD
FD
FE
FB
FD
07
01
01
01
FE
01
FF
FF
02
04
01
00
FE
FC
FD
00
FC
00
01
F7
01
05
01
02
F8
00
00
01
01
00
08
08
0F
0A
F6
FF
0C
FF
00
01
05
FA
02
02
02
01
FC
FB
07
0D
F4
FF
02
00
04
FE
F7
FD
FE
06
03
0C
F2
00
07
1B
06
FB
03
F9
FE
FC
FF
FF
07
06
FE
05
05
08
00
F9
03
01
04
07
03
04
FF
FF
F7
00
03
FF
FE
F6
F3
F9
06
00
FD
05
03
F8
E2
0A
00
FE
0D
04
FF
F9
01
FD
01
01
FC
02
F9
F3
01
FE
09
02
FA
0D
00
02
F7
0E
FE
FF
00
F9
F9
FF
04
FE
0B
F5
05
04
02
00
FB
FB
FF
05
00
FE
06
03
FB
F8
00
03
FE
04
FC
01
00
04
F4
E6
FE
F2
FE
08
FC
00
01
E4
06
08
FF
01
06
FD
FF
01
05
0A
00
FF
02
FD
0A
FC
FF
06
FD
FF
F7
FA
FF
01
FE
02
06
00
00
06
01
FB
FE
FF
0B
04
F8
05
04
00
03
04
00
04
0C
FD
02
00
05
FF
09
0A
09
02
04
FE
F9
FB
06
FE
01
01
03
00
FE
E2
11
26
00
05
08
00
FA
02
04
00
F7
02
05
03
11
EA
FF
FF
06
00
FF
FA
0B
02
FC
04
FA
07
03
FF
09
FF
FF
FF
05
FF
FF
0B
FF
F5
FF
FB
07
04
01
01
00
02
FC
00
02
FD
FF
08
0C
00
01
F7
01
FF
FE
00
03
05
11
F1
09
02
08
01
07
FE
FF
04
02
F8
03
02
FF
01
FB
07
01
00
03
05
07
06
FB
FC
FE
FC
F8
FE
05
00
FF
00
FC
00
01
0A
01
04
03
FD
00
02
FD
F9
FF
07
EF
2D
05
00
FE
EB
FF
F8
0D
02
FE
02
FC
00
06
FF
03
F7
FF
FF
E5
FB
FA
03
00
FC
00
F5
FE
FB
02
04
FC
FD
FE
FB
02
F9
03
FB
FF
03
0A
05
FE
F7
F4
02
03
FF
FE
05
0A
F5
FD
FC
00
09
C4
F6
02
FF
01
03
00
16
09
FF
23
0D
07
03
F4
05
0F
09
F2
07
FB
04
05
09
0D
00
03
01
FB
05
0E
04
01
01
FD
FE
02
06
FA
FF
01
00
02
02
02
FF
02
08
FD
00
F1
03
01
FF
E1
FE
FD
FA
0B
01
04
FF
02
01
03
03
08
04
FE
01
FF
FF
D9
F7
FE
E3
BA
00
01
01
FD
F9
0E
08
FE
FD
E9
05
0A
FC
FC
05
05
04
01
01
FD
EF
04
F2
FB
F1
F2
FD
02
00
FC
0B
FA
04
FA
FD
FD
FD
07
1D
F2
FC
03
01
06
01
F9
07
06
F3
00
FB
FB
03
01
00
FC
11
F8
FF
FE
EE
06
03
F5
0A
FE
FE
03
FF
0B
F9
05
FC
FA
02
0F
05
FF
FD
05
0E
05
07
E3
02
00
12
F9
FA
FB
1B
0A
FC
1B
01
02
ED
FA
08
09
05
01
FC
03
02
EF
ED
F7
F0
06
00
04
E3
F9
08
FC
03
03
0D
06
01
EB
FC
FD
EF
E0
0D
0E
02
FB
00
F8
07
E9
FE
07
06
03
F7
F2
F6
F4
0A
05
F2
00
00
F7
F8
F3
06
D2
11
FE
06
FF
FF
01
FD
F0
F1
00
FB
FD
FB
FC
E9
FF
0A
EC
FC
02
FA
F9
09
F6
F2
05
07
06
FC
19
F2
0F
E9
FD
16
F8
03
FF
0A
02
00
FD
E9
04
FA
F9
0F
FC
F3
06
0B
E9
08
04
F8
FF
0B
FB
F7
FF
FE
09
FA
F1
0B
FD
F8
EA
EC
F9
F1
FE
F5
F6
02
09
D8
F7
FD
FC
26
1C
20
03
FC
03
22
F7
02
F4
19
F4
FE
03
07
0C
00
FA
02
ED
0A
0A
FC
0A
FE
00
08
F5
01
1E
0A
02
10
00
08
04
0C
FE
06
D7
FA
FD
07
13
0E
0E
F2
0C
F7
07
1A
F4
0F
08
FC
F8
F6
C9
19
03
F8
05
0A
0A
0B
E8
FB
F5
FC
11
06
06
03
FD
F7
F8
F5
FF
00
01
FF
F4
F9
FF
FD
00
15
F4
05
0A
00
0E
E5
07
00
02
02
08
09
FE
FC
00
FA
06
DD
04
FB
DD
0A
00
00
FE
FB
05
F7
10
15
FE
FD
04
06
FC
05
12
06
12
F7
E7
FC
F9
FD
F7
2E
F7
01
E6
FC
F7
01
FD
FC
02
05
FF
00
0B
F6
FF
FF
FB
FC
08
F0
ED
1C
FF
FB
10
FF
F0
04
FF
FD
EE
EB
F7
F8
F2
01
F7
EC
02
FA
00
01
10
06
F9
00
FB
FD
F3
08
FF
01
0B
FF
02
23
F3
FF
02
EE
FE
FF
02
01
FC
03
01
0F
06
05
FE
FC
01
05
EF
05
09
08
03
F2
0A
F8
0B
04
07
F4
FA
0A
F8
01
06
FC
0D
06
FB
FF
01
F5
FB
00
03
F8
06
0F
00
FD
0D
05
FD
1C
FF
E7
00
03
03
0E
F9
F5
02
06
FF
FA
10
FD
04
05
F2
EB
F7
00
18
F6
F9
08
06
F8
E0
06
FE
FE
00
E9
10
06
04
05
0E
05
03
EF
F4
01
FD
09
FE
02
02
F7
12
FF
09
09
02
03
FF
0E
FB
0D
05
FC
EF
02
13
F5
F6
F0
17
F0
FC
0F
F1
01
F9
F2
FD
EB
03
03
FE
FC
01
27
05
09
F9
FC
01
FC
FA
F4
FE
00
05
F4
07
00
07
FC
05
FF
06
F6
20
F7
FC
FF
F7
F5
F8
00
01
00
FF
FF
FB
FF
FE
FF
00
03
FE
01
FE
02
03
01
05
F5
FE
FE
06
02
FE
08
02
FF
00
02
03
00
00
FE
00
00
03
00
FD
08
00
02
00
03
FF
01
FD
FE
FF
FC
FE
06
F5
F6
FF
00
0C
FD
03
00
04
03
02
06
02
01
FE
F7
03
FF
03
03
00
FB
09
FE
00
05
00
01
F7
0B
00
FE
FB
01
02
EF
07
02
FF
FB
05
04
FF
E3
FE
01
09
01
FC
FF
06
FC
FC
FF
FE
04
00
FD
00
FF
FE
01
03
03
01
03
09
0B
FF
FD
06
01
0A
01
FE
FE
03
02
00
01
FF
FA
00
FD
08
02
FE
00
FC
FD
0A
00
01
03
02
00
E8
FE
00
FF
FE
FE
FF
FE
02
FE
FF
01
FF
FC
FA
06
01
FC
05
03
FC
01
02
03
FB
02
02
00
02
00
FC
00
FF
00
01
FB
F9
01
FD
00
04
FA
FF
FE
01
02
FD
FD
01
FD
FF
00
00
01
01
08
FF
FF
09
FD
07
05
FF
FB
FD
00
FF
FE
FD
FC
01
09
00
02
01
FF
FE
05
03
01
FB
FF
00
FC
04
FB
00
02
FC
01
01
FD
03
01
01
FF
00
FE
FE
00
00
FC
01
FF
FA
FD
08
00
03
F0
00
00
F2
01
0B
FD
0F
05
0E
F2
04
FB
03
F9
FD
EB
FF
02
F8
E5
F3
00
11
02
01
0F
05
04
FC
0C
F8
FD
01
04
02
FF
00
08
FC
FF
14
FC
09
F7
06
0C
01
0C
11
F7
06
06
0F
09
01
01
FF
FE
FE
E5
FF
FC
04
F7
19
05
FF
02
F5
F2
FD
04
FE
0C
00
09
FB
1E
FA
FF
FA
0F
03
F1
FD
FD
F4
FF
01
01
FC
1A
04
F9
05
11
0C
F9
05
FC
FD
06
0B
07
01
FD
08
04
04
09
FD
08
FF
00
01
FA
F9
E9
01
FD
11
0A
05
02
07
F8
01
08
08
FA
FF
02
FC
15
FE
FD
FC
02
02
04
E8
03
00
FC
06
04
F8
04
FC
EF
19
04
01
FD
00
0B
01
FC
F7
03
FC
0C
FA
FC
FE
06
F6
14
F8
0A
07
0F
E8
10
08
F3
01
06
FD
ED
00
01
F7
04
07
F9
07
0D
08
06
09
EC
03
F9
10
FB
00
F0
12
04
FE
FA
FB
08
FF
E7
F7
FE
0F
FC
0C
08
02
FB
02
FC
F7
F6
FD
00
03
FF
0C
0E
FF
EC
F8
EE
08
FC
FD
04
E4
FC
09
FF
F2
FC
FE
F7
04
06
08
03
FE
0D
1F
FD
15
FF
00
05
FA
0B
FF
01
01
09
F9
F0
F7
DE
F7
FB
F9
13
FB
03
F1
02
0D
FB
FC
F8
FF
F9
0A
F5
F2
F8
10
07
05
02
08
FC
00
FB
EB
FB
07
F8
00
04
08
FC
FD
FE
FE
FF
F4
F6
00
03
EF
08
01
02
05
F9
00
02
05
EF
ED
F9
0A
FF
08
00
FF
FC
02
FB
13
02
10
F5
E9
02
00
FB
09
05
FC
FF
00
03
F0
01
05
07
00
EC
F2
05
FB
F1
EB
02
FD
FF
F5
FD
FF
0E
06
FD
04
F9
0B
02
03
F9
02
F7
F1
FF
06
01
07
09
FF
0B
FF
06
07
F9
04
02
FD
F0
15
02
01
FF
F1
FD
01
DB
F9
FA
04
0A
01
01
10
04
04
03
F9
FD
01
FD
01
FC
F7
01
00
02
FC
F9
08
FA
03
FC
07
03
03
FF
17
FF
11
00
FE
FE
FC
07
05
03
F7
FF
08
00
0B
01
0D
00
F9
F8
EE
01
07
0B
06
FF
00
F1
FF
03
02
F4
04
00
06
03
02
FF
EF
F2
01
00
03
0B
02
FE
00
01
FF
06
02
FC
FD
04
05
F7
FF
00
FF
03
F9
FE
00
FE
F9
06
FD
F7
FE
FD
02
09
FF
FE
04
02
03
F1
DF
FE
06
F0
FE
03
F6
FF
02
01
FE
EC
06
03
02
01
06
FA
02
FF
FD
FF
00
FC
01
FB
FF
02
FD
01
01
01
02
00
01
01
FF
04
06
FE
00
02
07
FE
02
02
FE
00
04
00
00
04
01
00
FF
FE
00
01
00
FF
01
00
00
0C
FF
00
06
00
01
02
02
02
00
FD
02
04
FD
FF
01
FD
00
FF
02
02
06
FD
F8
00
01
FC
02
FF
05
0A
FF
01
FD
02
01
FA
00
00
FB
01
03
01
01
19
00
00
07
FF
FF
05
FF
03
FE
02
01
01
FB
01
01
FB
01
FE
03
03
03
00
03
FF
01
02
FF
02
0B
FF
FF
03
FF
FF
00
FF
00
FE
FF
FF
FD
01
00
FD
01
FE
FE
FF
FF
03
06
01
0B
01
00
FD
00
FE
00
01
00
FE
FB
FF
01
FD
03
04
00
03
FE
02
03
01
FF
08
FC
FF
03
00
FE
00
06
00
02
FE
03
FF
FB
FE
FD
FF
01
00
03
00
FE
F5
00
01
00
00
01
00
01
02
00
FE
02
02
FF
02
FF
0E
FE
02
FE
01
00
03
FF
FD
01
FE
00
FF
FE
00
FF
FF
00
00
00
00
00
FF
02
FD
01
01
FA
00
00
FC
00
01
FD
FD
FE
06
02
FF
01
02
02
FF
02
FD
FF
00
FD
04
FF
14
01
2D
F6
FF
F6
02
02
09
29
0A
02
0A
F9
02
03
09
E9
FF
03
E3
06
F5
FF
F8
01
02
F7
00
FF
F9
12
05
0D
06
03
01
02
F0
04
FC
FA
03
09
00
01
F6
17
05
F3
EF
10
FE
01
FF
FE
03
FF
FE
03
02
F4
03
FD
FE
F9
F4
06
FF
02
01
07
0D
0A
F8
00
F2
14
F9
FE
FF
04
F7
01
0C
0E
FB
09
F8
FB
F3
F6
F6
F7
09
F4
00
00
08
03
0A
FC
F0
00
06
F4
EF
03
11
0D
07
FE
06
FE
0E
11
0D
FE
FC
E7
04
08
F6
0B
EE
FC
07
05
FE
FB
F6
15
FB
07
11
01
02
FA
EB
FA
F7
FF
FE
03
07
FC
12
04
1F
FB
05
FC
08
FF
02
06
FA
09
F4
F9
FF
FD
00
FD
07
03
1C
FD
FF
01
02
0D
0A
03
01
12
0E
07
09
01
11
F5
03
FB
FF
F3
03
FF
0C
ED
0A
FB
FF
10
FD
01
08
10
06
03
01
FB
09
01
FC
FB
05
02
05
01
11
FD
F7
04
FA
25
FE
01
00
05
FE
05
02
FE
01
06
0D
FF
FF
09
0B
01
FF
07
FE
02
01
03
05
28
03
05
0D
03
F7
09
F0
09
FE
FF
EB
0A
12
00
01
02
FE
F6
0D
09
0D
0E
08
01
FD
FD
FD
04
03
09
F2
02
F4
0A
04
F6
07
0C
F4
01
0D
00
0C
08
11
F9
00
01
01
08
FC
FF
FC
0A
02
FF
01
03
FE
FB
0A
07
F5
F2
07
00
FE
FB
00
FD
09
F9
F0
FF
F0
F7
03
0B
01
00
00
07
0A
F7
FE
02
07
04
09
11
03
00
0C
05
FF
02
08
FE
05
F5
F3
00
0A
04
00
01
08
03
FA
02
02
15
F2
FE
06
F9
F3
01
10
03
FC
F6
FC
02
F6
05
F1
FB
FD
03
F8
01
F2
10
07
FF
14
06
08
04
05
F9
FA
01
00
04
07
FF
FC
07
09
02
F9
F9
18
0A
FD
01
06
06
FF
EE
F8
FB
F4
F7
07
02
F9
F1
F1
FB
FF
04
0B
07
0C
FF
0C
01
07
FF
FF
07
0D
0D
04
FD
F7
FF
F6
05
FD
01
05
F8
FF
F9
1B
0C
EB
F3
04
FE
F7
FF
06
0D
00
F9
07
F0
F4
F6
04
F7
0A
07
05
08
08
13
14
0C
03
00
F9
08
03
FF
F4
F1
02
11
03
E4
FB
08
02
03
FA
00
FA
05
01
01
FD
FB
04
FB
11
F9
F1
07
19
12
FD
F1
FB
F7
00
09
F5
F9
FE
FC
00
F3
0B
FE
FA
FB
01
FB
F9
F9
FE
FF
FF
FC
FC
FC
F9
FE
FF
FA
FF
FD
FF
FF
F5
FC
FF
FC
F9
FE
06
FA
FD
FA
FB
FD
FF
FD
FB
00
F9
00
FD
FB
FA
FF
FA
F8
F9
F9
0C
FB
00
FB
FE
FB
FB
FF
02
FD
FE
F9
FE
FD
FC
FA
FB
FA
FD
FE
00
FD
FD
FF
FA
FF
F9
F8
0D
FF
00
FC
F9
FE
00
FC
F9
FB
FF
00
FF
00
FC
FA
FA
FA
FC
FE
FE
FD
FD
00
FC
FD
F8
FF
FC
FA
FD
00
FB
01
FF
FB
F9
00
FD
F6
00
FA
FD
FC
F9
FD
FD
F8
00
00
FC
FC
00
FC
FC
FD
FC
F9
FB
FA
FF
FB
FE
F9
FA
FF
FF
F9
FB
FD
F9
FE
F7
FF
FC
FF
FB
FE
FF
FA
FF
FC
FD
FC
FC
FE
FB
01
F9
FF
FB
FA
FF
FE
00
FB
FB
FD
FE
F8
F9
F8
FD
F9
FD
03
FC
00
FA
05
FA
F8
FE
FB
00
FD
FE
FE
FA
01
F9
FB
F8
FB
F9
FD
FD
FA
FA
00
02
FC
FE
F9
00
01
FB
FB
00
FC
F9
00
FA
FC
FC
00
00
F8
FD
FC
FB
F9
FD
FE
F6
FE
F9
F8
FF
00
00
00
FE
F8
FC
F9
F9
FC
FE
FA
FE
FD
F9
00
FC
FA
FA
FC
FF
FD
01
F8
01
FD
06
00
01
01
00
04
02
00
E1
FE
F2
01
02
FC
01
05
00
FB
02
00
FE
02
00
FB
00
FF
FF
03
01
01
03
00
03
00
FF
FF
04
FF
00
FC
00
FF
FF
FE
FF
02
04
00
07
01
FA
01
FD
01
FF
04
FF
FE
01
FF
FF
01
01
01
FE
FF
FE
FF
FE
00
03
02
FE
FD
04
FF
FD
FE
FE
FF
FE
FF
FF
FE
01
04
00
02
04
FF
00
FD
F7
FF
FE
FF
01
00
FD
00
FE
02
FD
FD
03
03
FA
FF
09
02
FF
05
07
05
FF
FD
07
FE
02
F9
FF
FF
00
FF
FB
FD
FF
00
01
F9
06
01
00
01
FF
FF
02
03
00
FF
FE
FE
00
FF
00
08
00
FF
FF
00
02
00
00
01
FE
00
FC
FE
01
03
02
FF
03
FB
FE
FE
FF
FE
04
FE
FD
02
FF
FD
00
FD
01
00
00
04
01
FF
FD
02
00
00
01
0A
FF
FE
FC
00
00
00
01
FC
00
FE
01
01
01
FF
05
FF
FE
04
04
01
FE
00
FF
FE
0C
07
05
00
02
04
00
00
FD
04
02
01
FF
02
00
FF
FA
05
FB
FE
01
07
FD
00
FC
FF
FC
FD
00
00
00
FF
FF
FF
FF
FF
FF
04
00
00
FF
FB
00
01
02
00
03
FE
02
01
00
01
06
01
00
03
00
04
FE
FC
FF
00
01
02
03
01
07
00
FF
FF
FF
FC
FF
FF
03
FF
00
05
FF
03
01
00
FF
FF
00
01
01
01
FF
FE
0C
01
03
FC
02
FE
02
02
00
03
FF
FE
03
FE
00
06
01
00
00
FD
FF
FB
00
00
02
FF
02
FF
00
FD
01
FE
05
FD
00
00
01
FF
05
02
FF
06
05
FC
FF
01
0A
F6
FE
03
00
01
02
FF
01
FC
00
01
FE
02
01
00
00
03
01
00
01
FE
FE
02
01
00
01
FB
00
06
FF
01
00
07
01
00
01
01
01
FF
00
FE
09
02
01
01
04
01
FE
01
03
F7
FF
05
01
02
02
FF
FE
00
FF
01
00
02
04
01
FF
04
02
FF
FE
FD
01
FA
01
00
04
FF
00
03
01
07
00
FE
00
01
FD
00
04
02
03
02
01
01
00
00
00
00
F8
00
01
00
01
00
01
FF
FE
00
02
01
03
FE
FF
FF
F8
02
FE
01
01
01
FF
02
FF
FF
01
00
04
00
FE
FF
00
04
00
00
00
FF
01
FE
FD
00
FF
02
FE
00
FC
00
00
05
00
FF
02
01
03
02
00
01
01
00
FC
FF
FF
FD
03
0A
FA
01
01
05
FD
FF
0D
04
05
02
FD
FB
01
09
0D
01
F5
08
01
02
07
00
01
0A
FD
F8
F0
F7
09
FF
0A
FF
01
03
02
06
FF
03
08
08
01
06
00
05
F7
07
07
03
08
03
01
03
05
00
02
04
02
FD
0A
0F
05
FD
05
05
0A
03
08
05
FC
FE
01
02
FF
03
FF
02
03
EE
04
05
06
06
05
02
02
04
0D
FA
FF
03
09
0A
FC
02
02
03
FE
08
FF
06
FB
03
08
00
00
06
05
05
F9
05
02
03
07
05
FC
09
02
11
08
04
0B
07
06
01
06
0C
FF
0B
FF
06
00
00
08
04
05
02
02
05
07
0F
01
0B
08
02
00
02
05
FE
00
09
03
06
00
09
09
F7
08
00
01
00
0A
EE
03
05
FB
04
01
03
05
02
00
0B
07
00
FF
FB
00
03
FF
06
02
04
04
FF
FB
09
FD
09
00
FE
00
0A
F5
04
FA
0A
03
07
09
03
03
00
FC
03
06
06
06
04
FE
01
05
FC
03
FE
03
05
01
03
0A
06
0C
02
04
FF
FF
06
00
06
03
01
FE
02
FF
0A
0D
02
00
05
15
FA
05
00
06
07
02
FC
02
08
00
0E
FF
04
FC
04
FD
FD
FD
06
FC
FF
FA
02
FF
F9
F7
FB
F6
FE
FE
FE
09
FA
FA
F5
02
FC
FD
F8
F2
F6
FE
02
FF
F9
00
FA
00
FF
F8
FC
01
FC
FD
F6
FD
03
FF
FF
EB
FA
FC
07
FE
FB
FA
F9
FB
FC
FE
FE
FA
06
FB
FA
F9
03
FA
FE
F7
FE
00
FD
FB
FF
01
F7
F9
FB
FD
04
FD
FC
FC
FC
FA
FB
07
00
01
F4
FA
F7
FD
FC
F9
FD
04
FB
02
01
FF
FE
FD
FB
FF
00
FB
F8
00
03
03
F8
FC
FC
FC
01
F2
02
FD
FB
FD
F7
F9
FC
FD
F7
FD
06
00
FD
06
FF
FF
FD
F1
01
FA
FB
02
FF
FA
FF
FF
00
FA
FC
FC
F9
FF
FE
E6
FF
FE
F5
FB
04
FC
F6
01
F8
03
FA
F9
F6
FF
00
FA
FF
FE
FD
FB
0A
FE
F8
F8
00
FB
03
F7
F8
ED
00
FC
FB
FD
FD
F8
F6
FB
FC
F9
01
FC
F6
FA
F9
FB
FD
FD
0C
01
FB
FC
00
FF
FF
02
04
FC
FE
05
F7
FE
01
01
07
03
01
FC
FD
FF
F7
02
FD
01
FF
FD
FC
FF
FC
E8
FE
E9
FC
FA
FF
F9
FC
F9
FC
F9
E8
03
01
FE
02
F8
FD
FB
FA
01
FB
FD
FF
FF
00
FD
FD
FD
F5
FA
FB
01
03
02
FC
01
FE
FC
02
0B
F7
04
01
FA
F2
02
14
E6
FA
FA
FE
FB
00
03
11
03
FE
00
05
05
F7
03
00
FF
03
F8
FC
FD
01
FF
0B
00
00
FC
01
02
03
FD
02
01
FF
FE
FB
01
FF
F7
03
F9
F9
0A
FD
F3
05
FF
01
00
02
F4
FA
FB
04
02
03
00
F5
FB
03
FE
F0
01
00
07
00
01
F7
FA
FB
00
04
FC
FC
05
FF
F5
01
00
FD
02
FC
FA
F5
0A
FF
F1
F8
FF
FE
FE
05
03
FD
FC
F9
F6
FA
F8
FB
FF
FC
07
F2
03
01
00
00
01
11
FE
FF
04
04
09
FC
04
00
FE
F0
FF
F8
01
07
FF
0E
03
F9
F5
F7
06
FB
FB
01
0A
04
FA
00
00
02
00
E9
FD
12
FE
FE
FC
FD
02
05
00
FF
FD
02
FA
FE
FB
06
0E
00
00
FD
F6
F3
F3
F7
F9
06
EE
03
01
02
0D
FC
F9
FF
0A
00
05
FC
F7
FF
00
FF
F0
FA
FE
09
FF
F4
01
F0
05
FD
FA
FF
FF
FA
02
F5
00
FF
04
FA
FD
F8
FE
06
FD
F6
02
FF
00
03
04
04
00
01
05
06
FC
FF
FE
F6
FA
05
02
FC
01
02
FE
FF
01
00
F9
FA
FF
FA
E6
06
00
04
04
FE
FD
0A
08
00
F8
08
F6
FC
04
FF
FD
FD
02
F8
FF
FE
08
01
00
0B
FF
06
07
18
0A
FF
09
06
06
04
F6
00
F2
05
01
EA
00
05
F7
03
03
00
05
F8
04
04
08
00
01
EF
02
0B
FD
F9
04
F9
07
04
FA
0E
03
0C
03
15
ED
FC
EE
FF
06
07
F8
FD
0D
12
01
FF
02
08
F9
F4
FF
03
06
03
FA
FB
14
03
08
04
05
0A
F5
07
08
00
FF
FC
09
11
02
02
04
FF
05
ED
F8
FB
F4
F5
02
FF
09
FB
0E
10
02
04
06
09
03
01
07
02
05
00
02
01
06
FB
0A
F5
0E
FD
04
05
06
FB
09
FE
EF
02
0C
FF
03
F4
F7
FC
FD
F9
03
FF
04
02
06
0D
02
FF
04
FB
FB
0B
0A
08
F9
00
08
0C
F3
01
F5
FA
02
01
F7
DE
FD
FF
0A
0C
00
FD
09
19
0A
0D
F5
F9
F7
0B
04
02
03
FD
09
FA
FE
FF
04
02
09
FC
EB
2C
FD
FD
08
04
FE
0B
00
01
FC
F7
05
01
00
FD
F6
0F
E0
0D
F4
03
FD
06
03
0C
E9
00
0C
F1
05
F9
FA
0A
05
06
05
00
04
F8
FD
08
02
03
FF
F7
08
FC
FE
1D
08
FB
08
02
F7
21
05
0E
07
01
01
0D
0E
F9
0B
EA
09
0A
18
04
0A
0D
07
09
27
03
0E
F5
01
F9
06
01
03
02
FF
FC
FD
F4
FD
15
02
01
F1
0C
17
10
05
00
16
02
00
17
07
FB
F9
FB
1E
09
EF
F9
FE
01
FE
0A
FC
FD
05
F4
02
FE
02
F0
12
F3
08
FC
14
06
03
FB
0C
FB
06
FC
11
F5
FC
F7
0A
06
F2
02
FB
03
1E
10
FB
11
F1
00
0C
00
F7
FC
0A
04
F9
11
0D
F9
05
0D
08
04
07
01
05
05
04
0E
0B
04
FB
F9
0C
FF
03
FD
01
F5
05
FD
09
FD
FD
0D
FD
05
04
FC
FE
FC
04
FF
05
FD
FD
02
FD
04
FD
F9
FF
02
19
01
09
FC
04
07
02
1C
0A
05
FF
FE
03
FC
FC
00
FF
F5
0E
04
E6
03
05
01
06
FF
02
04
04
0E
2B
10
08
FE
FA
03
FE
0A
02
00
03
05
F2
FB
F4
01
F8
F5
03
05
FF
FD
00
02
03
FA
F1
03
06
02
04
FE
FC
06
00
FE
00
08
09
FA
EF
00
F9
01
03
FC
0E
FF
13
01
FC
FE
01
05
06
09
F2
1D
0B
05
04
08
00
F0
07
FE
0A
06
0F
F9
08
04
F8
00
FF
03
0E
FF
01
00
F7
FA
01
FE
06
FF
06
0A
04
06
01
00
FD
01
09
00
FB
09
01
FF
05
06
09
FB
FF
FF
05
01
FE
02
02
FC
06
FB
08
00
07
FB
0E
00
09
FF
09
FA
FB
06
01
03
01
04
0A
01
03
F8
02
03
05
03
02
04
0C
01
06
01
01
FF
FF
04
FD
02
00
04
00
04
F9
02
00
05
07
FF
0A
06
01
FE
17
04
03
00
08
00
08
FE
02
02
FC
02
0B
01
08
03
20
02
02
FD
06
FD
03
04
0C
01
02
06
F5
09
05
04
00
02
FE
0B
05
07
02
FF
00
04
F7
06
FE
06
01
02
04
FF
FE
06
07
0F
FB
03
03
04
07
00
01
FF
02
02
06
FA
FF
04
00
F6
04
00
0A
FE
04
02
08
FD
09
0B
08
07
02
00
02
07
04
00
03
FF
FC
02
F9
07
03
08
0A
06
0A
04
01
FA
06
FB
03
08
16
FE
02
04
FE
01
FA
05
06
FF
FE
0B
03
FC
01
07
00
06
03
04
07
09
04
05
05
F6
08
03
10
05
08
FE
00
FB
FF
17
01
0A
FF
08
04
01
FC
02
00
07
01
FF
05
0D
00
00
04
02
06
04
EE
F9
0A
02
F3
07
FF
F9
F3
FC
23
FF
08
F7
09
01
FE
FA
F9
03
F7
09
FD
0F
0B
11
0C
08
FA
12
FE
01
F2
03
F7
FB
01
03
04
00
F9
14
13
00
01
FA
13
03
FA
FD
F8
F1
E6
11
06
08
FA
FC
01
02
0A
21
0E
06
0D
01
03
1A
0E
FD
00
00
18
09
FF
05
05
04
0B
11
FD
02
F4
EE
28
F8
FE
04
F1
FA
02
0A
FB
06
05
FB
03
0E
FE
FC
0C
0E
05
FE
05
FE
05
02
F1
11
FF
09
04
05
0E
F7
FA
FE
03
08
02
02
F0
02
FC
F3
0B
EE
FF
40
1F
FB
08
F9
F3
FD
EA
EA
F9
06
F1
0C
E8
0F
10
01
05
F9
00
FB
04
FB
0D
EC
00
F2
EF
FC
F2
FE
01
FF
03
0B
00
02
0A
F9
01
06
1D
FF
03
0D
18
04
03
00
02
07
05
10
FA
07
FE
04
04
06
04
FB
15
04
0C
03
0A
EF
14
F3
09
09
F7
F9
FA
FC
F4
0B
09
FF
F3
00
02
FD
15
01
05
01
FB
05
1D
04
0E
F8
06
06
1E
FD
05
ED
01
20
09
E0
FB
00
04
01
02
FE
D1
FC
FD
03
F9
FA
F0
10
02
02
08
0C
00
EF
FC
02
01
03
