74
7A
7E
07
7A
7E
03
03
07
01
03
7A
6F
7C
7C
7A
02
7B
78
7B
7D
7B
01
02
7A
7B
75
7D
77
00
04
7F
01
09
7E
06
05
06
7A
7F
7D
02
7B
04
76
7E
03
00
14
7F
7E
03
05
7C
79
63
03
79
16
03
04
7F
76
7D
73
0E
7A
56
00
0B
0A
08
0A
77
73
61
00
69
0D
09
7A
02
76
6D
69
06
06
7D
6E
0A
03
02
7F
12
79
09
10
7E
01
73
14
7B
02
7B
08
11
0B
02
07
7C
76
6E
01
79
7E
7B
03
7C
7E
1E
7B
6F
04
0D
7D
7B
0C
75
