7F
05
04
7B
7B
7C
7A
7D
78
7E
07
76
6E
02
74
7F
05
01
04
77
02
00
7E
00
7B
76
05
0D
01
7D
03
05
7D
72
02
78
7A
08
01
06
00
7B
05
04
1A
03
7E
7E
76
00
01
08
7E
78
7D
7D
0E
79
05
01
7E
7C
06
07
02
04
05
08
7A
77
7C
7F
6A
09
04
79
71
01
08
05
78
01
0C
7B
7F
7F
79
08
11
07
0A
01
73
7E
7D
7A
7B
09
76
6F
0D
05
7D
0C
09
07
76
75
1C
02
05
03
18
7C
00
6E
10
70
04
00
73
7A
21
02
77
01
0E
10
