39
33
0A
09
3C
3E
39
38
36
39
00
00
37
3C
02
03
3C
03
00
02
08
01
3F
00
3C
01
02
08
05
3B
0B
39
3E
33
07
3A
02
03
3A
03
08
08
3F
03
39
02
01
00
3E
09
09
39
3D
3C
35
3A
3F
3A
00
38
3B
03
01
01
03
05
05
00
3A
3F
03
3E
3A
00
08
3A
07
06
2D
06
3D
3A
3E
3F
34
3B
3E
01
03
05
06
3C
3C
10
3D
3D
02
01
00
03
05
3B
03
00
3C
3C
3F
3E
3B
3D
06
01
3F
39
3F
30
33
3C
3D
39
00
3D
1C
3B
39
00
3F
3F
