00
00
3F
3F
00
01
01
3F
00
00
00
01
3D
04
3A
00
3F
3F
00
02
01
00
01
3E
3F
3E
01
02
3E
3F
3C
02
00
3F
00
02
3D
02
01
01
00
3F
03
04
01
3D
3D
3E
3D
3F
02
03
00
04
05
3E
07
3F
05
00
02
02
02
3D
03
3E
05
13
39
3A
08
03
3C
3E
35
39
3D
32
0D
37
04
3E
3C
3C
01
00
37
04
3C
3C
2C
11
07
31
3B
3D
3F
11
3B
3A
05
02
08
05
00
05
0D
08
0B
06
2F
05
03
04
3E
3A
37
37
29
19
39
2A
06
12
01
3D
37
3C
