7A
7F
01
02
04
06
05
05
06
7D
7B
7B
0B
01
07
04
76
05
06
7C
05
0E
73
7C
00
77
08
01
73
7A
73
75
7D
78
75
01
7C
06
7D
07
0A
05
7C
0A
04
03
7C
00
1A
01
7F
74
01
78
04
01
75
73
24
07
74
02
07
03
03
7D
74
6D
0B
6F
03
7F
02
72
76
05
77
7C
5F
5E
0B
5E
5D
75
70
11
09
03
0F
78
56
6F
70
7B
1B
79
77
02
7E
7F
6F
7E
09
76
0B
05
00
0E
09
03
67
08
75
13
7C
7B
1C
02
0F
05
02
12
15
08
7C
0C
05
6D
