FA
0C
F5
F7
FB
EC
06
E8
04
ED
1A
0F
F8
EF
0E
02
01
13
F4
F4
EE
06
F8
0A
05
04
0C
FF
1B
0F
F1
EB
0A
03
13
0A
F9
E9
08
E7
FD
06
DF
11
14
20
FF
13
FA
F3
FE
04
F2
00
FE
14
F6
0A
43
F3
06
FF
FA
FB
FB
14
F8
EF
0C
1E
04
F8
FB
0F
E8
E2
F0
0C
16
0D
F4
0A
10
00
02
19
F9
F9
18
06
03
01
09
E6
F5
E6
12
1E
07
12
FD
0A
12
01
0E
06
01
F8
EF
01
04
FC
35
FD
0D
E2
F6
04
10
08
E8
E1
05
04
EB
FF
04
FA
