4E
1A
77
61
7D
7C
1F
7F
1D
73
75
47
47
05
7E
7D
1A
1C
60
0F
7C
0E
79
24
7B
03
74
4E
1B
0E
09
5A
76
22
03
1F
79
0F
7A
74
27
1A
71
28
17
5F
0A
71
6F
6F
76
1B
7B
7C
29
4C
46
00
1F
29
0D
74
60
70
0B
09
05
72
06
7D
73
7D
04
7A
01
76
0F
7F
75
7E
7D
06
03
78
03
02
02
7F
04
7E
02
00
06
0A
06
7F
7E
76
7A
0A
74
79
79
06
7C
7E
76
0F
19
79
05
01
05
04
7C
7B
6C
71
6F
78
07
01
17
09
00
7D
71
00
