02
02
01
78
00
00
03
79
79
00
7C
75
77
7E
14
04
00
04
72
76
03
04
03
79
0D
08
7E
7E
0F
7E
7A
7A
01
06
02
74
0B
7B
7E
7E
7D
01
00
03
00
7B
7D
7A
0E
02
05
7A
09
01
11
0A
7A
68
13
00
77
7D
02
01
7D
74
02
0E
6C
77
08
78
79
6F
73
78
64
02
7C
62
7A
00
77
67
71
76
04
00
6D
00
7C
06
18
78
05
74
00
1F
5B
72
74
03
2B
73
76
7C
7E
09
2E
0D
7E
06
0B
02
7A
43
6D
66
7B
05
60
5B
14
07
7E
0F
0E
78
