67
7F
16
09
69
00
19
17
09
7B
78
24
02
7F
79
1B
0B
52
60
0C
6E
00
7D
6D
7E
7A
7E
27
05
72
1D
7C
6E
76
7B
02
71
0A
11
10
14
15
0C
43
79
12
7D
03
02
7F
02
73
09
7F
37
74
75
16
07
21
0F
14
6A
03
03
0B
01
7B
7F
0A
04
7C
7B
04
05
0A
08
77
1F
09
00
01
05
02
6D
09
77
07
0F
04
02
02
7B
7B
78
78
7F
73
0E
79
06
7D
02
7A
0A
00
08
09
1B
01
06
07
78
05
7D
6A
76
7D
02
10
6D
71
5E
07
0E
7D
78
0A
